#version: 0.2
영 화</w>
. .</w>
ㅋ ㅋ</w>
니 다</w>
는 데</w>
너 무</w>
정 말</w>
. .
으 로</w>
지 만</w>
네 요</w>
재 밌</w>
진 짜</w>
에 서</w>
재 미
연 기</w>
최 고</w>
평 점</w>
. ..</w>
어 요</w>
이 런</w>
ㅋ ㅋㅋ</w>
스 토
습 니다</w>
스토 리</w>
드 라
아 니</w>
생 각</w>
드라 마</w>
배 우</w>
사 람</w>
감 동</w>
까 지</w>
내 용</w>
보 다</w>
만 들</w>
감 독</w>
재 미</w>
그 냥</w>
지 루</w>
시 간</w>
! !
재미 있</w>
1 0</w>
사 랑</w>
재미 없</w>
다 는</w>
레 기</w>
해 서</w>
면 서</w>
쓰 레기</w>
라 고</w>
하 나</w>
나 오</w>
다 시</w>
작 품</w>
렇 게</w>
이 거</w>
.. ..
다 가</w>
이 건</w>
마 지
정 도</w>
마지 막</w>
액 션</w>
으 면</w>
다 고</w>
기 대</w>
~ ~
! !</w>
라 는</w>
입 니다</w>
ㅠ ㅠ</w>
완 전</w>
장 면</w>
^ ^</w>
아 깝</w>
처 음</w>
; ;</w>
인 공</w>
주 인공</w>
지 금</w>
이 렇게</w>
모 르</w>
이 게</w>
최 악</w>
이 야
이야 기</w>
그 리
느 낌</w>
ㅎ ㅎ</w>
어 서</w>
별 로</w>
봐 도</w>
세 요</w>
인 데</w>
이 해</w>
부 터</w>
명 작</w>
이 상</w>
여 자</w>
는 지</w>
역 시</w>
한 다</w>
한 국</w>
그리 고</w>
에 게</w>
만 든</w>
많 이</w>
그 래
합 니다</w>
아 까
없 이</w>
우 리</w>
괜 찮</w>
대 로</w>
연 출</w>
때 문</w>
기 억</w>
이 나</w>
~ ~</w>
ㅡ ㅡ</w>
아 름
다 면</w>
현 실</w>
다 른</w>
O O</w>
마 음</w>
내 내</w>
무 슨</w>
아 요</w>
남 자</w>
인 생</w>
결 말</w>
다 니</w>
공 포</w>
전 개</w>
아 서</w>
짜 증</w>
아 이</w>
소 재</w>
필 요</w>
은 데</w>
유 치</w>
반 전</w>
일 본</w>
수 준</w>
음 악</w>
라 도</w>
인 지</w>
인 간</w>
매 력</w>
가 장</w>
가 슴</w>
연 기
ㅠ ㅠ
" "</w>
을 까</w>
눈 물</w>
만 드</w>
원 작</w>
다 운</w>
보 여</w>
니 까</w>
나 라</w>
여 운</w>
인 가</w>
스 럽</w>
코 미
코미 디</w>
추 천</w>
처 럼</w>
아 직</w>
모 든</w>
아 닌</w>
실 망</w>
자 체</w>
리 즈</w>
!! !!
릭 터</w>
대 체</w>
대 한</w>
부 분</w>
거 리</w>
대 박</w>
스 러
는 다</w>
려 고</w>
소 리</w>
보 이</w>
구 나</w>
몰 입</w>
캐 릭터</w>
솔 직
아 주</w>
모 두</w>
그 런</w>
아 무
솔직 히</w>
너 무
가 족</w>
건 지</w>
모 습</w>
연기 력</w>
그래 도</w>
대 사</w>
시 리즈</w>
전 혀</w>
뭔 가</w>
.. ..</w>
근 데</w>
개 봉</w>
계 속</w>
가 지</w>
표 현</w>
메 이
극 장</w>
중 간</w>
라 면</w>
공 감</w>
떨 어
이 랑</w>
이 걸</w>
된 다</w>
제 목</w>
만 큼</w>
그 렇</w>
대 단</w>
스 릴
해 도</w>
같 이</w>
기 분</w>
진 심</w>
수 록</w>
타 임</w>
이 제</w>
영 상</w>
영 화
작 가</w>
자 기</w>
준 다</w>
어 디</w>
아 쉽</w>
나 왔</w>
ㅜ ㅜ</w>
0 0
스 터</w>
웃 기</w>
친 구</w>
봐 야</w>
조 금</w>
막 장</w>
잔 잔</w>
이 유</w>
요 즘</w>
난 다</w>
부 족</w>
장 감</w>
어 도</w>
그 런
긴 장감</w>
시 대</w>
아까 운</w>
스릴 러</w>
개 인</w>
점 수</w>
노 래</w>
? ?
억 지</w>
특 히</w>
시 작</w>
해 요</w>
제 대로</w>
!! !</w>
아 쉬
한 테</w>
어 떻
아름 다운</w>
나 름</w>
제 일</w>
무 서
어떻 게</w>
라 리</w>
의 미</w>
하 지만</w>
.... ....
당 시</w>
무 섭</w>
차 라리</w>
이 것</w>
나 온</w>
엔 딩</w>
오 랜
오랜 만</w>
생 각
리 오</w>
웃 음</w>
세 상</w>
어 야</w>
따 뜻</w>
던 데</w>
해 야</w>
ㅋ ㅋ
으 나</w>
어 설
훌 륭</w>
; ;;</w>
절 대</w>
로 맨
강 추</w>
못 하</w>
느 끼</w>
전 쟁</w>
너무 나</w>
마 다</w>
~~ ~</w>
도 대체</w>
무 엇</w>
라 니</w>
답 답</w>
만 화</w>
O OO</w>
스 트</w>
와 서</w>
0 0</w>
설 정</w>
그 저</w>
위 기</w>
감 정</w>
진 다</w>
흥 미</w>
수 작</w>
신 선</w>
엄 청</w>
미 국</w>
정 신</w>
더 라</w>
관 객</w>
시 절</w>
행 복</w>
슬 프</w>
동 안</w>
라 서</w>
시 나
자 신</w>
허 접</w>
군 요</w>
배 경</w>
초 반</w>
아 닌
역 사</w>
사 실</w>
어 색</w>
시나 리오</w>
스 팅</w>
한 데</w>
야 지</w>
스러 운</w>
2 0</w>
버 리</w>
소 름</w>
분 위기</w>
추 억</w>
멋 진</w>
인 물</w>
멋 있</w>
힘 들</w>
캐 스팅</w>
학 교</w>
밖 에</w>
어 이
로 운</w>
킬 링</w>
졸 작</w>
엄 마</w>
더 니</w>
봐 서</w>
결 국</w>
오 늘</w>
? ?</w>
이 딴</w>
스 타
함 께</w>
구 성</w>
제 발</w>
문 제</w>
나 요</w>
뻔 한</w>
애 니
어이 없</w>
안 타
평 가</w>
어 떤</w>
위 해</w>
아무 리</w>
사 회</w>
포 스터</w>
돌 아
마 나</w>
코 믹</w>
주 연</w>
어 릴</w>
보 단</w>
장 난</w>
아 이
애니 메이
완 벽</w>
.. ...</w>
애니메이 션</w>
- _
유 쾌</w>
네 이
진 부</w>
나 올</w>
얼 마나</w>
아름 답</w>
출 연</w>
여 기</w>
개 연</w>
머 리</w>
후 회</w>
영화 관</w>
보 고</w>
어 울
나 마</w>
어 나</w>
충 격</w>
갈 수록</w>
o o
얘 기</w>
디 오</w>
옛 날</w>
들 어
봐 라</w>
본 다</w>
이 쁘</w>
예 술</w>
방 송</w>
그 렇게</w>
얼 굴</w>
제 작
레 이
온 다</w>
시 청</w>
이 후</w>
애 니</w>
주 제</w>
낭 비</w>
티 비</w>
위 한</w>
불 쌍</w>
못 한</w>
오 래</w>
마 디</w>
ㅉ ㅉ</w>
구 만</w>
잔 인</w>
이 리</w>
별 점</w>
텐 데</w>
이 름</w>
그래 서</w>
건 가</w>
인 상</w>
구 요</w>
매 우</w>
다 큐</w>
비 디오</w>
장 르</w>
좋 아
나 가</w>
순 수</w>
언 제</w>
생각 나</w>
다 음</w>
상 황</w>
시 키</w>
그 만</w>
아 무</w>
궁 금</w>
시 즌</w>
누 구</w>
가 요</w>
아 버
아 님</w>
비 슷</w>
그 러
에 요</w>
스 릴</w>
보 여
길 래</w>
~ !</w>
당 히</w>
그 것</w>
여 주인공</w>
세 계</w>
미 친</w>
아버 지</w>
나 와서</w>
려 는</w>
나 이</w>
영 상
그 러</w>
약 간</w>
떨어 지</w>
집 중</w>
짜 리</w>
어 느</w>
버 린</w>
라 이
그 나마</w>
예 전</w>
마 세요</w>
걸 작</w>
감 사</w>
바 로</w>
로맨 스</w>
진 정</w>
해 라</w>
실 화</w>
훨 씬</w>
그 대로</w>
3 0</w>
중 국</w>
전 체</w>
만 점</w>
느 껴
학 생</w>
죽 이</w>
소 설</w>
존 나</w>
아 들</w>
비 교</w>
초 딩</w>
대 해</w>
엉 성</w>
끝 나</w>
ㅎ ㅎㅎ</w>
영상 미</w>
다 르</w>
더 럽</w>
; ;
순 간</w>
발 연기</w>
네이 버</w>
혼 자</w>
든 다</w>
느 껴</w>
로 서</w>
누 가</w>
간 다</w>
타 지</w>
감 성</w>
C G</w>
멋 지</w>
는 가</w>
귀 엽</w>
여 주</w>
리 스
어 린</w>
여 배우</w>
한 마디</w>
1 00</w>
린 다</w>
어 렸</w>
화 려</w>
귀 여
어설 픈</w>
빨 리</w>
9 0</w>
워 서</w>
잘 못</w>
성 룡</w>
당 신</w>
느 낄</w>
가 능</w>
아 야</w>
버 렸</w>
~~ ~~
목 소리</w>
자 연</w>
케 이
무 리</w>
교 훈</w>
건 데</w>
가 치</w>
판 타지</w>
s t</w>
엄 청
기 다
로 그
2 00
삼 류</w>
론 가</w>
어 른</w>
2 0
전 부</w>
거 의</w>
저 런</w>
질 질</w>
살 아
독 특</w>
연 히</w>
다 만</w>
아까 움</w>
평 론가</w>
상 당히</w>
찾 아
나 온다</w>
여 러</w>
봤 었</w>
으 니</w>
스타 일</w>
oo d</w>
려 서</w>
!!!! !!!!
스 트
아름 다
줄 거리</w>
장 히</w>
마 이
T V</w>
장 판</w>
뛰 어
각 본</w>
이 러</w>
굉 장히</w>
지 루
에 선</w>
주 의</w>
그러 나</w>
8 0</w>
이 팅</w>
이 번</w>
으 면서</w>
슬 픈</w>
성 우</w>
-_ -</w>
한 번</w>
ㅜ ㅜ
머 니</w>
갑 자기</w>
화 면</w>
존 재</w>
그런 지</w>
의 도</w>
연 출
뻔 하</w>
떠 나</w>
너무 너무</w>
^ ^
단 순</w>
허 무</w>
지루 함</w>
거 나</w>
요 소</w>
그 녀</w>
예 쁘</w>
만 나</w>
중 요</w>
예 상</w>
♥ ♥
전 히</w>
제 작</w>
아 빠</w>
복 수</w>
극 장판</w>
아까 워</w>
항 상</w>
반 부</w>
한 다는</w>
비 해</w>
그 때</w>
t v</w>
1 9
선 택</w>
못 했</w>
불 편</w>
댓 글</w>
평 범</w>
20 1
프 랑
어 지</w>
탄 탄</w>
거 기</w>
어 린
던 가</w>
한 편</w>
지 나</w>
분 히</w>
만 족</w>
일 단</w>
새 로운</w>
흥 행</w>
이 하</w>
진 행</w>
아닌 가</w>
관 계</w>
여 서</w>
에 로</w>
즐 거
안타 깝</w>
따 라</w>
나 옴</w>
관 람</w>
사 건</w>
더 욱</w>
점 점</w>
따 위</w>
도 록</w>
예 요</w>
역 대</w>
나 쁜</w>
연출 력</w>
말 로</w>
한 심</w>
충 분히</w>
잖 아</w>
저 히</w>
물 론</w>
게 임</w>
식 상</w>
자 꾸</w>
에 겐</w>
데 요</w>
~ !!</w>
카 메
이 제
우 드</w>
편 집</w>
미 안</w>
똑 같</w>
화 이팅</w>
빠 지</w>
귀 신</w>
ㅠ ㅠㅠ</w>
전 형</w>
원 래</w>
조 건</w>
좋아 하</w>
몰 랐</w>
국 인</w>
진 실</w>
인 다</w>
어 쩔</w>
터 리</w>
미 치</w>
ㅠㅠ ㅠㅠ
코 메
진 진</w>
자 극</w>
아 프</w>
그 게</w>
훈 훈</w>
프랑 스</w>
상 상</w>
그 리</w>
그래 픽</w>
ㅡ ㅡ
코메 디</w>
넘 치</w>
프 로</w>
이 란</w>
억 지
죽 음</w>
어울 리</w>
속 편</w>
g ood</w>
개 그</w>
했 었</w>
까 요</w>
안타 까
리 티</w>
하 나
인 듯</w>
새 끼</w>
민 국</w>
아 도</w>
무 비</w>
병 맛</w>
조 차</w>
어 려
별 루</w>
홍 콩</w>
표 정</w>
스 타</w>
빠 져</w>
노 력</w>
황 당</w>
취 향</w>
연기 자</w>
천 재</w>
엄청 난</w>
진 지</w>
예 고
아쉬 운</w>
소 녀</w>
예고 편</w>
뭔 지</w>
던 지</w>
하 고</w>
중 반</w>
심 하</w>
세 지</w>
로 써</w>
으 며</w>
괜 히</w>
과 거</w>
" ""</w>
소 년</w>
심 리</w>
바 보</w>
마 무리</w>
짱 짱</w>
설 명</w>
립 니다</w>
고 자</w>
상 영</w>
도 저히</w>
결 혼</w>
o st</w>
후 반부</w>
참 신</w>
예 산</w>
무 조건</w>
또 한</w>
따 라
나 쁘</w>
그 림</w>
능 력</w>
무서 운</w>
대 한
대 작</w>
는 구나</w>
히 려</w>
효 과</w>
지 나
오 히려</w>
어 라</w>
이 미</w>
리 스</w>
로맨 틱</w>
더 빙</w>
힘 든</w>
전 편</w>
전 설</w>
아 저
대한 민국</w>
비 추</w>
아저 씨</w>
그 랬</w>
특 유</w>
크 리스
전 달</w>
우 연히</w>
억지 로</w>
끝 내</w>
.... ..</w>
부 모</w>
촬 영</w>
져 서</w>
동 생</w>
희 망</w>
실 히</w>
경 찰</w>
만 에</w>
동 화</w>
가 볍</w>
소 중</w>
느 꼈</w>
노 출</w>
간 만에</w>
환 상</w>
조 연</w>
일 까</w>
그 닥</w>
거 지</w>
S F</w>
최 근</w>
어설 프</w>
아무 것</w>
오 빠</w>
스 런</w>
, ,
현 재</w>
하 하</w>
저 질</w>
네 여</w>
후 반</w>
알 바</w>
즐 겁</w>
아 닐
문 화</w>
러 운</w>
왠 만</w>
신 기</w>
메 세지</w>
감 상</w>
ㅋㅋ ㅋㅋ
파 이
올 리</w>
서 로</w>
남 기</w>
유 머</w>
제 로</w>
이 코</w>
유 명</w>
먼 저</w>
살 인</w>
범 죄</w>
행 동</w>
프 로그
전 작</w>
나 와</w>
할 까</w>
프로그 램</w>
바 람</w>
그런 데</w>
묘 사</w>
다 행</w>
청 춘</w>
적 당</w>
이 래</w>
리 메이
걸 로</w>
엉 망</w>
사 라
마 저</w>
여 성</w>
아쉬 움</w>
오 글
리메이 크</w>
등 장</w>
허 술</w>
관 심</w>
흥 미
어 렵</w>
나 중</w>
해 피</w>
이 젠</w>
사 이</w>
걸 까</w>
지 난</w>
선 생</w>
은 지</w>
보 내</w>
바 라</w>
멍 청</w>
누 군
고 생</w>
졸 라</w>
마 치</w>
랄 까</w>
되 게</w>
니 깐</w>
흥미 진진</w>
역 할</w>
본 인</w>
리 우드</w>
왠 지</w>
가 득</w>
S T</w>
흘 러
심 히</w>
무 지</w>
채 널</w>
시 다</w>
ㅇ ㅇ</w>
철 학</w>
잊 혀</w>
아닌 데</w>
고 요</w>
어 떻</w>
과 정</w>
제작 비</w>
보여 준</w>
마 시</w>
사 극</w>
보 인다</w>
1 5</w>
카메 라</w>
실 제</w>
더 라
깊 이</w>
가 끔</w>
드 립니다</w>
됩 니다</w>
?? ??
호 러</w>
성 인</w>
미 래</w>
!! !!</w>
정 신
스 케
범 인</w>
그 래</w>
차 이</w>
위 대</w>
아 라</w>
나 머
성 공</w>
분 명</w>
더 군요</w>
먹 먹</w>
c g</w>
영 웅</w>
t h
4 0</w>
. ?</w>
생 겼</w>
봅 니다</w>
기 세</w>
한 다면</w>
인 정</w>
박 수</w>
라 이</w>
이 연
러 브</w>
구 려</w>
어 쩌</w>
리 얼</w>
봣 는데</w>
독 립
O ST</w>
-_ -
케이 블</w>
스케 일</w>
웃 긴</w>
우 울</w>
산 만</w>
군 대</w>
가 진</w>
줘 야</w>
아닐 까</w>
이 트</w>
생 애</w>
드 럽</w>
남 주</w>
대 충</w>
~~ ~~</w>
평 생</w>
려 면</w>
낚 였</w>
자 유</w>
시 지</w>
미 소</w>
다 소</w>
i n
출 연
확 실히</w>
~ ^^</w>
그런 가</w>
아까 웠</w>
귀 여운</w>
아 내</w>
시 도</w>
볼 수록</w>
달 리</w>
폭 력</w>
충 분</w>
겁 나</w>
전 기세</w>
시 원</w>
메 시지</w>
끄 럽</w>
청 자</w>
제작 진</w>
심 심</w>
성 장</w>
리 뷰</w>
커 플</w>
일 상</w>
독립 영화</w>
괴 물</w>
언 니</w>
결 론</w>
당 하</w>
나 와
끼 리</w>
질 리</w>
이 미
뮤 지
그 럼</w>
고 민</w>
자 막</w>
의 리</w>
싸 우</w>
실 패</w>
손 발</w>
광 고</w>
1 2</w>
아 침</w>
e r
자 리</w>
발 견</w>
흐 름</w>
어린 이</w>
상 상
한 다고</w>
한 계</w>
터 지</w>
조 폭</w>
굳 이</w>
과 연</w>
포 장</w>
여 전히</w>
슬 픔</w>
상상 력</w>
감 탄</w>
유 일</w>
싸 이코</w>
디 어</w>
동 물</w>
인 기</w>
무 시</w>
통 해</w>
자 는</w>
넘 어
상 처</w>
살 짝</w>
종 교</w>
웃 겨</w>
용 서</w>
올 라
여 행</w>
다 가
기 본</w>
개 판</w>
자 식</w>
방 식</w>
?? ?</w>
예 쁜</w>
아 먹</w>
뜬 금
다 지</w>
나 타
1 1</w>
코 드</w>
정 서</w>
어 찌</w>
뮤지 컬</w>
덕 분</w>
기 억
5 0</w>
연 애</w>
시 선</w>
섹 스</w>
분 노</w>
보 였</w>
몸 매</w>
에 휴</w>
소 장</w>
성 도</w>
힐 링</w>
홍 보</w>
시 청자</w>
빠 진</w>
반 성</w>
등 학생</w>
남 편</w>
하 루</w>
표 절</w>
퀄 리티</w>
저 럭</w>
정 말로</w>
우 정</w>
아 오</w>
비 하</w>
그 럭
국 민</w>
7 0</w>
생 활</w>
새 벽</w>
살 리</w>
듯 이</w>
돌아 가</w>
그럭 저럭</w>
포 기</w>
열 심히</w>
알 려</w>
들어 가</w>
더 만</w>
눈 빛</w>
하나 하나</w>
완 성도</w>
언 제
빠 져
미 스</w>
해 자</w>
페 이
비 극</w>
블 랙</w>
더 라도</w>
고 전</w>
. ,
줘 서</w>
정 치</w>
입 도</w>
연 예
어 머니</w>
싸 움</w>
볼 거리</w>
깔 끔</w>
공 부</w>
막 판</w>
레 스</w>
친 다</w>
조 절</w>
언제 나</w>
시 켜</w>
맞 추</w>
라 스</w>
니 아</w>
놀 라
한 지</w>
장 인물</w>
등 장인물</w>
통 쾌</w>
압 권</w>
불 륜</w>
라 기</w>
드 러
그 린</w>
으 론</w>
북 한</w>
지 요</w>
오 르</w>
아 련</w>
스 포
불 가</w>
무 협</w>
모 자
난 해</w>
까 진</w>
지 구</w>
의 심</w>
레 이</w>
웃 겼</w>
리 아</w>
라 인</w>
놀 랍</w>
나머 지</w>
저 예산</w>
어 제</w>
스 크
섹 시</w>
반 개</w>
다 이
기 에</w>
펑 펑</w>
특 별</w>
지 겹</w>
장 난
오글 거리</w>
살아 가</w>
부 르</w>
몰 라도</w>
려 다</w>
귀여 워</w>
이연 걸</w>
김 기
긴 장</w>
지 원</w>
아 픈</w>
누 나</w>
그 립</w>
이 기</w>
의 외</w>
영 환</w>
악 역</w>
쓸 데
봐 요</w>
못 할</w>
남 녀</w>
갑 니다</w>
; ;;;</w>
.. .
큐 멘
큐멘 터리</w>
주 얼</w>
조 잡</w>
으 로서</w>
와 르</w>
여 러
악 당</w>
돌 려</w>
♥ ♥</w>
e r</w>
즈 니</w>
연예 인</w>
느 와르</w>
입 감</w>
암 튼</w>
심 각</w>
디 즈니</w>
다 큐멘터리</w>
이 때</w>
연 결</w>
씁 쓸</w>
세 기</w>
벌 써</w>
루 즈</w>
게 다가</w>
- -
히 어
타 인</w>
재 난</w>
입 장</w>
성 애</w>
른 다</w>
라 지만</w>
가 까
풀 어
스러 움</w>
생 기</w>
러 닝</w>
겨 울</w>
오 락</w>
아 까</w>
시 걸</w>
생 긴</w>
더라 구요</w>
그 걸</w>
가 리</w>
히어 로</w>
유 치
올 해</w>
오 버</w>
열 정</w>
비 판</w>
뛰어 난</w>
드 리</w>
그 다지</w>
이 래
본 방</w>
반 복</w>
결 과</w>
우 주</w>
어 쩌
불 쾌</w>
불 구</w>
무서 웠</w>
공 포
오 랫
쓰 래</w>
시 각</w>
스 티
비 주얼</w>
기다 리</w>
o r
1 9</w>
인 트</w>
의 식</w>
을 지</w>
심 장</w>
놀 랐</w>
이제 야</w>
아 줌
소 소</w>
대 중</w>
너 스</w>
긴 다</w>
1 8</w>
.... ...</w>
한 국인</w>
마 스</w>
르 노</w>
국 가</w>
헐 리우드</w>
한 가</w>
아 픔</w>
실 력</w>
신 경</w>
발 전</w>
돌 리</w>
게 이</w>
했 으나</w>
풋 풋</w>
출연 진</w>
인 도</w>
아줌 마</w>
소 드</w>
바 뀌</w>
청 소년</w>
아쉬 웠</w>
맨 날</w>
그 라
해 석</w>
태 어나</w>
의 문</w>
싸 구려</w>
본 다면</w>
때 리</w>
.... .....</w>
테 러</w>
자 단</w>
시 사회</w>
방 금</w>
바 라
미 드</w>
느 라</w>
강 렬</w>
지 르</w>
문 가</w>
냐 고</w>
계 인</w>
외 국</w>
단 지</w>
하 늘</w>
필 름</w>
외 모</w>
깨 닫</w>
인 가요</w>
이 쁜</w>
아 역</w>
스 로</w>
설 마</w>
사 이
겨 서</w>
학 년</w>
전 문가</w>
이미 지</w>
어 휴</w>
섬 세</w>
베 스트</w>
방 법</w>
느 낀</w>
글 쎄</w>
과 장</w>
고 통</w>
특 수</w>
진 리</w>
시 트
사 기</w>
a n
할 지</w>
죄 다</w>
뭉 클</w>
갈 등</w>
짝 퉁</w>
인 해</w>
이 영화</w>
시트 콤</w>
시 킨</w>
프 리
애 기</w>
아이 돌</w>
시 아</w>
솔 직</w>
그 거</w>
희 생</w>
역 겨
야 하</w>
누군 가</w>
나 온
깜 짝</w>
극 치</w>
견 자단</w>
존 경</w>
영 어</w>
상 업</w>
살 인
밋 밋</w>
무 언
로 버
데 이
내 리</w>
김기 덕</w>
그 려</w>
교 육</w>
;; ;;
초 등</w>
어 여</w>
야 한</w>
란 다</w>
흔 한</w>
에 피
어려 운</w>
스 스로</w>
세 월</w>
복 잡</w>
미 스
딱 히</w>
대 부분</w>
그 럴</w>
형 편
조 합</w>
에피 소드</w>
명 품</w>
는 군</w>
경 험</w>
가 락</w>
찝 찝</w>
이 따위</w>
아 류</w>
민 망</w>
로 봇</w>
다 양</w>
기 자</w>
국 내</w>
흐 르</w>
포 인트</w>
명 화</w>
대 화</w>
거 슬
허 세</w>
해 야지</w>
점 주</w>
오 브</w>
연 속</w>
실 제로</w>
사 진</w>
로그 인</w>
랍 니다</w>
도 전</w>
ㅠㅠ ㅠㅠ</w>
2 1</w>
헐 리</w>
하 이
피 해자</w>
주 말</w>
저 리</w>
장 애</w>
외 계인</w>
완 성</w>
영 원</w>
거 운</w>
요 일</w>
와 우</w>
시 시</w>
스러 웠</w>
뻐 서</w>
더 라면</w>
기 독
그 지</w>
개 념</w>
00 0</w>
해 진</w>
할 머니</w>
지나 치</w>
조 작</w>
자 살</w>
위 해서</w>
양 심</w>
돌아 보</w>
눈 물
타 이
캐 리</w>
무언 가</w>
망 한</w>
망 치</w>
돋 보이</w>
더 불</w>
더 러운</w>
구 리</w>
검 색</w>
a r
.. ?</w>
형편 없</w>
편 견</w>
처 구
챙 겨</w>
착 한</w>
우 와</w>
어 처구
양 이</w>
미 모</w>
무 척</w>
못 해</w>
고 양이</w>
한 참</w>
유 발</w>
슬 펐</w>
기 술</w>
겁 니다</w>
개 뿔</w>
가 수</w>
00 7</w>
특 이</w>
테 이
찌 질</w>
직 접</w>
적 절</w>
시 기</w>
새 롭</w>
망 했</w>
로 드</w>
드 라</w>
단 연</w>
내 요</w>
가 져
형 제</w>
형 사</w>
주 변</w>
아름다 움</w>
사 수</w>
끼 치</w>
투 자</w>
탈 출</w>
코 난</w>
유 리</w>
사 상</w>
버 림</w>
명 성</w>
........ ........
하 하하</w>
집 니다</w>
인 터
이 용</w>
움 직
오 그라
센 스</w>
1 3</w>
풍 경</w>
영 혼</w>
성 기</w>
봐 야지</w>
마이 너스</w>
레 알</w>
개 성</w>
찾아 보</w>
죽 여</w>
일 어나</w>
으 로써</w>
셔 서</w>
내 려
B S</w>
치 밀</w>
초 등학생</w>
쳐 서</w>
참 고</w>
이 야</w>
바 이
로 움</w>
드 림</w>
된 다는</w>
국 어</w>
쵝 오</w>
줍 니다</w>
영 국</w>
아 닙
다 룬</w>
기 준</w>
확 실</w>
졸 리</w>
조 아</w>
져 요</w>
제 이
용 기</w>
대 표</w>
기억 나</w>
개 막</w>
감 히</w>
테 일</w>
즐 기</w>
응 원</w>
야 동</w>
스크 린</w>
성 격</w>
박 진
로 우</w>
등 등</w>
달 달</w>
* *
카 리스
카리스 마</w>
신 고</w>
변 화</w>
바 꾸</w>
따 로</w>
대 본</w>
6 0</w>
완 전히</w>
어 용</w>
레 전
대 해서</w>
그 럴
포 르노</w>
저 렇게</w>
자 면</w>
아 마</w>
아 마
레전 드</w>
는 데요</w>
기독 교</w>
관 한</w>
정 화</w>
잠 깐</w>
악 마</w>
생 생</w>
지 겨
비 밀</w>
놀 라</w>
꼬 마</w>
o v
즐거 운</w>
자 고</w>
오 바</w>
아 냐</w>
뜬금 없</w>
느껴 진다</w>
관 점</w>
패 러
크리스 마스</w>
인 상
어 지
어 야지</w>
수 고</w>
미 화</w>
b s</w>
참 으로</w>
정 체</w>
전 반</w>
전 문</w>
으 니까</w>
워 요</w>
욕 망</w>
얼 마</w>
스트 레스</w>
성 치</w>
빛 나</w>
따 구</w>
데 리</w>
니 콜
내 면</w>
가 벼
.... ....</w>
정 의</w>
전 투</w>
인상 깊</w>
운 명</w>
부 부</w>
다 리</w>
해 리
차 별</w>
정 상</w>
버 그</w>
미 쳤</w>
라이 언</w>
이 민
슬 퍼
변 태</w>
방 영</w>
동 시</w>
김 수
해 진다</w>
주 성치</w>
일 어
이 정
이 소
원 히</w>
열 받</w>
아 동</w>
색 감</w>
사 고</w>
모 를</w>
기 회</w>
기 발</w>
고 마
겨 우</w>
흘 리</w>
패 스</w>
클 레
일 품</w>
이 상
어 쩜</w>
아 예</w>
서 야</w>
려 나</w>
당 연</w>
느껴 졌</w>
겨 진</w>
th e</w>
in g</w>
흑 인</w>
확 인</w>
이 럴</w>
영 환
역 겹</w>
아 래</w>
아 기</w>
선 물</w>
빵 점</w>
빌 려</w>
그 건</w>
감 각</w>
ㅉ ㅉㅉ</w>
키 스</w>
지 났</w>
자 주</w>
웬 만</w>
여 름</w>
안 습</w>
아름다 웠</w>
아까 울</w>
설 레</w>
보 통</w>
베 이
무 술</w>
몇 몇</w>
김 민
흘러 가</w>
빈 약</w>
버 스터</w>
떨어 진다</w>
디 테일</w>
D V
프 로
조 화</w>
정 한</w>
어 리</w>
아 나</w>
살 린</w>
바 닥</w>
DV D</w>
짓 말</w>
젠 장</w>
운 드</w>
예 능</w>
영환 데</w>
영 원히</w>
시 점</w>
명 깊</w>
근 래</w>
공 주</w>
거 짓말</w>
감 명깊</w>
201 4</w>
탄 생</w>
이래 서</w>
이 렇</w>
울 리</w>
안타까 운</w>
심 오</w>
색 다른</w>
브 루
배 역</w>
바 랍니다</w>
막 히</w>
리 언</w>
류 승
내 생</w>
공포 물</w>
공 짜</w>
화 끈</w>
아 아</w>
상 태</w>
보여 준다</w>
든 지</w>
감 흥</w>
19 9
패러 디</w>
최 초</w>
절 로</w>
바 다</w>
들 리</w>
풍 자</w>
지 어</w>
연 인</w>
수 정</w>
버 스</w>
만 남</w>
단 어</w>
강 력</w>
ㅇ ㅇ
해 선</w>
피 스</w>
최 강</w>
이 루</w>
오 로
생각 없이</w>
보 임</w>
매 일</w>
매 니아</w>
려 요</w>
기 법</w>
그 만큼</w>
관 련</w>
현 대</w>
프 레
트 맨</w>
촌 스럽</w>
진 정한</w>
제 임
일 관</w>
왜 곡</w>
오랫 만</w>
여러 분</w>
에 이
약 하</w>
려 다가</w>
단 편</w>
공 간</w>
해 결</w>
토 록</w>
작 위</w>
으 리</w>
어 두
부 실</w>
본 지</w>
모 양</w>
말 아먹</w>
냄 새</w>
구 하</w>
걸 리</w>
저 것</w>
아닙 니다</w>
목 적</w>
리 얼
러 스</w>
뛰어 넘</w>
할 아버지</w>
잔 뜩</w>
일 으
야 말로</w>
보 영</w>
감 안</w>
가 정</w>
e a
올 려</w>
심 지어</w>
부 러</w>
마 리</w>
레 딧</w>
다 섯</w>
끝 난</w>
~ !!!</w>
화 책</w>
포 스</w>
최 민
이 어지</w>
윤 발</w>
손 가락</w>
세 련</w>
빵 빵</w>
빠 졌</w>
다 를</w>
는 대</w>
느 니</w>
s f</w>
b b
- -</w>
흉 내</w>
투 리</w>
쟁 이</w>
신 나</w>
승 리</w>
빠져 들</w>
동 원</w>
결 코</w>
강 하</w>
i s</w>
한 숨</w>
집 착</w>
지 도</w>
세 포</w>
망 쳐</w>
건 가요</w>
강 한</w>
ㅠ ㅜ</w>
허 전</w>
추 리</w>
이 끌</w>
삭 제</w>
모 험</w>
라 곤</w>
다 루</w>
기 심</w>
고 서</w>
간 만</w>
진 짜
울 컥</w>
우 성</w>
열 연</w>
스 파
살 려</w>
볼 려고</w>
는 데
납 니다</w>
남 겨</w>
나 간</w>
. ;;</w>
주 기</w>
제 외</w>
정 우</w>
연 극</w>
아 리</w>
신 비</w>
바 탕</w>
무서 움</w>
후 속
후속 작</w>
이제 서야</w>
엄청 나</w>
아무 런</w>
버 릴</w>
무서 워</w>
멜 로</w>
내 심</w>
국 영</w>
포 터</w>
폐 지</w>
종 영</w>
정 작</w>
우 분</w>
영 관</w>
슈 퍼
무 료</w>
과 학</w>
조 선</w>
이 어
이 쁨</w>
을 까요</w>
요 리</w>
어처구 니</w>
야 구</w>
아이 디어</w>
슈 퍼</w>
상 수</w>
블 록
바라 보</w>
뭘 까</w>
로 웠</w>
려 야</w>
담 배</w>
낚 시</w>
끔 찍</w>
혹 은</w>
통 령</w>
중 독</w>
일 반</w>
상 영관</w>
빠 르</w>
블록 버스터</w>
버 려</w>
먼 가</w>
듭 니다</w>
난 리</w>
고 맙</w>
♥♥ ♥</w>
호 감</w>
파 리</w>
파 괴</w>
치 곤</w>
축 구</w>
웨 이</w>
우 려
안 감</w>
베 드</w>
못 한다</w>
뛰 어나</w>
. ^^</w>
힘 내</w>
파이 어</w>
자 랑</w>
영화 제</w>
여 태</w>
아 치</w>
아 니
신 파</w>
수 많</w>
버 전</w>
반 대</w>
대 신</w>
겠 다</w>
^^ *</w>
4 4</w>
해 졌</w>
터 미
클레 멘
클레멘 타인</w>
지 경</w>
장 국영</w>
유 럽</w>
아 지</w>
시 나</w>
선 정</w>
망 하</w>
로 코</w>
당 연히</w>
느 리</w>
국 식</w>
개 그
가 르
혹 시</w>
하 드</w>
팩 트</w>
조 카</w>
재 능</w>
예 수</w>
스 피
부 탁</w>
때 우</w>
동 네</w>
돌 려
더 러
건 만</w>
화 나</w>
최 고
줘 도</w>
정 보</w>
적 당히</w>
잔 혹</w>
의 사</w>
욕 심</w>
언 젠
선 동</w>
못 함</w>
따 름</w>
대 상</w>
그 려
구 라</w>
거 부</w>
플 롯</w>
퓨 터</w>
최 대</w>
책 임</w>
임 팩트</w>
일 깨
여 친</w>
어 스</w>
스 톤</w>
수 입</w>
설 득
설득 력</w>
베 리</w>
만 약</w>
대 통령</w>
다 신</w>
끌 어
s t
b a
터미 네이
터미네이 터</w>
지 켜
즐거 웠</w>
인 형</w>
순 히</w>
세 대</w>
살 렸</w>
사 투리</w>
볼 까</w>
미 녀</w>
마이 클</w>
따라 가</w>
돼 지</w>
내 일</w>
환 경</w>
컴 퓨터</w>
천 국</w>
조 니
조니 뎁</w>
적 어도</w>
운 데</w>
앞 뒤</w>
알 려
부 끄
마 냥</w>
레이 션</w>
랜 드</w>
따 지</w>
들 이</w>
대 놓
대놓 고</w>
교 과
교과 서</w>
고 등
걱 정</w>
o u
o n
l i
1 0
형 래</w>
하 품</w>
찬 란</w>
중 심</w>
잠 시</w>
익 숙</w>
이소 룡</w>
이 전</w>
우 러
심 형래</w>
실 수</w>
숨 겨진</w>
두 려
가벼 운</w>
호 구</w>
폭 발</w>
터 짐</w>
착 각</w>
중 학교</w>
중 간
정 부</w>
절 정</w>
일 부러</w>
이 어</w>
우 스</w>
실 감</w>
스 페
사 운드</w>
발 상</w>
따 듯</w>
디 워</w>
둥 이</w>
높 이</w>
구 역</w>
~~~~ ~~~~
d v
1 4</w>
편 안</w>
인터 넷</w>
이 병
아 가</w>
사라 지</w>
부 끄럽</w>
뱀 파이어</w>
명 장면</w>
떨어 짐</w>
드 래
동 성애</w>
당 한</w>
단 순히</w>
는 군요</w>
놀라 운</w>
김 혜
그 야말로</w>
고등 학교</w>
!!!! !</w>
이 뻐서</w>
위 험</w>
쓸데 없이</w>
명 배우</w>
따 분</w>
간 지</w>
2 2</w>
컨 셉</w>
장난 치</w>
우려 먹</w>
상 어</w>
불 러
병 자</w>
범 죄
메이 드</w>
멋 졌</w>
떠 오르</w>
동 심</w>
도 움</w>
덕 화</w>
논 리</w>
낸 다</w>
낚 이</w>
나 올
고 어</w>
게 요</w>
강 호</w>
o u</w>
해리 포터</w>
참 나</w>
지 우</w>
자 동
음 식</w>
우 뢰
우뢰 매</w>
실 험</w>
상 대</w>
사 무
별 반</w>
무 어</w>
계 기</w>
거 북</w>
dv d</w>
치 노</w>
창 정</w>
차 원</w>
조 용</w>
입 력</w>
임 새</w>
움직 이</w>
여 인</w>
엇 다</w>
뭥 미</w>
라 라</w>
달 콤</w>
나 무</w>
끼 워</w>
감 정
폭 풍</w>
파 치노</w>
짜 임새</w>
준 비</w>
잠 들</w>
어 우러
애 초</w>
상 관
부 럽</w>
당 할</w>
그 대</w>
결 정</w>
건 강</w>
거 장</w>
혹 시나</w>
피 해</w>
평 균</w>
클 래
제 니
전 하</w>
자동 차</w>
오 리
오 래
살인 마</w>
비 행
분 량</w>
부 리</w>
무 대</w>
무 너
드 시</w>
대 결</w>
당 황</w>
달 라
단 체</w>
다 크</w>
누군 지</w>
네 티
김 치</w>
군 인</w>
중 훈</w>
저 기</w>
일깨 워</w>
의 지</w>
아까 워서</w>
생각 난다</w>
빠 른</w>
반 드시</w>
박진 감</w>
만 화책</w>
리얼 리티</w>
다 시
놀 이</w>
네티 즌</w>
난 잡</w>
200 0</w>
., .,
희 대</w>
호 기심</w>
프 닝</w>
충 실</w>
주 윤발</w>
에 다</w>
어 진</w>
어 난</w>
애 매</w>
서 울</w>
배 트맨</w>
발 음</w>
박 중훈</w>
목 숨</w>
말 투</w>
네 유</w>
귀여 움</w>
거 림</w>
갱 이</w>
하 여
판 단</w>
출 신</w>
찾아 볼</w>
주 일</w>
저 렇</w>
저 급</w>
인 내심</w>
으 시</w>
알 아
아무 튼</w>
스타 뎀</w>
스러 워</w>
뻐 요</w>
범죄 자</w>
도 시</w>
m e</w>
하 정우</w>
크 루즈</w>
처 절</w>
진 수</w>
지 현</w>
중간 중간</w>
재미 나</w>
재 현</w>
일 본인</w>
요 새</w>
영 향</w>
영 웅
쓸데 없</w>
심 한</w>
스포 츠</w>
스 키</w>
상 식</w>
사 용</w>
빨 갱이</w>
비 중</w>
부 인</w>
반 담</w>
명 대사</w>
도 무지</w>
니 당</w>
넘어 가</w>
날 리</w>
나 이트</w>
깨 달</w>
김 태
o n</w>
2 5</w>
,, ,,
!!!!!!!! !!!!!!!!
홍 상수</w>
즐 겨</w>
유 아</w>
연 상</w>
부 작</w>
민 폐</w>
다 니
남 성</w>
국 판</w>
z z
^ -
하 지원</w>
하 아</w>
하 도</w>
짐 캐리</w>
일 본
이 토록</w>
이 입</w>
우 연</w>
양 아치</w>
스 파이
리 스트</w>
드 만</w>
나 레이션</w>
기 존</w>
기 적</w>
최 소
째 치</w>
줄 리
준 호</w>
존 스</w>
정신 병자</w>
인 종</w>
압 도</w>
아 놀
분 장</w>
보 일</w>
벗 어나</w>
반 지</w>
무 게</w>
만 났</w>
마 약</w>
등 록</w>
둘 째치</w>
동 영상</w>
단 점</w>
눈물 나</w>
꿈 꾸</w>
극 복</w>
개그 맨</w>
개 콘</w>
화 장
통 수</w>
집 어
즐 길</w>
임 창정</w>
으 려고</w>
아놀 드</w>
브루 스</w>
망 친</w>
마 이</w>
러 시아</w>
드 디어</w>
글 고</w>
극 단</w>
고 인</w>
게 스트</w>
갈 리</w>
b b</w>
할 리우드</w>
평 화</w>
최소 한</w>
제 시
인 류</w>
인 권</w>
이병 헌</w>
이 만</w>
의 상</w>
으 신</w>
왤 케</w>
에 다가</w>
믿 기</w>
맹 이</w>
만 난</w>
마 자</w>
독 일</w>
김 희
굉 장</w>
공 룡</w>
고 기</w>
회 사</w>
허 허</w>
지 훈</w>
제이 슨</w>
이 라도</w>
윌 리스</w>
원 조</w>
어쩌 면</w>
어 둡</w>
선 수</w>
몽 환</w>
망 할</w>
구 조</w>
거 품</w>
각 색</w>
ㅠㅠㅠㅠ ㅠㅠㅠㅠ
o f</w>
e n
1 2
. !</w>
평 소</w>
탁 월</w>
지 키</w>
지 민</w>
죄 송</w>
제임 스</w>
은 근
유 지</w>
소 통</w>
빠 져서</w>
레이 드</w>
닥 치</w>
놓 치</w>
고 뇌</w>
-_- ;;</w>
흑 백</w>
헛 웃음</w>
편 하</w>
졸 업</w>
정 우성</w>
장 동
왕 국</w>
오 프닝</w>
아 파
아 닐</w>
승 우</w>
습 니까</w>
부 정</w>
박 신
무 한</w>
무 식</w>
말 씀</w>
급 사</w>
글 자</w>
경 우</w>
형 식</w>
재 개봉</w>
이 라</w>
애 절</w>
아 팠</w>
송 강호</w>
세 여</w>
버 튼</w>
바 꿔</w>
므 로</w>
로버 트</w>
래 도</w>
도 데
도데 체</w>
나 루
권 력</w>
구 석</w>
ㅠㅠ ㅠ
ㅋ ㅋㅋㅋ</w>
i n</w>
향 수</w>
짜 릿</w>
중 년</w>
주 인</w>
은근 히</w>
웰 메이드</w>
순 위</w>
소 화</w>
명 복</w>
메 이</w>
라 스트</w>
는 다는</w>
내 게</w>
깡 패</w>
i e</w>
화장 실</w>
치 유</w>
천 사</w>
처 리</w>
제 왕</w>
장 점</w>
영 구</w>
역 량</w>
여 신</w>
상 우</w>
비행 기</w>
불 호</w>
바 꿔
무 겁</w>
마 르
레 인
든 가</w>
된 다고</w>
당 했</w>
담 백</w>
담 담</w>
깨 알</w>
그 동안</w>
겉 멋</w>
G ood</w>
201 2</w>
클 리
케 빈</w>
채 우</w>
지 옥</w>
이 스</w>
위 로</w>
우 리
오 글</w>
예 진</w>
아 오
생 김</w>
배 급사</w>
반 영</w>
바 이</w>
뮤 직</w>
매 미</w>
마 음
늘 어
교 회</w>
거 대</w>
i l
00 00
효 주</w>
황 정
파 격</w>
틀 리</w>
최 소</w>
천 만</w>
잖 아요</w>
위 트</w>
오글 오글</w>
쓰 러
시 장</w>
스티 븐</w>
서 양</w>
생 명</w>
브 라
민 족</w>
무 난</w>
무 거운</w>
만 다</w>
라이 즈</w>
드 문</w>
드 립</w>
드 리
동 감</w>
던 데요</w>
대 부</w>
답 니다</w>
각 자</w>
가까 운</w>
ㅉ ㅉ
t t
1 6</w>
향 연</w>
컬 트</w>
캐 릭</w>
카 프
쳐 도</w>
짠 하</w>
정 당</w>
절 대로</w>
전 화</w>
자 마자</w>
윌 리
우 기</w>
여 진</w>
어두 운</w>
어 리
애 인</w>
시 켜
변 하</w>
발 랄</w>
박 죽</w>
류승 범</w>
똑 같이</w>
두 근
다 녀
가 히</w>
h a
O O
5 00</w>
착 하</w>
진 한</w>
직 업</w>
우리 나라</w>
역겨 운</w>
언젠 가</w>
스 틱</w>
숭 이</w>
소 개</w>
상 당</w>
부 러
받 아
무 기</w>
도 중</w>
댄 스</w>
니 로</w>
나루 토</w>
기 사</w>
과 하</w>
공 연</w>
고 문</w>
거 짓</w>
y ou</w>
c o
호 흡</w>
혐 오</w>
하나 님</w>
티 노</w>
킬 러</w>
최고 봉</w>
지 식</w>
죽 박죽</w>
좋아 할</w>
정 리</w>
전 이</w>
월 드</w>
우 선</w>
아쉬 워</w>
아 노</w>
심 사</w>
신 화</w>
브 로
브 래
무 간
매 번</w>
뒤 죽박죽</w>
대 전</w>
담 긴</w>
담 겨</w>
노 인</w>
녀 석</w>
나타 나</w>
강 동원</w>
♡ ♡</w>
er y</w>
???? ????
9 9
하이 틴</w>
하 균</w>
피 트</w>
테 리</w>
치 고</w>
져 야</w>
절 망</w>
인 식</w>
이 루
원 주
워 즈</w>
올라 가</w>
예 측</w>
엽 기</w>
신 하균</w>
신 인</w>
시 스</w>
선 사</w>
불 허전</w>
부 활</w>
부 지</w>
별 거</w>
미스 터리</w>
묘 한</w>
모 른다</w>
명 불허전</w>
만 세</w>
마 녀</w>
도 와</w>
데 이</w>
나 왓</w>
가 위</w>
e st</w>
e s</w>
- ></w>
흡 입력</w>
혁 명</w>
해 준다</w>
친 절</w>
찬 양</w>
차 기</w>
집 기</w>
줘 야지</w>
재 방</w>
인 디
이 동
은 가</w>
유 덕화</w>
오그라 드</w>
연 습</w>
액 션
애 틋</w>
애 정</w>
상 실</w>
불 과</w>
부 산</w>
본 질</w>
보 석</w>
백 인</w>
배 꼽</w>
무간 도</w>
메 리
떨어 진</w>
극 히</w>
구 분</w>
광 구</w>
E BS</w>
회 상</w>
칭 찬</w>
짬 뽕</w>
준 거</w>
죽 인</w>
제니 퍼</w>
전 성기</w>
원 숭이</w>
연 관</w>
여 정</w>
보 소</w>
뜬금 없이</w>
들 여</w>
들 러</w>
동 양</w>
도 둑</w>
덩 어리</w>
나와 야</w>
나 았</w>
나 서</w>
공 유</w>
강 간</w>
ㅜㅜ ㅜㅜ
v er</w>
t i
흘 렸</w>
한 방</w>
정 쩡</w>
저 냥</w>
일 러</w>
음 향</w>
은 근</w>
운 동</w>
여 전</w>
여 야</w>
억 울</w>
어 정쩡</w>
암 울</w>
스 필
셔 야</w>
상관 없</w>
뻔 뻔</w>
비 록</w>
봐 줄</w>
변 신</w>
반 응</w>
박 보영</w>
문 득</w>
모 로</w>
멋 져요</w>
망 쳤</w>
마 누
로 로</w>
대 학</w>
고 증</w>
ㅜ ㅠ</w>
~~ ~~~</w>
................ .........</w>
현 대
특 집</w>
타 란
타란 티노</w>
추 어</w>
쯧 쯧</w>
작 정</w>
이 승
의 자</w>
외 국인</w>
였 을</w>
야 겠다</w>
알 파치노</w>
베 일</w>
밀 려
모 독</w>
맞 춘</w>
런 닝</w>
더 기</w>
대 기</w>
느 낀
낭 만</w>
기 획</w>
기 대
그 라</w>
귀여 웠</w>
고 딩</w>
가 시</w>
o c
........ ..</w>
화 질</w>
향 기</w>
터 졌</w>
키 아
커 녕</w>
카프 리오</w>
추 가</w>
총 체</w>
진짜 로</w>
종 일관</w>
절 제</w>
재 앙</w>
작 화</w>
이 성
은 주</w>
은 이</w>
웃 겨서</w>
욕 먹</w>
오그라 들</w>
어린 애</w>
어 쨌
액션 물</w>
애 잔</w>
시 종일관</w>
스필 버그</w>
스파이 더
스파이더 맨</w>
스릴 감</w>
본 능</w>
방 해</w>
미 학</w>
먹 칠</w>
맛 있</w>
라 구</w>
뜨 리</w>
디 카프리오</w>
돋 보였</w>
다 는데</w>
난 무</w>
나 갈</w>
권 상우</w>
1 7</w>
호 불호</w>
최 후</w>
창 피</w>
짜 집기</w>
지 리</w>
지 나가</w>
즐거 움</w>
아마 추어</w>
아닌 가요</w>
스타 워즈</w>
서 부</w>
봣 다</w>
배 신</w>
명 연기</w>
면 제</w>
멋 져</w>
늑 대</w>
김 정
긴 박</w>
기 괴</w>
개 꿀</w>
~~ ^^</w>
m ov
^- ^</w>
-_- ;</w>
했 어요</w>
트 리</w>
초 월</w>
찬 사</w>
진 구</w>
절 히</w>
일 부</w>
이 준
이 다</w>
우 린</w>
오로 지</w>
엘 리
브 리</w>
불 안</w>
미 션</w>
미 국식</w>
마누 라</w>
떠 올
드 니로</w>
도 망
늘 어지</w>
너 희</w>
께 요</w>
a l
T h
홀 로</w>
허 나</w>
페이 크</w>
태 현</w>
커 서</w>
저 러</w>
장 소</w>
이 수
이 별</w>
에 이</w>
스 맨</w>
슈퍼 맨</w>
비 치</w>
본 격</w>
마 니</w>
려 라</w>
레 옹</w>
독 립</w>
다시 금</w>
다가 오</w>
놀 란</w>
나 을</w>
한 석
한석 규</w>
차 승
짱 구</w>
진 호</w>
정 점</w>
인 성</w>
오리 지
엄 정화</w>
어 떠</w>
아쉬 울</w>
아 카
아 우</w>
아 바
아 만다</w>
쓸 쓸</w>
쏘 우</w>
쉬 운</w>
소 리
상 징</w>
살아 남</w>
부 자연</w>
병 원</w>
매 주</w>
마 찬
당 장</w>
능 가</w>
낮 추</w>
남 친</w>
기다 려</w>
관 람
강 아지</w>
가까 이</w>
~ !
r a
i t</w>
.. ^^</w>
활 용</w>
하 루
풀어 낸</w>
파 워</w>
트 랜
클래 식</w>
크 리
진 창</w>
지 대</w>
중 학생</w>
제작 자</w>
정신 없</w>
전 기</w>
저 분</w>
이 종
의 해</w>
유치 찬란</w>
에 라이</w>
엉 망
어 째</w>
어 수
아바 타</w>
시 험</w>
스릴 러
스 텝</w>
수 면제</w>
비 스</w>
미스 테리</w>
몰 라</w>
먹 먹
마찬 가지</w>
김 지
광 기</w>
걸 린</w>
건 질</w>
각 각</w>
ㅋㅋㅋㅋ ㅋㅋㅋㅋ
합 시다</w>
하 이</w>
케 미</w>
전 해</w>
윤 아</w>
위 주</w>
워 야</w>
왕 조
올 레</w>
예 고</w>
여러 모로</w>
엉망 진창</w>
어 딘
실 사</w>
신 부</w>
시 체</w>
스릴러 물</w>
스 텔
수 다</w>
세 계
사 장</w>
사 과</w>
블 루</w>
민 아</w>
모자 라</w>
모 아</w>
매 끄럽</w>
리 수</w>
딩 크</w>
동 일</w>
닥 터</w>
넘 기</w>
깜 놀</w>
ㅜ ㅜㅜ</w>
~~ !!</w>
m a
. ,</w>
흥 분</w>
픽 션</w>
피 아노</w>
트 라
택 시</w>
태 국</w>
커 버</w>
지 성</w>
정 석</w>
잭 슨</w>
인 연</w>
워 드</w>
워 낙</w>
영화 사</w>
열 자</w>
에 드
스 펙
섬 뜩</w>
방 향</w>
바 람
미 남</w>
목 사</w>
머 릿
류 영화</w>
디 자
더 욱
대 역</w>
김희 선</w>
고 독</w>
거 려</w>
가 짜</w>
환 자</w>
혼 란</w>
코 스
차승 원</w>
주 원</w>
주 온</w>
조 기</w>
재 탕</w>
자 세</w>
일 지</w>
인 디</w>
인 드</w>
으 러</w>
외 면</w>
왕조 현</w>
옵 니다</w>
오 직</w>
역 작</w>
어수 선</w>
어 차
애 국
세 트</w>
보 물</w>
미 달</w>
마 블</w>
동 근</w>
도 저</w>
니 즘</w>
뉴 스</w>
나 갔</w>
김수 현</w>
관 리</w>
e d</w>
ba d</w>
201 5</w>
" "
포 함</w>
포 켓
포 드</w>
티 나</w>
테이 큰</w>
지 내</w>
작 전</w>
일 반
일반 인</w>
원 하</w>
요 원</w>
온 갖</w>
오 해</w>
아 담
속 도</w>
세계 관</w>
새 삼</w>
새 록</w>
빠 질</w>
모 욕</w>
맥 스</w>
로 빈</w>
들어 간</w>
뒤 늦</w>
담 아
납 득</w>
기 도</w>
국 산</w>
고 두
겨 요</w>
♥♥ ♥♥
o r</w>
9 9</w>
픽 사</w>
팍 팍</w>
질 문</w>
지 섭</w>
쥬 얼</w>
입 니까</w>
이 탈
은 경</w>
안타까 움</w>
시 켰</w>
스파 이</w>
사 이코</w>
보여 서</w>
버 린다</w>
박 찬
바 란다</w>
멈 추</w>
머릿 속</w>
만 든다</w>
마 을</w>
릭 스</w>
떠 오
때 려
드 려요</w>
데 스</w>
다이 하드</w>
농 담</w>
내 놓</w>
관 대</w>
공 중</w>
고 작</w>
고 등학생</w>
게 끔</w>
개 똥</w>
감 명</w>
.. !</w>
헤 어
할 려고</w>
한 동안</w>
학 살</w>
평 이</w>
키 우</w>
크 로
치 료</w>
추 격</w>
청 년</w>
참 여</w>
주 위</w>
저 희</w>
이 뻐</w>
울 림</w>
왕 자</w>
오 랜</w>
예 술
영 활</w>
엉 뚱</w>
어차 피</w>
어쨌 든</w>
어 떨
았 었</w>
승 부</w>
소 품</w>
붙 이</w>
부 담</w>
볼 꺼</w>
밀 리</w>
무 지
모 호</w>
떡 밥</w>
들어 오</w>
느낀 다</w>
나온 다고</w>
나 이
께 서</w>
김혜 수</w>
구 멍</w>
구 경</w>
괜 찬
검 사</w>
거 든</w>
갖 춘</w>
mov ie</w>
하 다</w>
트랜 스포
타이 틀</w>
최민 수</w>
조 용
저 주</w>
장 진</w>
장 군</w>
잃 어
이 럼</w>
의 한</w>
유 혹</w>
와 이
올 리
에 도</w>
어울 림</w>
쓴 다</w>
시 끄
승 헌</w>
생 겨서</w>
브 리
반 감</w>
모 니
만 드
동 자</w>
데 미</w>
니 슨</w>
니 매</w>
괴 담</w>
강 요</w>
r e
2 00</w>
환 장</w>
피 곤</w>
통 해서</w>
찾아 가</w>
집 안</w>
진 희</w>
지 극히</w>
조 심</w>
정 사</w>
절 반</w>
인 한</w>
이 순
으 리
영화 판</w>
여 왕</w>
약 한</w>
아 메리
수 사</w>
색 깔</w>
상 큼</w>
뷔 작</w>
복 선</w>
박찬 욱</w>
믿 음</w>
로 망</w>
라 지</w>
뚝 뚝</w>
떠 올리</w>
데 뷔작</w>
더 군</w>
대 하</w>
다 구</w>
니 스</w>
누 님</w>
날 려</w>
나올 까</w>
꺼 버렸</w>
괴 수</w>
경 구</w>
가 운</w>
^^ ;</w>
혜 선</w>
행 위</w>
피 식</w>
플 린</w>
짱 나</w>
죽 일</w>
좋아 해서</w>
정 확</w>
전 지현</w>
재 방송</w>
자 본</w>
이 것
원주 율</w>
운 지</w>
여 도</w>
어린 아이</w>
알 리</w>
아이 언
아 아
시 민</w>
시 골</w>
슬 퍼</w>
성 형</w>
설 레
사 미</w>
비 해서</w>
본 색</w>
미 야
명 히</w>
말 리</w>
만 날</w>
마르 소</w>
렐 라</w>
달 려
단 히</w>
느 냐</w>
끝 난다</w>
김 명
개 발</w>
감정 선</w>
.. (</w>
. !!</w>
힙 합</w>
황정 민</w>
평 식</w>
파 라</w>
클 라스</w>
차 태현</w>
차 분</w>
차 리</w>
조 리</w>
적 나라</w>
이것 저것</w>
요 기</w>
오 페
열 광</w>
에 몽</w>
언 어</w>
안 녕</w>
아 이유</w>
실 상</w>
송 승헌</w>
성 적</w>
성 이</w>
설 경구</w>
불 러</w>
박 평식</w>
바 랬</w>
몬 스터</w>
람 보</w>
때 로</w>
든 데</w>
드 먼</w>
드 림
더욱 더</w>
더라 고요</w>
더 더기</w>
다니 엘</w>
는 디</w>
남 긴</w>
나 열</w>
꼽 히</w>
기 타</w>
기 록</w>
극 본</w>
군 더더기</w>
고 스
고 수</w>
간 히</w>
201 3</w>
!!!! !!</w>
흠 잡</w>
홧 팅</w>
학 원</w>
피 디</w>
클 로
클 라라</w>
추 악</w>
주 관</w>
조 명</w>
젊 은이</w>
장 인</w>
이정 재</w>
이 뻤</w>
이 리
유 익</w>
웃 긴다</w>
외 로움</w>
오랫 동안</w>
예 뻤</w>
영 광</w>
열 라</w>
아니 면</w>
아 야지</w>
아 나
세 이
사 냥</w>
사 나이</w>
빙 판</w>
번 역</w>
박 시
바 리</w>
미 쳐</w>
미 리</w>
묵 직</w>
멤 버</w>
멘 탈</w>
맞 춰</w>
레 기
될 까</w>
도 라
던 져</w>
다 지만</w>
다 수</w>
느껴 질</w>
나머 진</w>
끊 기</w>
김 선
김 구라</w>
기다 렸</w>
기 영</w>
그 냥
귀 찮</w>
구 혜선</w>
구 할</w>
과 대
공 허</w>
고 향</w>
가 관</w>
o w</w>
g h
O OOO</w>
B C</w>
확 히</w>
학 창</w>
틀 림
커 피</w>
지 브리</w>
재 수
장 혁</w>
장 기</w>
일으 키</w>
이 태
이 외</w>
유 행</w>
원 피스</w>
연 주</w>
여 유</w>
엑 스맨</w>
언 론</w>
시 끄럽</w>
스페 인</w>
서 부터</w>
상 관</w>
본 성</w>
방 황</w>
반 했</w>
박 자</w>
무서 울</w>
모 방</w>
막 상</w>
런 지</w>
란 히</w>
라이 트</w>
떨어 졌</w>
드 물</w>
두 고두
두고두 고</w>
도라 에몽</w>
냉 정</w>
근 석</w>
공 식</w>
고 급</w>
거 려서</w>
개 소리</w>
e l
핸 드
해 외</w>
팝 콘</w>
파 이팅</w>
트랜스포 머</w>
투 성이</w>
지 효</w>
증 명</w>
증 말</w>
줘 요</w>
조 선
이 나
의 견</w>
유 승
유 령</w>
우 롱</w>
올 린</w>
예 뻐서</w>
영웅 본색</w>
엑 소
손 색</w>
소 피
세 경</w>
새 록
비 참</w>
보 인</w>
배 려</w>
미 이라</w>
무 려</w>
마 법</w>
마 마</w>
로 그</w>
데 드</w>
다 운
니 콜</w>
는 다고</w>
남 길</w>
남 긴다</w>
난 국</w>
끝 판</w>
걸 릴</w>
가 식</w>
가 난</w>
w a
2 4</w>
흘 렀</w>
흔 하</w>
흑 흑</w>
현 준</w>
할 수록</w>
한 글</w>
취 급</w>
채 플린</w>
짜 내</w>
졸 려</w>
제시 카</w>
전 사</w>
전 라도</w>
적 극</w>
재수 없</w>
일 찍</w>
이 기
오페 라</w>
예 쁨</w>
어울 린다</w>
어딘 가</w>
심 정</w>
스피 드</w>
스 크</w>
손 예진</w>
소 지섭</w>
세 히</w>
서 정</w>
뿌 리</w>
빌 리</w>
분 명히</w>
반 갑</w>
머 지</w>
마 케
로 부터</w>
로 보
들 어도</w>
드래 곤
드래곤 볼</w>
데이 빗</w>
니 만</w>
납 치</w>
나 저
긴 데</w>
금 지</w>
관람 객</w>
과 도</w>
공 원</w>
고 래</w>
v s</w>
s h
b c</w>
^ _
2 8</w>
혜 교</w>
허 구</w>
향 한</w>
해 짐</w>
크 스</w>
최민 식</w>
집 단</w>
지 켜</w>
지 저분</w>
주 제
전 도
장동 건</w>
작 년</w>
이 은주</w>
유 진</w>
유 우</w>
외 치</w>
없 애</w>
시 킬</w>
시 오</w>
순 이</w>
수 위</w>
성 찰</w>
성 유리</w>
새록 새록</w>
박 사</w>
뭔 가요</w>
먹먹 해</w>
머 리
로버 츠</w>
렌 스</w>
레인 저</w>
럼 에도</w>
때 려</w>
따 스</w>
돼 서</w>
데 기</w>
깨 끗</w>
기 업</w>
그 렇
그 럼에도</w>
고 는</w>
격 전</w>
거 듭</w>
강 지
감 기</w>
★ ★
u t</w>
oo oo
d a
3 00</w>
1 000</w>
흐 지
흐지 부지</w>
후 기</w>
현 우</w>
해 져</w>
한 예
한 국어</w>
틀림 없</w>
투 표</w>
토 할</w>
키 드먼</w>
콘 서
콘서 트</w>
케이 지</w>
지 태</w>
지 없</w>
종 합</w>
조 승우</w>
져 라</w>
제 미</w>
장 근석</w>
작 자</w>
이탈 리아</w>
워 라</w>
왕 가위</w>
예술 가</w>
어지 럽</w>
어 느
신 데
시 사</w>
슬퍼 요</w>
수 십</w>
사무 라이</w>
빼 놓</w>
부 여</w>
부 른</w>
부 로</w>
볼 일</w>
묻 어나</w>
모 순</w>
먼 지</w>
만 하다</w>
로 울</w>
로 선</w>
런 닝
런닝 맨</w>
또 는</w>
될 지</w>
당 당</w>
다운 로드</w>
눈 치</w>
난 감</w>
깁 니다</w>
금 보</w>
그냥 저냥</w>
귀여 워서</w>
건 조</w>
거슬 리</w>
감 옥</w>
간 직</w>
가 깝</w>
호 사</w>
헤 어지</w>
할 배</w>
평 론</w>
파 악</w>
투 기</w>
터 져</w>
춤 추</w>
출 현</w>
추 구</w>
청 하</w>
척 하</w>
줘 라</w>
주 먹</w>
조 정</w>
정 치
저 게</w>
자 격</w>
일어 날</w>
웍 스</w>
어 중간</w>
아이언 맨</w>
써 요</w>
신데 렐라</w>
소 문</w>
산 다</w>
빠져 드</w>
보 낸다</w>
범 수</w>
밴 드</w>
박 정
무서 워서</w>
마케 팅</w>
마이 클
라 며</w>
라 마</w>
뒤 집</w>
덩 이</w>
더 러</w>
단 역</w>
니 없</w>
노 튼</w>
나저 나</w>
나온 다는</w>
까 봐</w>
그럴 듯
그 나저나</w>
구 먼</w>
관 계
고 리</w>
경 의</w>
간 다는</w>
u c
t o
r ea
. ;</w>
!! !
풀어 내</w>
클리 셰</w>
카 피</w>
침 묵</w>
출 발</w>
짜 여진</w>
지나 친</w>
증 거</w>
조용 히</w>
정신 병</w>
절 묘</w>
전도 연</w>
장 치</w>
잃어 버린</w>
이 혼</w>
유 지태</w>
웅 장</w>
여 기
었 었</w>
알려 준</w>
씨 발</w>
심 했</w>
신 세계</w>
스러 울</w>
스 킵</w>
스 케</w>
스 카
성 숙</w>
성 경</w>
사 전</w>
브 스</w>
부끄 러
부 수</w>
볼 땐</w>
법 정</w>
미야 자
모 성애</w>
메 인</w>
려 니</w>
려 는지</w>
디 젤</w>
드림 웍스</w>
드러 나</w>
두 말</w>
돌아 오</w>
대 학생</w>
대 가리</w>
니콜 라스</w>
는 다면</w>
놀 랬</w>
나와 라</w>
그 지없</w>
고 르</w>
r i
n a
M BC</w>
?? ??</w>
.. ;;</w>
. -</w>
흔 적</w>
흑 역사</w>
활 동</w>
한 텐</w>
한 정</w>
프리 카</w>
프 레</w>
퍼 스</w>
파 워
토 끼</w>
첩 보</w>
질 라</w>
지겨 워</w>
지 역</w>
지 배</w>
지 독</w>
주 행</w>
제 정신</w>
저 거</w>
임 청하</w>
이연 희</w>
이 웃</w>
위 원
원 표</w>
워 커</w>
오 인
엽 문</w>
여기 저기</w>
엑소 시
어 딜</w>
양 인</w>
양 반</w>
안타까 웠</w>
안 성기</w>
안 경</w>
아 끼</w>
샌 들러</w>
색 채</w>
부끄 러운</w>
무 리수</w>
묘 하</w>
몰 락</w>
모 티
모 델</w>
망 상</w>
마 인드</w>
들 린</w>
두려 움</w>
대 비</w>
다 름</w>
나 참</w>
꺼 내</w>
김태 희</w>
김민 종</w>
김명 민</w>
김 윤
국 제</w>
경 악</w>
거 울</w>
가 을</w>
t o</w>
c h
G V</w>
효 진</w>
혀 서</w>
허 무
함 부로</w>
풀 리</w>
파워 레인저</w>
텝 업</w>
태 양</w>
태 도</w>
키아 누</w>
커 스</w>
초 기</w>
질 주</w>
진 영</w>
죽 였</w>
주 목</w>
재 발견</w>
장 센</w>
잘 생긴</w>
이순 신</w>
으 려</w>
유 미</w>
위원 회</w>
워 하</w>
울 음</w>
우 치</w>
우 아</w>
오로 라</w>
오 유</w>
엉 터리</w>
엉 엉</w>
어 마</w>
애국 심</w>
아닌 지</w>
쓰 레기
십 니다</w>
실 패
스 펜
스 텝업</w>
스 미스</w>
섭 외</w>
색 다르</w>
봐 왔</w>
미 장센</w>
미 국인</w>
멋 대로</w>
땜 시</w>
드라 마
돋 보인다</w>
다 보</w>
노 골</w>
남 아
그렇 지만</w>
구 도</w>
교 수</w>
과 잉</w>
계 시</w>
결 합</w>
걸 렸</w>
s i
l a
흔 들</w>
호 동</w>
행 크스</w>
하 하
포켓 몬</w>
펼 쳐
타 령</w>
클 럽</w>
케 이</w>
카 드</w>
체 험</w>
철 없</w>
지 하
지 인</w>
지 상
지 라</w>
조 위</w>
조 악</w>
전 락</w>
재 감</w>
장난 감</w>
작 인</w>
자 자</w>
자 아</w>
임 신</w>
일 리</w>
인 생
이민 기</w>
이나 영</w>
유 부
웹 툰</w>
웃 겨요</w>
와 중</w>
와 일
오인 혜</w>
역 활</w>
역 쉬</w>
에 게
어우러 진</w>
어 떡</w>
앵 글</w>
애 자</w>
신 민아</w>
신 념</w>
수 치</w>
생 략</w>
부 자</w>
봐 야겠다</w>
백 배</w>
배 드</w>
물 건</w>
멀 리</w>
막 힌</w>
리 즘</w>
로 마</w>
레 드</w>
똑 바로</w>
디자 인</w>
놀라 울</w>
김 소
기억 난다</w>
글 구</w>
그 림
고스 란히</w>
게 리
간 첩</w>
Th e</w>
200 3</w>
19 8
힘 드</w>
홍 금보</w>
호 텔</w>
호 강</w>
해 서
할 꺼</w>
풍 부</w>
페이 스</w>
특 징</w>
킨 다</w>
크리 스토
카메 론</w>
쳐 먹</w>
차 마</w>
진 국</w>
직 원</w>
지 라도</w>
정 확히</w>
저 절로</w>
재 료</w>
일 생</w>
이 지
이 뻐요</w>
은 혜</w>
위 하</w>
우 승</w>
온 몸</w>
영 애</w>
에 로
에 러</w>
아카 데미</w>
실패 작</w>
신 세경</w>
식 스</w>
슬 리</w>
스트 라</w>
스 콧</w>
송 혜교</w>
소피 마르소</w>
성 의</w>
삼 가</w>
불 행</w>
부 각</w>
본 다고</w>
보여 줌</w>
방 송
박 스</w>
바 른</w>
미 인</w>
멀 쩡</w>
맹 랑</w>
맞 춰
록 키</w>
래 요</w>
등 급</w>
도 통</w>
달 음</w>
는데 도</w>
뉴 욕</w>
남 발</w>
날 렸</w>
나 오
끌 리</w>
깨 달음</w>
깁 슨</w>
김 성
기 간</w>
구 원</w>
과대 평가</w>
고마 운</w>
고 질라</w>
고 발</w>
객 관</w>
흐 뭇</w>
해 질</w>
패 션</w>
케 릭</w>
최 선</w>
초 점</w>
책 임
찜 찜</w>
진 하</w>
쥬 라기</w>
종 류</w>
졌 으면</w>
접 하</w>
재 주</w>
자 본
자 라</w>
인터 뷰</w>
이준 기</w>
이 해
의 학</w>
요 미</w>
왔 었</w>
어쩌 다</w>
어 째
어 벤
양 조위</w>
아 프리카</w>
아 웃</w>
쓰 레</w>
써 서</w>
써 라</w>
스 틴</w>
스 턴</w>
스 카</w>
소 영</w>
센 트</w>
생 존</w>
사 라</w>
비 싼</w>
부 대</w>
벌 어지</w>
백 만</w>
배 울</w>
배 속</w>
미 흡</w>
미 묘</w>
뭔 데</w>
무 색</w>
먹 이</w>
망 설
마 스터</w>
를 까</w>
렉 스</w>
레이 첼</w>
뜨 거운</w>
디 아
들어 왔</w>
든 요</w>
노 예</w>
남 매</w>
날 아
나타 내</w>
나 게</w>
극 찬</w>
공 감
계 획</w>
격 투</w>
거 든요</w>
가 졌</w>
가 상</w>
가 미</w>
c e</w>
P D</w>
K BS</w>
;;;; ;;;;
!!!! !!!</w>
혹 평</w>
했 으면</w>
합 니까</w>
한 두</w>
펭 귄</w>
페이 지</w>
퇴 보</w>
토 니</w>
총 질</w>
지 지</w>
지 금
존 중</w>
존 재감</w>
조 지</w>
전 국</w>
일 요일</w>
유치 뽕</w>
위 안</w>
요 약</w>
오 타
오 만</w>
에게 서</w>
아 기
신 감</w>
슈 렉</w>
송 지효</w>
상 욱</w>
빨 간</w>
브 레이
본 다는</w>
베 트
바 르</w>
뭡 니까</w>
멘 붕</w>
마 초</w>
마 라</w>
마 구</w>
동 기</w>
달 까</w>
느껴 짐</w>
내 세
내 겐</w>
꼬 맹이</w>
글 쎄
공 개</w>
곱 씹</w>
고 정</w>
경 제</w>
감 수</w>
~~ !</w>
e n</w>
d d
200 5</w>
200 4</w>
허무 맹랑</w>
했 어도</w>
해 일</w>
합 리</w>
할 게요</w>
한 다
필 드</w>
피 터</w>
플 레이</w>
폭 탄</w>
튀 어
콜 린
코스 프레</w>
지 적</w>
제작 사</w>
정 통</w>
정 재
접 근</w>
절 절</w>
저 번</w>
장 편</w>
자 매</w>
일 리언</w>
이 름
이 라
으 세요</w>
원 했</w>
우 왕</w>
우 디</w>
용 가리</w>
오 우</w>
예 의</w>
예 뻐요</w>
였 으나</w>
에드 워드</w>
에 일리언</w>
앞 서</w>
안타까 울</w>
아무 래도</w>
써 도</w>
시 고</w>
습 니당</w>
슬퍼 서</w>
슬 래
슬래 셔</w>
서 기</w>
상 투</w>
비 아</w>
부 디</w>
보 스</w>
별 다른</w>
받아 들이</w>
미 술</w>
물 씬</w>
문 학</w>
모티 브</w>
래 키</w>
딱 딱</w>
두 근</w>
도 덕</w>
더 더욱</w>
더 니만</w>
놀 래키</w>
냅 니다</w>
끊 임
긍 정</w>
그 룹</w>
공감 대</w>
고 로</w>
강지 환</w>
강 조</w>
간 간히</w>
v ery</w>
ov e</w>
oc n</w>
i t
a n</w>
C GV</w>
........ ...</w>
. ??</w>
!!!!!!!! !</w>
현 지</w>
허 탈</w>
향 해</w>
한 때</w>
피 아</w>
프 트</w>
폭 행</w>
퍼 즐</w>
팀 버튼</w>
톰 크루즈</w>
태 어난</w>
콤 비</w>
치 만</w>
채 워</w>
지 존</w>
지 만
중 력</w>
주 상욱</w>
제 국</w>
젊 음</w>
저 녁</w>
장 나라</w>
잡 이</w>
임 수정</w>
임 권
임권 택</w>
일 체</w>
이 선
이 겨</w>
은 데요</w>
유 기</w>
워 지</w>
용 두
와이 프</w>
오타 쿠</w>
예 뻐</w>
였 으면</w>
연 장</w>
여 고</w>
엉 덩이</w>
어째 서</w>
어 우</w>
양 동근</w>
안 다</w>
아이 고</w>
아오 이</w>
싸 울</w>
수 지</w>
수 술</w>
서 극</w>
사 신</w>
뻔 히</w>
빅 뱅</w>
부 를</w>
베트 남</w>
벌 레</w>
박신 양</w>
못 생긴</w>
모 자</w>
명 확</w>
면 증</w>
머 피</w>
매 회</w>
매 혹</w>
맛 깔</w>
라 나</w>
똑 똑</w>
또 라이</w>
떨어 져</w>
떠 들</w>
떄 문
들 여
드러 내</w>
된 다면</w>
다 듬</w>
넘어 선</w>
나와 도</w>
끼 친다</w>
기대 감</w>
그래 요</w>
그 분</w>
경 계</w>
강 시</w>
간 단</w>
~~ ~
o t</w>
h tt
^ .
> >
.. "</w>
히 트</w>
핸드 폰</w>
해 냈</w>
프 라이즈</w>
팔 아먹</w>
파 이</w>
퀴 어</w>
춘 기</w>
집어 넣</w>
짐 승</w>
진 화</w>
준 영</w>
죽 인다</w>
조 조</w>
자 세히</w>
일 세</w>
이 치</w>
이 여</w>
이 념</w>
이 경
위 원</w>
우 울
우 수</w>
어울 려</w>
어설 퍼</w>
어 찌
어 이</w>
써 야</w>
시끄 러
스펜 스</w>
스토 리
수 애</w>
소리 지르</w>
소 나</w>
선 율</w>
서 스펜스</w>
서 방</w>
사 로
비 롯</w>
불 후</w>
분 석</w>
부 시</w>
미야자 키</w>
미 스터</w>
문 제
메 리</w>
마 틴</w>
린 트</w>
때 메</w>
들 인</w>
동 호</w>
담 아내</w>
는 구만</w>
느 슨</w>
느 린</w>
논 하</w>
내 보내</w>
남아 돌</w>
난 생</w>
끝 났
끝 남</w>
꼬 라지</w>
기다 려
극 한</w>
그 딴</w>
곳 곳</w>
고 백</w>
경 기</w>
강 호동</w>
가 해자</w>
b est</w>
> <</w>
20 10</w>
휴 먼</w>
황 홀</w>
현 빈</w>
헌 터</w>
하 차</w>
파 극</w>
트 릭스</w>
큐 브</w>
청 이</w>
지금 껏</w>
지 혜</w>
중 후</w>
조 직</w>
정 권</w>
저 렴</w>
작 렬</w>
일 탈</w>
이 스트
이스트 우드</w>
윌리 엄
원 인</w>
우 익</w>
우 삼</w>
용두 사미</w>
용 감</w>
욕 구</w>
와 라</w>
올라 갈</w>
오 지
오 우삼</w>
언 급</w>
어 땠</w>
어 거지</w>
싫 어
실 소</w>
시 리</w>
스텔 라</w>
스 탈</w>
스 마
수 업</w>
소 니</w>
서 우</w>
사 춘기</w>
불 면증</w>
밀 라</w>
미 군</w>
맞 음</w>
망 감</w>
마 요</w>
마 리
마 른</w>
루 이스</w>
로보 캅</w>
딸 리</w>
독 창</w>
더러 워</w>
대 략</w>
담아 낸</w>
단 언</w>
닌 자</w>
너 지</w>
내 려</w>
꺼 져</w>
김선 아</w>
김 현
김 재
기 차</w>
기 쁨</w>
겁 니까</w>
강 우</w>
가르 쳐</w>
가 질</w>
가 운데</w>
♥♥ ♥♥</w>
u n
k bs</w>
htt p</w>
9 8</w>
회 장</w>
황 비
황비 홍</w>
허 준</w>
하 우스</w>
하 구</w>
프레 데
측 면</w>
쪽 팔
짓 거리</w>
진 다는</w>
죽 임</w>
제 시</w>
제 라
정재 영</w>
적 절히</w>
잠 수
자본 주의</w>
자 위</w>
자 니</w>
인 척</w>
인 격</w>
이성 재</w>
이 성</w>
이 범수</w>
워 싱
우 습</w>
예 매</w>
연 령</w>
어울 렸</w>
쓰레기 통</w>
썰 렁</w>
수 준
손 색
서 인
상 쾌</w>
사 자</w>
비 난</w>
불 법</w>
불 만</w>
부 재</w>
밝 혀</w>
바이 러스</w>
민 주</w>
모 여</w>
멍 청이</w>
데 려다</w>
대 단히</w>
달 라</w>
다 케
나 누</w>
그 놈</w>
귀 요미</w>
고 은</w>
겨 져</w>
거 린다</w>
가 게</w>
m bc</w>
l e</w>
e bs</w>
co m</w>
;; ;;;</w>
!!!! !!!!</w>
휴 가</w>
후 한</w>
활 약</w>
홍 진호</w>
헐 크</w>
해 본다</w>
학 대</w>
피 라
프 만</w>
토 요</w>
크리스 찬</w>
충 무
추 락</w>
초 능력</w>
직 장</w>
지 네</w>
준 다는</w>
주 의자</w>
인디 아나</w>
인 터</w>
이 재
이 자
은 퇴</w>
원 생</w>
요 구</w>
오리지 널</w>
오 류</w>
여 동생</w>
어지 간</w>
앞 부분</w>
안 정</w>
안 드
악 평</w>
아 담</w>
실 컷</w>
신 파극</w>
시 원
습 작</w>
슬 기</w>
순 진</w>
손색 없</w>
소 박</w>
성 향</w>
서 프라이즈</w>
서 부
서부 극</w>
비 명</w>
브 이</w>
붙 여</w>
부 림</w>
봣 어요</w>
보 냅니다</w>
박 해일</w>
무너 지</w>
멸 망</w>
망 함</w>
만 든
마 루</w>
리 브스</w>
르 르</w>
러 셀</w>
떨어 뜨
디 스</w>
드래 곤</w>
달 러</w>
다 길래</w>
누 르</w>
나 발</w>
나 미</w>
나 기</w>
김 강우</w>
기 계</w>
금 요일</w>
금 방</w>
그 릇</w>
교 감</w>
관 가</w>
거 창</w>
강 제</w>
감 독
가 만
♥ ♡
♡ ♡♡</w>
v e</w>
l y</w>
an d</w>
^_ ^</w>
후 지</w>
황 금</w>
환 불</w>
혹 성
한예 슬</w>
하 트</w>
프레데 터</w>
표 작</w>
패 턴</w>
파 고
투 신</w>
타 르
키 드</w>
쾌 감</w>
코 스트
코스트 너</w>
침 몰</w>
추 잡</w>
쯔 이</w>
진 보</w>
종 일</w>
조 인성</w>
적 응</w>
재 치</w>
재 밌
장 쯔이</w>
자 제</w>
자 연
일 제</w>
일 기</w>
이 랬</w>
을 려고</w>
윌리엄 스</w>
워싱 턴</w>
우 스
옛 다</w>
영상 물</w>
에이 리언</w>
어처구 니없</w>
야 죠</w>
알아 보</w>
안 티</w>
악 몽</w>
아기 자기</w>
아 일
아 인</w>
시 스
스 무</w>
선 가</w>
살아 나</w>
사라 졌</w>
사 망</w>
사 다
뻔 해서</w>
브래 드
본 드</w>
법 칙</w>
버 티</w>
버 려서</w>
버 금
미 칠</w>
미 개</w>
몰 라
매 기</w>
리 어</w>
루 니</w>
뜨 거
떄문 에</w>
따 윈</w>
데 미
덜 덜</w>
대 표작</w>
대 만</w>
노 동자</w>
나 옵니다</w>
글쎄 요</w>
그 치만</w>
그 럽</w>
규 리</w>
교 사</w>
고 찰</w>
경 쾌</w>
갑 갑</w>
ㅠㅠ ㅠㅠㅠ</w>
ㅋㅋ ㅋ
~~~~ ~~</w>
s o</w>
g v</w>
f a
혹성 탈출</w>
혜 정</w>
현대 인</w>
했 을까</w>
한 없이</w>
학 자</w>
하 야
필 수</w>
푸 른</w>
파 서
파서 블</w>
투 박</w>
탐 정</w>
클 린트</w>
치 열</w>
총 알</w>
촌 스러운</w>
짜 집</w>
짜 임</w>
진 작</w>
지 연</w>
주 체</w>
제 리</w>
전 환</w>
잡 히</w>
임 파서블</w>
이동 욱</w>
이 즈</w>
이 스
이 놈</w>
으 려는</w>
운 전</w>
외 화</w>
외 로</w>
오 락
영 감</w>
연기 파</w>
어느 새</w>
어 마
어마 어마</w>
애 쓰</w>
암 니슨</w>
안 젤
안 겨</w>
싱 어</w>
실 종</w>
스 노
속 지</w>
상 자</w>
사 연</w>
봉 작</w>
보 라</w>
병 사</w>
변 호사</w>
발 레</w>
민 주
마음 속</w>
마 주</w>
리 암니슨</w>
로 워</w>
로 렌스</w>
레 인</w>
라 스
뛰 쳐
디 션</w>
데 려
더 스</w>
달 려</w>
니 버스</w>
녹 화</w>
내 놔</w>
내 공</w>
기 엔</w>
기 보단</w>
근 영</w>
궁 금
국 주의</w>
고 루</w>
겨 야</w>
감 당</w>
ㅗ ㅗ
o d</w>
l e
200 8</w>
흘러 도</w>
헬 기</w>
한 수</w>
하야 오</w>
하 군</w>
풍 기</w>
투 자자</w>
테이 크</w>
치 명</w>
철 수</w>
차 지</w>
쫄 깃</w>
진 주</w>
지겨 운</w>
지 워</w>
쥐 어
조 각</w>
져 스</w>
제 한</w>
제 법</w>
제 도</w>
일 대기</w>
이민 정</w>
이 슈</w>
의 외로</w>
은 하</w>
으 셨</w>
유 작</w>
원 빈</w>
우 마</w>
오 토
연 쇄</w>
엑소시 스트</w>
에 니</w>
아마 도</w>
시 네
승 화</w>
수준 급</w>
세 원</w>
선 배</w>
서 린</w>
상 하</w>
사 귀</w>
브래드 피트</w>
봣 음</w>
봣 는데
보 성</w>
밝 혀
무 적</w>
무 능</w>
못 생겼</w>
매 트릭스</w>
말 기</w>
레이 싱</w>
디아 즈</w>
두근 두근</w>
돌 렸</w>
니 어</w>
남 김</w>
나와 요</w>
나 약</w>
까 먹</w>
김 하늘</w>
김 동
김 남길</w>
기 어</w>
기 술
기 동
그럴 싸
교 인</w>
괴 롭
관계 자</w>
관 념</w>
공 상</w>
공 격</w>
겨 운</w>
개 떡</w>
~ ♥</w>
t a
8 8</w>
200 9</w>
200 1</w>
2 7</w>
12 3
.. ;;;</w>
힌 다</w>
흔 히</w>
형 성</w>
한 효주</w>
하 면</w>
하 니</w>
프로 젝
프로젝 트</w>
프레 디</w>
평 정</w>
팬 더</w>
틀 러</w>
탕 웨이</w>
타 락</w>
최 저</w>
최 강
창 조</w>
참 혹</w>
찌 푸
징 그러
지하 철</w>
졸 려서</w>
장 미</w>
잠수 함</w>
잘 난</w>
자 비</w>
이름 값</w>
이 크</w>
이 브</w>
음 모</w>
유 혼</w>
운 운</w>
욕 할</w>
열 린</w>
얼 른</w>
아메리 칸</w>
아담 스</w>
아 가
씁 니다</w>
시 티</w>
스러 워서</w>
스 칼
소 수</w>
샤 를
샤 론
샤론 스톤</w>
생각 났</w>
생 명
살인 자</w>
사다 코</w>
비 유</w>
비 오</w>
붕 괴</w>
보 호</w>
버 트</w>
발 생</w>
박신 혜</w>
바 치</w>
밀려 오</w>
믿 겨</w>
무 얼</w>
묘 미</w>
몰 래</w>
모자 란</w>
머 니즘</w>
막 스</w>
마 크</w>
리 나</w>
러 니</w>
뜬 금</w>
따라 한</w>
도망 가</w>
단 다</w>
니 다
농 구</w>
넘 쳐
나 왔었</w>
껴 서</w>
급 하</w>
구 매</w>
공 존</w>
개 월</w>
개 독</w>
갖 추</w>
갔 다
s e
s a
m y</w>
201 1</w>
2 3</w>
1 20</w>
흡 사</w>
훼 손</w>
훈 련</w>
확 신</w>
현 정</w>
현 상</w>
하 네</w>
통 하</w>
토 미</w>
충무 로</w>
총 사</w>
철 저</w>
찡 하</w>
찌 르</w>
좌 파</w>
종 말</w>
정 적</w>
접 한</w>
잠 든</w>
일본 어</w>
이 터</w>
이 중</w>
이 분</w>
이 면</w>
이 나마</w>
으 라고</w>
운 다</w>
우 월
옹 호</w>
옴 니버스</w>
어설 픔</w>
어벤 져스</w>
어려 웠</w>
어려 움</w>
어떨 까</w>
어 렷</w>
어 둠</w>
약 자</w>
알 맹이</w>
악 인</w>
아 시아</w>
아 르</w>
써 먹</w>
신 다면</w>
시네 마</w>
수 상</w>
수 백</w>
소 방
소 라</w>
설레 임</w>
보 장</w>
베 이</w>
벌 이</w>
배 운</w>
바 지</w>
미 니</w>
물 질</w>
몰 라서</w>
루 크</w>
때 론</w>
드 신</w>
동 아리</w>
동 석</w>
도 박</w>
대 책</w>
당 최</w>
눈 뜨</w>
놨 다</w>
내려 가</w>
나 비</w>
기 원</w>
그리 운</w>
균 형</w>
구 해</w>
구 지</w>
구 로
광 수</w>
고 려</w>
결 제</w>
걸 까요</w>
거 렸</w>
가만 히</w>
~ !!!!</w>
f f
d i
9 5</w>
200 2</w>
19 7
10 10
* *</w>
희 극</w>
흔 들리</w>
휴 머니즘</w>
호 평</w>
현 장</w>
함 정</w>
할 까요</w>
하 긴</w>
펙 트</w>
파 트
통 일</w>
텔 링</w>
클 루니</w>
크리스토 퍼</w>
콧 물</w>
징 그럽</w>
지 않</w>
줄 려고</w>
조선 족</w>
제임 스
저 래</w>
잘 라</w>
인 내</w>
이상 실</w>
은 은</w>
육 체</w>
유 증</w>
요 란</w>
외 로운</w>
엑 스트라</w>
에 바</w>
어 의</w>
압 박</w>
안 쓰
아 용</w>
씨 네</w>
실 존</w>
신 현준</w>
신 분</w>
시스 템</w>
쉬 워요</w>
순 례</w>
수 단</w>
설 렘</w>
선 전</w>
서 세원</w>
새 기</w>
사 정</w>
쁜 데</w>
빙 빙</w>
비 급</w>
볼 타</w>
발 톱</w>
바 꾼</w>
문 근영</w>
만 지</w>
리 치</w>
레이 스</w>
라이 더</w>
라 길래</w>
똥 폼</w>
드 류</w>
드 러운</w>
독 백</w>
도 다</w>
더 블</w>
뇌 리</w>
내 린</w>
낯 선</w>
끝 날</w>
근 거</w>
그러 니까</w>
그 만
그 렸</w>
그 곳</w>
군 데</w>
공 산
걸 음</w>
건 진</w>
개 지</w>
각 인</w>
각 성</w>
가 치
ㅡ ㅜ</w>
e ver</w>
c gv</w>
O C
9 7</w>
........ ....</w>
. "</w>
, ,</w>
히 치
히치 콕</w>
희 한</w>
황 제</w>
행 어</w>
핵 심</w>
하여 금</w>
피 하</w>
피 터
플 래
프 렌
표 본</w>
폴 워커</w>
파 일</w>
특 성</w>
크 로우</w>
케이 트</w>
출연 료</w>
창 의</w>
집 중력</w>
진 솔</w>
지 진희</w>
지 닌</w>
중 국인</w>
줄 리아</w>
주 옥
주옥 같</w>
주 도</w>
졸 음</w>
존 심</w>
전 자</w>
전 결</w>
작 작</w>
작 업</w>
잊 혀
인 셉
인셉 션</w>
이승 기</w>
이선 균</w>
이 만큼</w>
으 다</w>
유 산</w>
우 디
오토 바이</w>
영 호</w>
어찌 나</w>
아 자</w>
실 망감</w>
신 은경</w>
스포 일러</w>
스 틸</w>
스 탤
성 지</w>
성 괴</w>
서 요</w>
샤 이
상 미</w>
뻔 했</w>
뻔 해</w>
블 리</w>
브루 스
베 르
방 울</w>
발 휘</w>
발 암</w>
무 장</w>
무 거
못 지않</w>
머 신</w>
망 신</w>
망 가지</w>
마 땅</w>
로 다</w>
레 오</w>
래 원</w>
들어 갔</w>
둘 째</w>
동 료</w>
동 급</w>
대 장</w>
대 인</w>
대 구</w>
다 면서</w>
다 간</w>
는 겨</w>
놓 친</w>
나 아
기 묘</w>
기 만</w>
광 주</w>
고 소영</w>
결 혼
강 혜정</w>
감정 이입</w>
가치 관</w>
가 사</w>
가 루</w>
~~~~ ~~~</w>
ha t</w>
X X</w>
4 5
.. .?</w>
히 스
후 하</w>
후 유증</w>
화 해</w>
화 난다</w>
헤 헤</w>
하나 같이</w>
하 필</w>
하 얀</w>
패 닝</w>
토 마스</w>
터 무
타르 시스</w>
크 레이
캔 들</w>
카 타르시스</w>
충 만</w>
최 진실</w>
첨 보</w>
차 가운</w>
징 징
질 투</w>
진 자</w>
직 전</w>
지 마</w>
지 른</w>
줄리 엣</w>
졸 립</w>
조 커</w>
정 성</w>
전 통</w>
재 일</w>
재 림</w>
장 사</w>
작 중</w>
자 존심</w>
자 료</w>
입 부</w>
이종 석</w>
이루 어
이 틀</w>
은 희</w>
으 으</w>
으 니
윤 재</w>
유치 원</w>
유 역
유역 비</w>
위 치</w>
원 맨
원맨 쇼</w>
외 롭</w>
완 벽
와 이어</w>
오 싹</w>
오 버
연 계</w>
에 서부터</w>
어 보이</w>
어 려서</w>
어 딨</w>
어 내</w>
압 축</w>
암 살</w>
안타까 워</w>
안 목</w>
아 파</w>
아 키
쏟 아
신 들린</w>
시켜 서</w>
시 간
스트 립</w>
스탤 론</w>
스 코</w>
스 캔들</w>
스 레</w>
선 입
서인 국</w>
새 로</w>
사라 진</w>
사 와</w>
뽀 로로</w>
비 티</w>
블 레이드</w>
보 잡</w>
버금 가</w>
박 힌</w>
바 래</w>
바 뀐</w>
묻 혀</w>
무 의미</w>
못 지</w>
명 량</w>
명 곡</w>
메 오</w>
맥 어보이</w>
맙 시다</w>
마 츠
마 니아</w>
리 카</w>
리 암</w>
리 쉬</w>
리 라</w>
리 그</w>
로 메
력 자</w>
따 라서</w>
듣 보잡</w>
동 의</w>
돌 이
데이 먼</w>
대 형</w>
다 른
다 기</w>
날 라
끈 다</w>
김수 로</w>
그림 자</w>
그리 워</w>
궁금 증</w>
공포 감</w>
공 효진</w>
고 난</w>
감독 판</w>
가져 다</w>
가 문</w>
r o
^^ ;;</w>
00 00</w>
.. !!</w>
., ,</w>
-- ;</w>
** **
효 민</w>
화 신</w>
호 프만</w>
행 운</w>
파 티</w>
파 멸</w>
트라 볼타</w>
톰 행크스</w>
토 이</w>
테 론</w>
태 웅</w>
쿵 푸</w>
케이 스</w>
치 킨</w>
취 미</w>
충 동</w>
초 콜
천 박</w>
천 녀</w>
지 근</w>
쥐어 짜</w>
중 세</w>
줄 이</w>
준 다고</w>
주 민</w>
조 재현</w>
저 버리</w>
일본 식</w>
일 까요</w>
인 표</w>
인 증</w>
이정 현</w>
이 걸로</w>
은 정</w>
으리 으리</w>
으 므로</w>
으 려나</w>
윤 계
윤계 상</w>
유 희</w>
유 행어</w>
유 사</w>
유 도</w>
워 진</w>
완 소</w>
완 결</w>
오 늘
에 너지</w>
어려 울</w>
약 속</w>
안 부</w>
아름다 워</w>
아 트</w>
쓰 리</w>
쌍 욕</w>
쌍 둥이</w>
싱 겁</w>
십 시오</w>
시 계</w>
승 전결</w>
스티 븐
스트 리
스크 림</w>
스 탭</w>
슈 스케</w>
솜 씨</w>
소 피</w>
소 유</w>
설 치</w>
선입 견</w>
서 히</w>
서 서히</w>
서 민</w>
사 형</w>
사 시</w>
사 소</w>
빠 짐</w>
빠 이</w>
비 용</w>
봅 시다</w>
변 명</w>
발 차기</w>
민주 주의</w>
민 서</w>
문 명</w>
무 도</w>
모 른</w>
모 니</w>
멜 깁슨</w>
매 년</w>
맞 먹</w>
망 해</w>
마 련</w>
릴 라</w>
린 치</w>
로 멘</w>
랭 크</w>
뜨 겁</w>
떠올 랐</w>
도 망</w>
도 로</w>
데 이트</w>
대 리</w>
달 랐</w>
다 며</w>
다 닐</w>
니콜 키드먼</w>
니 트</w>
늑 대
노 무</w>
노 무
난 방</w>
나 빠</w>
끊임 없이</w>
기동 대</w>
기 승전결</w>
기 부</w>
근 본</w>
그런 대로</w>
공 기</w>
고 개</w>
결 투</w>
ㅇㅇ ㅇㅇ
p i
l ove</w>
l o
OC N</w>
M C</w>
3 5</w>
2 2
/ /
- .-</w>
,,,, ,,,,
히 히</w>
히 로
회 복</w>
혜 진</w>
프 리</w>
평 하</w>
편 히</w>
편 지</w>
트 리
튀 기</w>
태 규</w>
타 클</w>
타 입</w>
쿠 삭</w>
캡 틴</w>
쵝 오
최 지우</w>
초 심</w>
처 먹</w>
쨋 든</w>
질 러
즈 음</w>
주 지훈</w>
주 장</w>
종 이</w>
조 국</w>
장 창</w>
잡 아먹</w>
잡 스</w>
자 칫</w>
일어 났</w>
인 피
인 데요</w>
이 길</w>
으 니깐</w>
우울 증</w>
완벽 히</w>
올 드만</w>
오 디션</w>
오 덕</w>
역 부족</w>
여 진구</w>
여 지</w>
여 우</w>
에 르</w>
어 필</w>
어 쩐
어 쨋든</w>
어 메이
어메이 징</w>
어 깨</w>
약 해</w>
앨 런</w>
안 쓰러
아이 리스</w>
아 휴</w>
아 아아</w>
쏠 쏠</w>
시 킴</w>
슬 로우</w>
스펙 타클</w>
숭 고</w>
수 연</w>
소 스</w>
성 애자</w>
상 도</w>
사 막</w>
사 리</w>
비 리</w>
브루스 윌리스</w>
불 꽃</w>
부 담
볼 라고</w>
보 비치</w>
버 려라</w>
배 웠</w>
밝 히</w>
미 만</w>
물 고기</w>
못 해서</w>
모 를까</w>
명 예</w>
며 칠</w>
만 만</w>
뚜 렷</w>
떠오 른다</w>
뒤 통수</w>
도 구</w>
덴 젤</w>
대 학교</w>
대 변</w>
대 가</w>
단 계</w>
다케 시</w>
늘 리</w>
넘 친다</w>
넘 겨</w>
깜 찍</w>
김 래원</w>
기술 력</w>
그려 냈</w>
그래 두</w>
구 구
교 차</w>
관 심
공 리</w>
공 각</w>
고마 워요</w>
고 현정</w>
고 고</w>
결 과
걸 레</w>
건 물</w>
거 시기</w>
가 니</w>
ㅇ ㅇㅇ</w>
s s</w>
na ver</w>
^. ^</w>
99 99
3 3</w>
200 7</w>
........ .....</w>
희 생
흔 해
흐 흐</w>
화 제</w>
형 태</w>
하여 튼</w>
퍼 펙트</w>
팬 티</w>
테 스트</w>
터 질</w>
터 진다</w>
터 진</w>
타 잔</w>
카 시</w>
철 저히</w>
처 참</w>
책 감</w>
채 원</w>
채 민서</w>
짐 작</w>
진 출</w>
지 능</w>
중 기</w>
종 북</w>
제 인</w>
제 레
제 공</w>
정 답</w>
정 글</w>
전 거</w>
적 합</w>
재미 난</w>
재 회</w>
재 석</w>
자 질</w>
잉 여</w>
인피 니트</w>
인 칭</w>
인 정
인 과</w>
이스 라
이스라 엘</w>
이민 호</w>
이리 저리</w>
의 아</w>
유치 원생</w>
유 천</w>
웨 슬리</w>
우 진</w>
올 랐</w>
영화 배우</w>
연 민</w>
여 실히</w>
에 스
에 릭</w>
억지 웃음</w>
어 났</w>
야 마
아키 라</w>
아 야
실 체</w>
시 대상</w>
스 님</w>
수 습</w>
송 중기</w>
소 원</w>
소 림
셔 요</w>
섞 인</w>
서 사</w>
생각 날</w>
상 승</w>
삼 총사</w>
사이 코
사로 잡</w>
사 회
사 례</w>
비 행</w>
브로 디</w>
봉 태규</w>
복 제</w>
반 가
밖 엔</w>
미 친
미 사
미 루</w>
무 표정</w>
무 튼</w>
모 처럼</w>
막 극</w>
린 지</w>
로 얄</w>
로 빈
랑 이</w>
라 노</w>
들 이
두 뇌</w>
된 장</w>
되 돌아보</w>
독 도</w>
도 입부</w>
대 왕</w>
단 막극</w>
니 발</w>
눈 요기</w>
누 워</w>
놀 래</w>
네 임</w>
기 리</w>
금 포</w>
글 로
근 육</w>
국 적</w>
구 림</w>
고 스트</w>
고 만</w>
겨 준</w>
거슬 린다</w>
거 침
개 미</w>
갑 작
갈 릴</w>
s bs</w>
n e
d e</w>
A V</w>
! ^^</w>
헌 신</w>
했 으니</w>
해 학</w>
해 리</w>
할 래</w>
한 쪽</w>
필 립</w>
픕 니다</w>
폴 리스</w>
팔 마</w>
파트 너</w>
틀 린</w>
트 와일
트와일 라
트와일라 잇</w>
통 한</w>
토 리</w>
테이 프</w>
키 오</w>
최 하</w>
최 대한</w>
찰 리</w>
차 인표</w>
징 악</w>
진 가</w>
지 치</w>
지 속</w>
중 구
중구 난방</w>
줍 잖</w>
정 유미</w>
정 돈</w>
장 녀</w>
자 유
자 녀</w>
이 론</w>
유승 준</w>
원 제</w>
원 망</w>
워 킹</w>
웃 길</w>
요 보비치</w>
올 시다</w>
연 애
여 지
언 더</w>
어 줍잖</w>
어 긋
양 산</w>
얄 팍</w>
야 수</w>
알 렌</w>
아일 랜드</w>
신 동
신동 엽</w>
신 다</w>
시 킨다</w>
시 바</w>
스페 셜</w>
스 턴
순 간
손 꼽히</w>
소방 관</w>
성 장기</w>
새 드</w>
삼 국
산 드라</w>
사 태</w>
빠 다</w>
빌 려서</w>
블 록</w>
부 턴</w>
부 스</w>
부 류</w>
봉 준호</w>
보 아</w>
보 상</w>
보 드</w>
보 낸</w>
변 해</w>
배 슬기</w>
발 악</w>
반 해</w>
박 감</w>
바꿔 라</w>
미 니
문 구</w>
목 표</w>
모 어</w>
모 리</w>
모 른
모 드</w>
멜 로
맴 도</w>
매 치</w>
맘 마</w>
맘 대로</w>
려 진</w>
러 시
라이 브</w>
똥 칠</w>
디 비</w>
들어 갈</w>
돌 이</w>
돌 림</w>
도 리</w>
데 뷔</w>
덤 덤</w>
대 처</w>
다가 온다</w>
눈 높이</w>
놔 서</w>
날 라</w>
끝났 으면</w>
김 창
김 승우</w>
기 타
근 대</w>
권 리</w>
관심 없</w>
과 제</w>
골 든</w>
경 이</w>
강 박</w>
간 접</w>
각 지</w>
l d</w>
gh t</w>
b o
V ery</w>
N o</w>
4 000</w>
200 6</w>
2 9</w>
19 80</w>
히 로</w>
흠 뻑</w>
흘 러</w>
호 화</w>
호 소</w>
형 편</w>
허 비</w>
한 몫</w>
한 대</w>
한 다니</w>
하 하하하</w>
피라 냐</w>
풀 이</w>
평 타</w>
평 작</w>
팔 이</w>
파 도</w>
토 르</w>
태 지</w>
탐 욕</w>
타이 타
타이타 닉</w>
킨 스</w>
클 라</w>
콜 린</w>
케 로로</w>
치 중</w>
치 우</w>
치 기</w>
취 지</w>
최강 희</w>
질 감</w>
지켜 보</w>
주 니어</w>
죄 책감</w>
좌 절</w>
종 종</w>
졸 린</w>
조 성</w>
제시 카
전 투기</w>
잭 맨</w>
자 국</w>
입 가</w>
인 즈</w>
이 드</w>
윌 스미스</w>
웨 스턴</w>
우월 주의</w>
욕 하</w>
욕 설</w>
왕 따</w>
올 드
오늘 날</w>
오 피스</w>
오 지</w>
오 공</w>
영화 인</w>
엠 마
엄 태웅</w>
어울 릴</w>
어리 석</w>
어 떤
애 썼</w>
암 시</w>
아 날
아날 로그</w>
심 은하</w>
심 리
신 자</w>
신 앙</w>
신 성
식 당</w>
수 영</w>
수 리</w>
소 속</w>
셜 록</w>
세 우</w>
세 영</w>
선 징악</w>
생 겨</w>
삼국 지</w>
산 업</w>
사이코 패스</w>
사 도</w>
사 기
빈 디젤</w>
불 우</w>
부 조리</w>
봤 으니</w>
본 받</w>
보 냈</w>
벗 기</w>
벅 찬</w>
백 지</w>
백 미</w>
방 학</w>
받 쳐</w>
박 하
박 용
바 비</w>
바 램</w>
물 결</w>
문제 점</w>
문 식</w>
무 방</w>
모니 터</w>
모 야</w>
만 행</w>
마 피아</w>
리 사</w>
러 리</w>
랍 시고</w>
뛰어 났</w>
드 릴
둘 러
동 참</w>
동 경</w>
돌려 줘</w>
독 자</w>
도 가니</w>
당 해</w>
다 임</w>
다 나</w>
늘어 놓</w>
농 락</w>
노무 현</w>
노 리</w>
나 잇</w>
꼴 리</w>
꺼 리</w>
꺼 라</w>
기 념</w>
그 날</w>
권 선징악</w>
과 감</w>
경 쟁</w>
결과 물</w>
게 이
건 달</w>
개 웃</w>
가 스</w>
ㅇ ㅅ
w h
n o</w>
l t</w>
h h
b e</w>
a d</w>
2 6</w>
1 40</w>
.. !!!</w>
-- --
- _</w>
흘러 나오</w>
흘 릴</w>
흔해 빠진</w>
후 진</w>
후 속</w>
황 금
헛 소리</w>
해 져서</w>
해 소</w>
한 니발</w>
하여 간</w>
하루 하루</w>
피 노
폭 파</w>
폭 소</w>
포 근</w>
판 타
판 치</w>
투 입</w>
토 니
테 러
타이 밍</w>
타 짜</w>
크리스 틴</w>
카 이</w>
친 일
친일 파</w>
출 동</w>
추 석</w>
쳐 라</w>
처 녀</w>
창 작</w>
지 웠</w>
주제 곡</w>
전 파</w>
저 지르</w>
재 연</w>
잠 자</w>
잔 데</w>
일어 난</w>
일 방</w>
인 사</w>
이 슬
이 명
윤 리</w>
유 덕</w>
원 초</w>
원 작자</w>
운 대</w>
용 석</w>
완 존</w>
올 라</w>
오래 오래</w>
오 줌</w>
오 묘</w>
여 성
여 고생</w>
에로 틱</w>
어쩐 지</w>
어쩌 구</w>
앞 서
앞서 간</w>
아 유</w>
아 우
신 히</w>
스 테
속 이</w>
소 사</w>
소 련</w>
세 력</w>
세 끼</w>
섞 여</w>
서 바이
서 른</w>
서 도</w>
생 뚱
생뚱 맞</w>
상 평</w>
사라 져</w>
사 물</w>
비 틀
블 랙
브 금</w>
붙 인</w>
부 성애</w>
봉 관</w>
베 끼</w>
반 면</w>
박 영
박 상
민 우</w>
미 건조</w>
문 자</w>
무 성</w>
무 미건조</w>
모 토</w>
모 션</w>
모 름</w>
마 동석</w>
릅 니다</w>
라 면서</w>
라 더니</w>
떨 리</w>
떠 난</w>
딱 지</w>
디 오
들 려
드라마 틱</w>
두 나</w>
돼 요</w>
동 성애자</w>
돌아 왔</w>
돋 보인</w>
도 현</w>
대 세</w>
다 던데</w>
누 리</w>
논 란</w>
넬 리</w>
남 음</w>
난 다는</w>
김 주
김 상
기 운</w>
기 영화</w>
기 반</w>
금 발</w>
그려 진</w>
구 입</w>
공 정</w>
고 선</w>
계 단</w>
경 지</w>
결혼 식</w>
견 디</w>
격 자</w>
건 담</w>
강 인</w>
강 예
강 도</w>
간 신히</w>
가 슴
f u
b ut</w>
a v</w>
........ ......</w>
.. -_-</w>
흐 른다</w>
후 배</w>
화 장</w>
화 내</w>
호 크</w>
허 허허</w>
해 전</w>
플 러스</w>
펼 치</w>
패 기</w>
태 권</w>
탈 락</w>
타 워</w>
클래 스</w>
클 릭</w>
크 로</w>
캐 서린</w>
추 격전</w>
초콜 릿</w>
초 라</w>
천 하</w>
처 벌</w>
채 영</w>
질 까</w>
지 껄
중 고</w>
준 히</w>
저 딴</w>
저 건</w>
잼 따</w>
재 판</w>
장 만
장만 옥</w>
자 전거</w>
자 빠졌</w>
자 르</w>
인 줄</w>
이제 껏</w>
이정 진</w>
이야 말로</w>
이루 어지</w>
이 익</w>
이 요원</w>
이 완</w>
이 시
의 존</w>
으 로부터</w>
유 해진</w>
유 키</w>
위 안부</w>
웃 긴데</w>
우 려</w>
올 림</w>
오리지 날</w>
오 름</w>
예 정</w>
영 희</w>
엿 볼</w>
열 차</w>
연 구</w>
여 전사</w>
엠 마</w>
아 함</w>
아 비</w>
신 지</w>
신 도</w>
스티 브</w>
스토리 텔링</w>
스 웨
소 비</w>
성 동일</w>
서 진</w>
서 사시</w>
색 히</w>
살 림</w>
산 타</w>
사 토
빛 났</w>
비 안</w>
비 됴</w>
불 리</w>
부 패</w>
부 진</w>
베 를
베 낀</w>
방 어</w>
밉 상</w>
밀 려</w>
민 호</w>
믹 스</w>
무 작정</w>
몸 부림</w>
모 여서</w>
맥 라이언</w>
맙 소사</w>
말 장난</w>
마이 크</w>
마 져</w>
로 드리
레 터</w>
레 저</w>
레 오
떨어 뜨리</w>
따라 했</w>
따 르</w>
동 방</w>
돌 릴</w>
데미 무어</w>
대 립</w>
당 대</w>
다녀 온</w>
다가 왔</w>
다 코
눈물 샘</w>
눈 감</w>
남 동생</w>
날 카
나타 난</w>
나 무
꾸 준히</w>
꼬 리</w>
김 규리</w>
기 승</w>
급 급</w>
금 치</w>
그리 움</w>
구 린</w>
괴롭 히</w>
고 집</w>
계 신</w>
걸 어
거 친</w>
개 봉관</w>
ㅆ ㄹ
♥♡ ♥♡
~ ?</w>
ti on</w>
e c
R E
> _
4 5</w>
4 44</w>
. ♥</w>
- ;</w>
, .</w>
+ _
흔 치</w>
휴 잭맨</w>
후 후</w>
호 랑이</w>
헤 어</w>
해 운대</w>
해 봐도</w>
한 국식</w>
피 부</w>
푸 팬더</w>
포 트</w>
특 급</w>
트 랙</w>
투 쟁</w>
토 벤</w>
태 껏</w>
태 권
크 리</w>
쿵 푸팬더</w>
코 넬리</w>
케 빈
치 닫</w>
춰 야</w>
충 족</w>
초 보</w>
짝 사랑</w>
진 이</w>
진 모</w>
지상 파</w>
지 상</w>
지 못
지못 미</w>
중 견</w>
좋아 한다면</w>
존 나게</w>
조 치</w>
전 반부</w>
장 수</w>
장 담</w>
잔 히</w>
이슬 람</w>
읍 니다</w>
으 아</w>
윤 희</w>
윤 제
윤 시
위 거</w>
원 한다면</w>
우 주
요 한
올드 보이</w>
오 죽</w>
오 다
영 하</w>
여 태껏</w>
에 스</w>
에 반</w>
에 라</w>
억 압</w>
어울 려요</w>
어 유</w>
어 요
어 떨</w>
어 다</w>
야 쿠
안쓰 럽</w>
아이 러니</w>
아이 디</w>
아담 샌들러</w>
아 내리</w>
심 해</w>
시 위</w>
승 자</w>
스노 트</w>
스 탠
쇼 생
쇼생 크</w>
손 오공</w>
성 폭행</w>
설 레이</w>
선 우</w>
서 양인</w>
서 먼</w>
색 기</w>
삽 입</w>
살인 범</w>
사 부
사부 일체</w>
빠 짐
빠 진다</w>
비 씨</w>
브래 드</w>
불 멸</w>
불 교</w>
분 투</w>
부담 없이</w>
부 트</w>
봣 습니다</w>
볼 란다</w>
복 싱</w>
보 인
보 수</w>
변 한</w>
베 토벤</w>
벌 리</w>
배 틀
박정 희</w>
박 유천</w>
민 영화</w>
미 친다</w>
미 성
무 릎</w>
몰 아
모 지</w>
모 건</w>
멘 스</w>
망 침</w>
망 쳐
마 술</w>
르 네</w>
론 데</w>
로드리 게
로 즈</w>
려 구</w>
레 쉬</w>
러 지</w>
라이 프</w>
떨어 질</w>
떨어 져서</w>
드 로</w>
두 렵</w>
동 정</w>
독 재</w>
데 스노트</w>
대 륙</w>
담 주</w>
닭 살</w>
달려 가</w>
달 린</w>
달 라서</w>
다 이</w>
다 세포</w>
니 미</w>
니 다만</w>
느껴 져서</w>
눈 알</w>
높 여</w>
넘쳐 나</w>
넘 쳐</w>
날 림</w>
나 치</w>
나 비
나 나</w>
끝 냈</w>
기 다</w>
그 로
그 레이드</w>
그 땐</w>
그 걸로</w>
권 하</w>
괴 리</w>
광 해</w>
공 익</w>
경 력</w>
객 관
개 병</w>
가 라</w>
i m
b or
;; ;;;;</w>
8 9</w>
* ^^*</w>
!!!!!!!!!!!!!!!! !!!!!!!!!</w>
히 틀러</w>
휴 지</w>
환 영</w>
현 명</w>
현 란</w>
허 망</w>
허 니</w>
해 줌</w>
할 께요</w>
한 결</w>
피노 키오</w>
판타 스틱</w>
판 사</w>
파 헤
특 선</w>
톱 스타</w>
크 리스</w>
쿠 엔
카 스</w>
치 부</w>
출연 자</w>
축 하</w>
총 격전</w>
총 격</w>
쳐 다보</w>
챙 기</w>
창 문</w>
참 내</w>
질 린다</w>
질 러</w>
지껄 이</w>
지 니
증 오</w>
주 요</w>
주 리</w>
제레 미</w>
제 국주의</w>
정 수</w>
정 세</w>
접 했</w>
전 범</w>
저 지른</w>
재 희</w>
재 즈</w>
장 진영</w>
잔 잔히</w>
이해 력</w>
이수 근</w>
이 준</w>
이 주
이 언
이 문식</w>
의 원</w>
으 셨
윤시 윤</w>
유승 호</w>
유 이</w>
웬 지</w>
월 드
월드 컵</w>
워 크</w>
울 린다</w>
올 려
옥 빈</w>
여 군</w>
엑 소</w>
얼 음</w>
야 마</w>
앨 리스</w>
알 차</w>
아무 렇</w>
싱 크</w>
시 즘</w>
시 어머니</w>
습 니</w>
스토 커</w>
스칼 렛</w>
숀 펜</w>
소 수
소 서</w>
세 븐</w>
서 태지</w>
사 이트</w>
사 골</w>
빠짐 없이</w>
비 언</w>
비 슷
붙 잡</w>
부 르
부 드럽</w>
봤 으나</w>
봣 던</w>
보 편</w>
보 리</w>
별 개</w>
베를 린</w>
버 무려</w>
배 두나</w>
반 도</w>
바 꿀</w>
미 숙</w>
물 체</w>
무서 워요</w>
무 가
모 아서</w>
명 언</w>
멈 출</w>
먹 히</w>
맥 주</w>
류 덕
류덕 환</w>
로 썬</w>
레 즈
레 고</w>
런 스</w>
란 도</w>
뜻 깊</w>
따 른</w>
들 으면</w>
들 려</w>
드 릴</w>
두 리</w>
돌아 온</w>
돌아 갈</w>
대 원</w>
대 영</w>
대 다수</w>
담 겨져</w>
달 인</w>
다 메</w>
다 라마</w>
느껴 야</w>
눈 부
놀 람</w>
노 아</w>
년 자</w>
년 기</w>
넘 쳤</w>
내 릴</w>
내 기</w>
나 아가</w>
나 눠</w>
끝 내
김민 희</w>
긴 지</w>
기 여</w>
극 대</w>
그래 피</w>
귀 여</w>
구 름</w>
괴 상</w>
과 언</w>
골 랐</w>
고 릴라</w>
걸 려</w>
감 싸</w>
가 물</w>
가 만</w>
ㅜㅜ ㅜㅜ</w>
ㅋㅋ ㅋㅋㅋ</w>
zz zz
s e</w>
i c
g t</w>
e e
OO OO
N G</w>
9 3</w>
8 5</w>
19 90</w>
1 0000</w>
!!!!!!!! !!</w>
혼 났</w>
헷 갈리</w>
허 점</w>
해 놨</w>
할 텐데</w>
하이 라이트</w>
하 디</w>
프 라
펼쳐 지</w>
패 밀리</w>
튜 브</w>
토 크</w>
테러 리스트</w>
탱 고</w>
킬 머</w>
키 워</w>
크 크</w>
크 래
콜린 퍼스</w>
코 너</w>
컨 데</w>
카 페</w>
취 하</w>
축 복</w>
쳐 야</w>
청 순</w>
짝 짝</w>
지니 어스</w>
지 아</w>
중 점</w>
줄 께</w>
주제 가</w>
주 진모</w>
좀 비</w>
조 롱</w>
정치 인</w>
정신 없이</w>
정 준호</w>
정 원</w>
정 아</w>
점 대</w>
전 후</w>
재 벌</w>
장동 민</w>
장 비</w>
장 백지</w>
장 미
작 용</w>
일 병</w>
인디 언</w>
인 공
이 하
이 뤄
이 대로</w>
이 다
을 껄</w>
을 걸</w>
은 행</w>
으 악</w>
으 라면</w>
유 코</w>
유 머
유머 러스</w>
원 한</w>
원 스</w>
원 본</w>
워 터</w>
워 진다</w>
움직 임</w>
울 버린</w>
울 려</w>
우 상</w>
요한 슨</w>
왜 냐
와 이</w>
와 요</w>
와 나</w>
오 점</w>
오 감</w>
예 회</w>
연출 자</w>
연 락</w>
역겨 웠</w>
역겨 워</w>
여 긴</w>
양 키</w>
안드 로메
안드로메 다</w>
아 따</w>
씨 리</w>
심 함</w>
심 판</w>
신 뢰</w>
신 랑</w>
식 구</w>
시간 대</w>
시 인</w>
시 망</w>
슬 슬</w>
슬 링</w>
순간 순간</w>
솔 로</w>
손 꼽</w>
세 연</w>
성 질</w>
설 리</w>
설 득</w>
샤를 리즈</w>
생 전</w>
살 릴</w>
사 탕</w>
사 랑
비 트</w>
비 약</w>
브 라이언</w>
봣 네요</w>
본 데</w>
보 낼</w>
베 송</w>
법 사</w>
방 지</w>
발 리</w>
반 장</w>
박 물
박물 관</w>
밀 어
미사 일</w>
미 아</w>
무 협
무 원</w>
무 스</w>
무 모</w>
몰라 요</w>
모 스</w>
모 루</w>
명 절</w>
맥 락</w>
망 가
마 모루</w>
리 부트</w>
류승 룡</w>
디 언</w>
드 릅</w>
뒷 부분</w>
동 화책</w>
돌아 다니</w>
대 요</w>
다 더니</w>
니 까요</w>
놓 칠</w>
농 장</w>
노 다메</w>
낯 설</w>
나비 효과</w>
나 탈
나 른</w>
나 래</w>
끼 칠</w>
끼 쳤</w>
꾸 역</w>
껍 데기</w>
김 아
김 대
기대 치</w>
기 절</w>
그럴싸 하</w>
그 랜
귀 한</w>
굿 바이</w>
구로 사와</w>
괴 기</w>
과 대</w>
고마 워</w>
고 파</w>
경 찰
게리 온</w>
게 인</w>
게 이트</w>
걸 이</w>
걸 맞</w>
거슬 렸</w>
개 운</w>
강예 원</w>
갔 었</w>
감 점</w>
s o
s d
p o
on e</w>
n i
l l</w>
8 4</w>
.. ;</w>
.. )</w>
. ?
** **</w>
훔 치</w>
후 편</w>
후 레쉬</w>
획 기</w>
화 재</w>
호 주</w>
합 격</w>
한 선</w>
한 물
학 예회</w>
피 우</w>
피 어스</w>
프리 퀄</w>
풀어 냈</w>
폭 스</w>
편 성</w>
퍼 지</w>
파 탄</w>
특 색</w>
트 로
트 라</w>
토 비</w>
태 우</w>
킹 왕
킹왕 짱</w>
쿠 바</w>
코 비치</w>
침 대</w>
추 적</w>
최 수
총 기</w>
초 호</w>
초 한지</w>
처 지</w>
참 으</w>
찐 한</w>
쭈 욱</w>
지 수</w>
지 도
지 노</w>
준 상</w>
주 문</w>
조 장</w>
조 미</w>
젤 위거</w>
제시카 알바</w>
정 책</w>
정 준
정 식</w>
전 두
적 으로</w>
저 능
저능 아</w>
재 밋
장 선우</w>
장 구</w>
잔 치</w>
일 거</w>
인정 받</w>
이 어서</w>
이 빨</w>
이 라고</w>
이 따</w>
음 악
유 튜브</w>
워 할</w>
워 졌</w>
우 석</w>
오 오</w>
여 사</w>
여 명</w>
엑 스</w>
에 바
얻 어
어떨 지</w>
야쿠 자</w>
야 구
액 티
알려 진</w>
안 재
안 소니</w>
악 행</w>
아파 트</w>
아 리
싸 인</w>
시원 시원</w>
슴 다</w>
슬 플</w>
스 푼</w>
스 콜
스 며
손 잡</w>
소 외</w>
소 동</w>
세 이</w>
세 용</w>
세 심</w>
성 냥
성냥 팔이</w>
서 커스</w>
서 비스</w>
서 글
샤 말
샤말 란</w>
생명 체</w>
새 로울</w>
삼 성</w>
사 촌</w>
사 악</w>
사 납</w>
뻔 할</w>
비 포</w>
비 노
불러 일으키</w>
불 패</w>
불 명</w>
분 류</w>
부 성</w>
볼 려</w>
박진 영</w>
박시 후</w>
박 현지</w>
박 재
바이 올린</w>
밀 라
민 정</w>
미 련</w>
무지 하</w>
무가 내</w>
모자 이크</w>
모니 카</w>
모 시</w>
멀 미</w>
만드 신</w>
막 무가내</w>
마 사
렌 트</w>
레즈 비언</w>
레이 터</w>
떡 칠</w>
디 지
동 양인</w>
니콜 슨</w>
늘 려</w>
느 릿</w>
놀라 움</w>
놀 랄</w>
녹 음</w>
내 인생
남 상미</w>
남 겼</w>
날 수록</w>
끝내 준다</w>
끌 려</w>
꼬 이</w>
김 영
김 보성</w>
길 동</w>
기 지</w>
기 증</w>
극 도</w>
그리 스</w>
구 식</w>
교 양</w>
괴 롭</w>
곽 지민</w>
공 군</w>
고 사</w>
겨 라</w>
개 척</w>
개 구리</w>
강 했</w>
갈 아
갈 망</w>
각 본
ㅡㅡ ㅋ</w>
ㅠ ㅜ
ㅜㅜ ㅜ
ㅇㅅ ㅇ</w>
~~ !!!</w>
x x</w>
to p</w>
s h</w>
p er
k e</w>
d o
b g
a m</w>
S M</w>
B ad</w>
8 7</w>
6 7</w>
4 8</w>
3 2</w>
0000 0000
........ ........</w>
.,., .,.,
. <</w>
히 스</w>
희 진</w>
후 련</w>
황 후</w>
화 이트</w>
화 상</w>
호 연</w>
허 영
허 각</w>
해 설</w>
합 쳐</w>
할 매</w>
한 층</w>
한 구석</w>
플 렉</w>
프랑 스
폰 부스</w>
포 스트</w>
편 향</w>
페 미
티 스트</w>
트라 우마</w>
트 폰</w>
트 릭</w>
투 더</w>
터 널</w>
탱 크</w>
킹 콩</w>
크 기</w>
쿠엔 틴</w>
침 략</w>
추 상</w>
최수 종</w>
징징 대</w>
진 상</w>
지 리
지 긋
중 도</w>
조 지
조 여정</w>
전 무
재 해석</w>
장 예
장예 모</w>
잡 탕</w>
자 아내</w>
입 맛</w>
인 위</w>
인 간
이경 영</w>
이 영
이 모</w>
이 럴
이 득</w>
음 모
음모 론</w>
으 려다</w>
유부 녀</w>
유 준상</w>
유 니
운 적</w>
왠 만
올라 오</w>
올 려야</w>
올 드</w>
오 성</w>
영화 광</w>
영웅 주의</w>
영 역</w>
연 설</w>
역겨 움</w>
여지 껏</w>
여 섯</w>
여 라</w>
얼 리</w>
어우러 져</w>
어 게인</w>
액티 비티</w>
안 개</w>
아파 서</w>
아닙 니까</w>
아 르
쌍 벽</w>
싸 가지</w>
싱 크로</w>
십 니까</w>
심 금</w>
싫어 하</w>
신 발</w>
신 기
시 덥
시덥 잖</w>
스티븐 시걸</w>
스콜 세지</w>
스마 트폰</w>
스 튜
스 터
순 정</w>
수 학</w>
수 염</w>
수 녀</w>
쇼 킹</w>
송 윤아</w>
소수 자</w>
소 유진</w>
세 주</w>
서바이 벌</w>
생 일</w>
살아 갈</w>
사 위</w>
빼 앗
빌 린</w>
비노 쉬</w>
비 운</w>
비 둘
비둘 기</w>
브라 질</w>
브 랜
브 라</w>
보 삼</w>
버 려야</w>
배 틀</w>
배 제</w>
반 항</w>
반 점</w>
반 미</w>
바 사</w>
바 디</w>
미성 년자</w>
미 키</w>
문 채원</w>
무 한
무 죄</w>
무 명</w>
몰 려
모 범</w>
먹 여</w>
매 체</w>
맡 기</w>
맞 서</w>
말 코비치</w>
마이 너</w>
린 다는</w>
리 차
리 슨</w>
리 들리</w>
르 트</w>
루 지</w>
로 스</w>
러 드</w>
래 야</w>
라 는데</w>
따라 올</w>
디 지</w>
되 돌</w>
데 도</w>
더 운</w>
더 구만</w>
대 답</w>
당 함</w>
답 습</w>
단 조</w>
다녀 왔</w>
니 라</w>
니 니</w>
놔 두</w>
네 스</w>
내인생 의</w>
남 녀
날 린</w>
나 카
나 대</w>
꺼 버린</w>
김창 완</w>
김정 은</w>
김윤 석</w>
김수 미</w>
김 준호</w>
김 옥빈</w>
김 두
그래 야</w>
그 토록</w>
권 총</w>
구 속</w>
구 마</w>
과 분</w>
골 라</w>
곤 란</w>
고 소</w>
고 리
경 호</w>
겠 다는</w>
거 늘</w>
객관 적으로</w>
강 우석</w>
감 격</w>
간 절</w>
가르 침</w>
가 득
~ ♡</w>
u p</w>
th is</w>
t r
g oo
bb bb
G M</w>
8 6</w>
8 2</w>
. ~</w>
. !!!</w>
+_ +</w>
! ♥</w>
훌 쩍</w>
홍 수
호 호</w>
혈 압</w>
헤 이</w>
해 집니다</w>
해 줘서</w>
함 축</w>
한 지민</w>
하루 카</w>
하 찮</w>
핑 크</w>
퍼 센트</w>
파이 터</w>
파이 널</w>
파 란
특 정</w>
특 별
테 스크</w>
타 쿠
키아 누
크 라
퀀 스</w>
쿼 터</w>
캠 프</w>
출 생</w>
청 기</w>
천 히</w>
차 갑</w>
짜 장면</w>
짜 맞추</w>
진 서</w>
진 미</w>
지 울</w>
중 히</w>
줄 줄</w>
주 식</w>
주 변
주 로</w>
주 네</w>
죄 악</w>
존 쿠삭</w>
절 실</w>
전두 환</w>
재 기</w>
장 황</w>
잘 생김</w>
작 살</w>
자 이언
자 신감</w>
자 란</w>
잊 어
일 치</w>
인 력</w>
이제 훈</w>
이상 우</w>
이 유우</w>
이 서진</w>
이 런지</w>
을 수록</w>
으 실</w>
유 재석</w>
유 인
위 선</w>
월 화</w>
원 도</w>
울 린</w>
외 계</w>
와 인</w>
올 릴</w>
오 정세</w>
오 열</w>
오 가</w>
역 꾸역</w>
업 자</w>
어 어
어 들</w>
약 했</w>
애 환</w>
애 비</w>
알 렉스</w>
알 렉
아오 이유우</w>
아름다 워요</w>
아가 씨</w>
아 녀</w>
아 낌
쓰러 지</w>
싸 이</w>
싱 거운</w>
시 퀀스</w>
스 톱</w>
스 오피스</w>
스 물</w>
술 사</w>
순 정
수 도</w>
쇼 크</w>
소 심</w>
소 린지</w>
세 스</w>
세 르
서 리</w>
생 긴다</w>
생 겼
산 뜻</w>
사토 시</w>
사 업</w>
빠 르
비슷 비슷</w>
비 웃</w>
비 우</w>
부 처</w>
봉 전</w>
보 입니다</w>
보 네</w>
보 너스</w>
변 질</w>
벨 라</w>
벗 어
범 벅</w>
버 무
버 거</w>
배 우
받아 들
반가 웠</w>
박하 선</w>
박 스오피스</w>
바꿔 서</w>
밑 바닥</w>
밍 밍</w>
묻 히</w>
문 소리</w>
무한 도전</w>
무 라</w>
무 덤</w>
무 고</w>
몸 짓</w>
몰 르</w>
명 사</w>
면 상</w>
맥 그리
맥그리 거</w>
매 튜</w>
맛 보</w>
마 스크</w>
마 르</w>
리얼 리즘</w>
리 플</w>
루 치</w>
루 시</w>
롯 데</w>
로버 트
로 한</w>
레 드
란 드</w>
뛰어 다니</w>
되 새
돈 나</w>
데 려다가</w>
댄 서</w>
당 기</w>
다이 빙</w>
다 물</w>
다 던</w>
놀라 웠</w>
네이 션</w>
났 었</w>
남 아도</w>
날 아가</w>
나 인</w>
꾸 역꾸역</w>
꼬 집</w>
꼬 박</w>
김현 주</w>
김주 혁</w>
김윤 진</w>
김민 준</w>
김대 희</w>
김 유
기다 림</w>
기다 린</w>
기 스</w>
기 념
글 라스</w>
그로 테스크</w>
그 레</w>
규 모</w>
귓 가</w>
교 도
관 우</w>
관 광</w>
곽 부성</w>
과 한</w>
고 추</w>
고 아라</w>
경 고</w>
격 투기</w>
게리 올드만</w>
건 전</w>
거 참</w>
갱 스터</w>
강 원도</w>
감 추</w>
갈 기</w>
가르 치</w>
가 물
~~~~ ~~~~</w>
~ .</w>
w or
u m
s m</w>
bg m</w>
b e
^^ ~</w>
O D</w>
B GM</w>
???????? ????????
9 6</w>
9 4</w>
9 2</w>
6 7
199 9</w>
12 3</w>
... ;;</w>
. ;;;</w>
. /
. -_-</w>
히스 레저</w>
흘 린</w>
환 희</w>
화 살</w>
화 보</w>
홍 경
홈 즈</w>
협 박</w>
헤 이
허 리</w>
핫 세</w>
할 려는</w>
한 별</w>
하 난</w>
핑 계</w>
프리 먼</w>
프 스키</w>
품 격</w>
폴 라</w>
페미 니즘</w>
트 루
트 롤</w>
튀어 나오</w>
토 요일</w>
키아누 리브스</w>
콩 가루</w>
코 리아</w>
카메 오</w>
칩 니다</w>
칙 칙</w>
취 해</w>
춰 진</w>
출 시</w>
초 대</w>
천 천히</w>
참 패</w>
찰 리
차 려</w>
진 웅</w>
지 향</w>
지 쳐</w>
주변 인</w>
주 저</w>
주 려</w>
주 구
주구 장창</w>
종 결</w>
존 슨</w>
조 한선</w>
조 쉬</w>
조 디
조 니</w>
제니 퍼
제 자</w>
제 격</w>
정 선
정 녕</w>
절 실히</w>
재 생</w>
장 애인</w>
작 성</w>
입 양</w>
일으 킨</w>
이지 아</w>
이자 벨</w>
이미 연</w>
이미 숙</w>
이 질감</w>
이 중
이 안</w>
이 룬</w>
이 런
이 곳</w>
은 밀</w>
으 루</w>
윤 진서</w>
유 오성</w>
유 오</w>
유 아인</w>
유 선</w>
월 요일</w>
워 쇼
워쇼 스키</w>
울 부
우주 선</w>
우 먼</w>
왤 캐</w>
왠만 해서</w>
올리 비아</w>
온 통</w>
오래 간만</w>
오 컬트</w>
오 션
오션 스</w>
여 럿</w>
에 잇</w>
에 리카</w>
언젠 간</w>
어 땠
어땠 을까</w>
애 쓴</w>
애 서</w>
애 새끼</w>
애 미</w>
애 교</w>
알 맞</w>
안젤 리나</w>
안 전</w>
아이 템</w>
아아 아아</w>
아메리 카</w>
아 랫</w>
심 코</w>
식 어</w>
식 겁</w>
시켜 야</w>
시 질</w>
승 전</w>
스 페이스</w>
스 승</w>
숙 제</w>
수 식어</w>
소 송</w>
성 욕</w>
생 길</w>
상관 없이</w>
상 사</w>
삽 질</w>
산 다는</w>
사 관</w>
사 고
뿌 려</w>
빠르 기</w>
비틀 즈</w>
비 긴</w>
블 럭</w>
불 법
분 신</w>
봣 던
복 수
보 람</w>
병 기</w>
별 론데</w>
베 스</w>
벗 어난</w>
범 작</w>
번 방</w>
배 신감</w>
발 칙</w>
발 성</w>
박진 희</w>
박용 우</w>
박 준
박 력</w>
바람 둥이</w>
바 퀴</w>
미 지</w>
무 심코</w>
무 당</w>
목 숨
모 로우</w>
명 장</w>
명 분</w>
명 감독</w>
면 은</w>
메이 저</w>
매 매</w>
망 정</w>
만든 다고</w>
만 한</w>
마 조
마 돈나</w>
리 처
루 스</w>
려 구요</w>
레 즈</w>
레 나</w>
람 쥐</w>
랄 라</w>
떠 서</w>
떠 날</w>
딸 아이</w>
따라 잡</w>
돌아 와</w>
돌아 간</w>
돌 프</w>
돌 려서</w>
댄 다</w>
대 회</w>
다이 스</w>
다가 가</w>
다 행
다 짐</w>
다 람쥐</w>
다 란</w>
능 력자</w>
눌 러</w>
눈 앞</w>
눈 살</w>
노 라</w>
노 고</w>
넘 어서</w>
넘 버</w>
내 미</w>
내 게
남 아</w>
날 개</w>
난 이</w>
꾸 밈
꽃 미남</w>
김소 연</w>
김 청기</w>
김 원
길 거리</w>
긴 박감</w>
긴 급
긴급 조치</w>
기타 노</w>
기 막힌</w>
그럴듯 한</w>
그랜 트</w>
국 민
교도 소</w>
괜 춘
과 자</w>
공 평</w>
공 장</w>
공 자</w>
공 영</w>
공 드리</w>
고 조</w>
고 대</w>
경 상도</w>
결 정
결 여</w>
건 드리</w>
거 미</w>
거 라</w>
개 똥
개 고생</w>
같 잖</w>
강 철</w>
강 소라</w>
간 이</w>
가 자</w>
가 인</w>
가 나</w>
ㅠㅠㅠㅠ ㅠㅠ</w>
ㅜㅜㅜㅜ ㅜㅜㅜㅜ
ㅇ ㅋ</w>
t e</w>
s u
s n
m o
m e
g e</w>
c h</w>
OO D</w>
I t</w>
@ @</w>
? !
>_ <</w>
> _</w>
3 1</w>
199 8</w>
. -
-- ;;</w>
- )</w>
히 든</w>
희생 자</w>
희 수</w>
흔 들
홍 련</w>
호 모</w>
현대 판</w>
현 경</w>
할 린</w>
할 리</w>
한 잔</w>
한 부</w>
하 모니</w>
필 모
프 랭크</w>
폭 동</w>
포 커스</w>
포 즈</w>
폐 인</w>
평 등</w>
펼 쳐</w>
페 인</w>
패 틴
패 션
파고 드</w>
티 티</w>
트 니</w>
툭 튀</w>
투 모로우</w>
투 명</w>
털 리</w>
탐 험</w>
타 분</w>
클리 프</w>
큐 라</w>
콩 콩</w>
친 근</w>
추 운</w>
최 종</w>
최 신</w>
총 싸움</w>
초 중</w>
천 지</w>
챔 피
찬 다</w>
차 이
쪼 금</w>
짱 깨</w>
집 합</w>
질 려</w>
진 데</w>
직 장인</w>
직 설</w>
지만 은</w>
지 친</w>
지 지
지 날수록</w>
줄 기</w>
주 소</w>
종 편</w>
존 트라볼타</w>
조 진웅</w>
조 안</w>
정 희</w>
정 기</w>
전 원</w>
전 용</w>
저 럴</w>
저 격</w>
재 수</w>
작 품
자연 스레</w>
인 시
인시 디
인시디 어스</w>
인 내
이 이</w>
이 르</w>
이 롭</w>
이 너</w>
은 채</w>
으리 라</w>
으 휴</w>
윤 은혜</w>
유 학</w>
유 방</w>
유 리
유 루</w>
윌리 엄</w>
위 협</w>
워 도</w>
울부 짖</w>
울 렸</w>
우 베
우베 볼</w>
우 물</w>
우 마
우마 서먼</w>
욕 했</w>
옮 겨</w>
올 인</w>
오래 가</w>
오락 물</w>
오 광
오광 록</w>
영 점</w>
영 리</w>
연 평
연 발</w>
연 대기</w>
에바 그린</w>
에 어
업 그레이드</w>
어 트</w>
어 렴
암 것
알 리
악 녀</w>
아이 언</w>
아 하</w>
쏟 아지</w>
실 베
신 작</w>
시 한부</w>
시 울</w>
시 노</w>
시 궁
시궁 창</w>
시 공</w>
스피 어</w>
스텔 론</w>
스 폰
스 코
숫 자</w>
숨 기</w>
순정 만화</w>
수 수</w>
송 이</w>
송 새벽</w>
소 식</w>
세 워</w>
세 금</w>
서 라도</w>
상 인</w>
살아 온</w>
사이 드</w>
빌 어
비 비</w>
비 로
비 꼬</w>
블 러드</w>
브 란도</w>
불 신</w>
분 열</w>
부 딪
보 고서</w>
병 대</w>
별 생각</w>
변 함
벌 어
밸 런스</w>
배 워라</w>
방송 국</w>
발 정</w>
발 가락</w>
반 하</w>
박 혀</w>
박 한별</w>
박 지
바꿔 야</w>
바 쁘</w>
바 래요</w>
미 지근</w>
미 나
무 사</w>
목숨 걸</w>
모 였</w>
명 백</w>
메이 트</w>
메 가</w>
멍 하니</w>
먹 방</w>
맷 데이먼</w>
맥 아담스</w>
망 가진</w>
만드 셨</w>
만 장</w>
마 법사</w>
리 지</w>
리 더</w>
류승 완</w>
루 비</w>
로 리</w>
로 랑</w>
려 도</w>
레인 져</w>
레이 저</w>
레 어</w>
레 스트</w>
레 벨</w>
러 셀
러 브
디지 털</w>
드러 난</w>
둔 갑</w>
동 성</w>
돈 다</w>
독 일
도 배</w>
데이 즈</w>
더 이다</w>
대 서</w>
당 당히</w>
달라 지</w>
단 면</w>
니콜 라스
니다 요</w>
눈부 신</w>
눈 시울</w>
누 굴</w>
노 릇</w>
냉 소</w>
날 까</w>
낚 일</w>
나 위</w>
끝 장</w>
깨 어나</w>
깔 려</w>
김아 중</w>
김 진
김 병
김 대중</w>
긴 말</w>
기 름</w>
공산 당</w>
고 른</w>
경 각
경각 심</w>
게 리</w>
겁 나게</w>
걸 림</w>
갑 툭튀</w>
갑 시다</w>
간 다고</w>
가물 가물</w>
가 면</w>
ㅎ ㅎ
ㅋㅋ ㅋㅋㅋㅋ</w>
z z</w>
or e</w>
oooo oooo
m c</w>
i r
g a
en t</w>
d o</w>
bor ing</w>
ar e</w>
_ -</w>
S BS</w>
I M
G OOD</w>
C F</w>
B est</w>
B E
?? ?
= =
3 4</w>
123 45
., .</w>
. ,,
. '</w>
-_- ;;;</w>
힘 든데</w>
히 히
휴 대
휴대 폰</w>
훗 날</w>
후 보</w>
후 무</w>
현 진</w>
헨 리</w>
허 우
허 영</w>
했 어야</w>
해리 슨</w>
해 적</w>
해 당</w>
해 군</w>
합 작</w>
할 로
할 라고</w>
한 반도</w>
한 류</w>
하 트
하 드
필모 그래피</w>
프리 드</w>
표 출</w>
페 넬
페넬 로
패틴 슨</w>
파이 트</w>
파 트</w>
티 켓</w>
트 만</w>
트 렌
통 제</w>
통 속</w>
테 마</w>
터 클</w>
터 져서</w>
태 극
클로 즈
클로즈 업</w>
큰 일</w>
쾌 락</w>
카 락</w>
친 척</w>
친 일</w>
친 다는</w>
최 상</w>
천 정
천정 명</w>
진 우</w>
진 다고</w>
지켜 라</w>
지 오</w>
지 방</w>
지 난
중 근</w>
준 수</w>
주 류</w>
주 년</w>
주 걸
주걸 륜</w>
졸 이</w>
조지 클루니</w>
조 음</w>
정 은지</w>
정 경호</w>
점 줄</w>
전무 후무</w>
적 자</w>
쟁 쟁</w>
장 가</w>
잡 힌</w>
잔 상</w>
입 체</w>
입 스</w>
인내 력</w>
인 하</w>
이 화
이 쁜데</w>
음 성</w>
을 래</w>
은 유</w>
유 년</w>
울 까</w>
운 영</w>
우 어</w>
요 세</w>
요 괴</w>
요 거</w>
올 바른</w>
올 까</w>
오 사
예 지원</w>
옆 집</w>
염 병</w>
연평 해전</w>
연 예</w>
여 부</w>
여 느</w>
엑 스파
엑스파 일</w>
어 따</w>
양 념</w>
약 함</w>
야마 카시</w>
애 써</w>
암것 도</w>
알 포인트</w>
안 중근</w>
안 달</w>
안 겨준</w>
악 어</w>
아름다 워서</w>
아름다 우</w>
써 본다</w>
써 니</w>
십 쇼</w>
실 하</w>
실 천</w>
식 인</w>
식 간</w>
시켜 라</w>
시 무시</w>
시 경</w>
승 천</w>
스펙 터클</w>
스트리 트</w>
스웨 덴</w>
스 티</w>
스 머
스머 프</w>
스 넌</w>
스 나
슈퍼 스타</w>
수 능</w>
소 유
소 금</w>
세 뇌</w>
선 장</w>
생 물</w>
새 로움</w>
상 품</w>
상 급</w>
삼 각</w>
산 드라
사이 프리드</w>
사기 극</w>
사 지</w>
비로 소</w>
비 호</w>
비 열</w>
브로 스넌</w>
브레이 크</w>
불 타</w>
분 간</w>
부 천</w>
볼 라</w>
볼 걸</w>
복 귀</w>
보 태</w>
변함 없</w>
벨 트</w>
벨 루치</w>
베이 터</w>
버 디</w>
백 설</w>
배 트</w>
배 워야</w>
발 버
반 쪽</w>
반 짝</w>
박 하</w>
박 이</w>
바이 블</w>
바라 본</w>
바 라기</w>
바 둑</w>
바 가지</w>
무 시무시</w>
무 문</w>
무 관</w>
멕 시
메 가
머리 카락</w>
매 료</w>
매 드</w>
매 니
매 길</w>
맞 춤</w>
맛 없</w>
막 말</w>
막 막</w>
마 더</w>
마 당</w>
리 타</w>
련 다</w>
러셀 크로우</w>
뜻 밖</w>
땡 기</w>
들어 감</w>
두근 거리</w>
될 까요</w>
동 요</w>
돌아 볼</w>
도 우</w>
던 질</w>
더 군
담 당</w>
달 래</w>
다 카
다 인</w>
느 림</w>
느 려</w>
노 바</w>
노 래
노 란</w>
노 노</w>
넘 침</w>
넘 나
내 용
남 겨진</w>
낚 시질</w>
낙 태</w>
나 타</w>
나 선</w>
끌어 내</w>
꺼 이</w>
깨 지</w>
기 이</w>
기 물</w>
기 교</w>
귀여 우</w>
구 여</w>
교 체</w>
광 대</w>
관 찰</w>
과 음</w>
고리 타분</w>
계 급</w>
경 향</w>
검 색
거 칠</w>
개똥 철학</w>
개 재</w>
강 정</w>
강 의</w>
강 수연</w>
강 남</w>
감 우성</w>
각 외</w>
가 위
가 두</w>
ㅆㄹ ㄱ</w>
~~ ~^^</w>
v er
t h</w>
p d</w>
ou t</w>
n ot</w>
il l</w>
f or</w>
f e</w>
d y</w>
bb bb</w>
ar t</w>
al l</w>
^- ^
O V
> .<</w>
= _
3 9</w>
199 7</w>
1 4
/ /</w>
... !</w>
희 열</w>
흥 겹</w>
흘 려</w>
홍 철</w>
헷 갈
헤 드</w>
허영 심</w>
했 으며</w>
해리 슨
해리슨 포드</w>
한 판</w>
한 창</w>
한 단</w>
하트 넷</w>
핀 처</w>
플 렉스</w>
퓨 전</w>
품 달</w>
포 칼
포칼 립
포칼립 토</w>
포 먼
포먼 스</w>
포 레스트</w>
평 온</w>
퍼 포먼스</w>
파란 만장</w>
파 더</w>
틸 러</w>
티 라노</w>
특별 히</w>
트 루</w>
통 찰</w>
톡 톡</w>
테 일러</w>
테 랑</w>
태극 기</w>
태 어났</w>
크리스 찬
크 릿</w>
크 레
퀴 즈</w>
코 미</w>
켈 리</w>
케이 트
카 우
치 매</w>
치 도</w>
충 실하</w>
추 모</w>
총 각</w>
쳐 지</w>
체 류</w>
청 아</w>
청 소
철 철</w>
챙 피</w>
창 민</w>
참 히</w>
착 오</w>
차 례</w>
질 이</w>
진 전</w>
진 장</w>
지상 주의</w>
지 하</w>
지 니</w>
줬 었</w>
조 쉬
졌 었</w>
져 도</w>
제라 블</w>
제라 드</w>
제 이</w>
제 길</w>
정 훈</w>
정 지</w>
정 준영</w>
정 무문</w>
절 규</w>
장 화</w>
장 이</w>
장 식</w>
장 고</w>
자이언 트</w>
자 칭</w>
자 부</w>
일 류</w>
인 천</w>
인 대</w>
이소 연</w>
이동 진</w>
이 지</w>
이 장
이 불</w>
이 내</w>
이 끄</w>
이 기심</w>
음 산</w>
을 라나</w>
으 이
유 료</w>
우 빈</w>
요 청</w>
요 정</w>
요 시</w>
옮 기</w>
올 립니다</w>
올 렸</w>
오리 엔
오 후</w>
오 염</w>
오 연
예 외</w>
예 감</w>
염 정아</w>
연 속
역 동</w>
에 여</w>
에 밀리</w>
업 적</w>
어리 버리</w>
앤 드류</w>
애 청자</w>
애 요</w>
애 국</w>
알아 듣</w>
안 함</w>
악 한</w>
아름다 울</w>
아 포칼립토</w>
아 티스트</w>
아 들
쓸 모
썸 머</w>
시 크릿</w>
시 시
시 네</w>
스카 이</w>
스나 입스</w>
슐 리</w>
순 식간</w>
순 서</w>
수 박</w>
수 면</w>
송 일
소 위</w>
세 세</w>
성 시경</w>
성 무</w>
설 계</w>
선 교</w>
석 천</w>
서 유리</w>
서 유기</w>
서 영희</w>
서 관</w>
샤 워</w>
생 히</w>
생 생히</w>
상 외</w>
살 해</w>
사 형
쁘 다</w>
뽀 뽀</w>
뺨 치</w>
빙 의</w>
비 평</w>
비 스트</w>
붕 가</w>
불법 체류</w>
불 렀</w>
불 가
볼 래</w>
보여 요</w>
보 고
변 했</w>
베이 비</w>
베 테랑</w>
베 리
베 꼈</w>
번 에</w>
벅 차</w>
배틀 로얄</w>
배 기</w>
밤 새</w>
반 가운</w>
바 티
바 란</w>
바 뀔</w>
미 키
미 제라블</w>
미 생</w>
물 중</w>
묻 힌</w>
몽 골</w>
몰 랐
모 조리</w>
모 음</w>
모 세</w>
모 던</w>
명 탐정</w>
멜로 디</w>
멘 토</w>
머 님</w>
맞춰 서</w>
망쳐 놨</w>
망 한다</w>
망 각</w>
말 년</w>
만 치</w>
마이 갓</w>
마 주
마 력</w>
릴 리</w>
루 카스</w>
료 코</w>
라 네</w>
들 여서</w>
두 세</w>
동 물
돌 고래</w>
도 서관</w>
더군 다나</w>
더 슨</w>
더 럽
대 편</w>
대 성</w>
대 극</w>
달 린다</w>
다니 엘
다 름
니 모</w>
능 청</w>
늘어 진다</w>
느껴 집니다</w>
누 워서</w>
누 드</w>
놓 쳤</w>
놀 리</w>
노 트
노 이</w>
노 소</w>
노 린</w>
냐 는</w>
냉 혹</w>
내 부</w>
남녀 노소</w>
나이 더</w>
나오 코</w>
나무 랄</w>
나 빠
나 감</w>
끌 려
꺼 지</w>
깬 다</w>
김혜 선</w>
김 고은</w>
기념 비</w>
기 초</w>
기 생</w>
기 쁘</w>
기 말</w>
기 리
기 력</w>
금 성무</w>
근 친</w>
그럴 싸</w>
그 루</w>
궁 극</w>
교 통
교 묘</w>
공 무원</w>
고 도</w>
계 절</w>
견 줄</w>
견 딜</w>
건 축</w>
건 축
건 너</w>
건 너
거침 없이</w>
감 동
갈 피</w>
갇 혀</w>
간 절히</w>
가 필드</w>
♥♥♥♥ ♥♥♥♥
~~~~ ~~~~~</w>
y s</w>
s p
o p
o k</w>
n d</w>
g o
an t</w>
a t</w>
a l</w>
Y ou</w>
V OD</w>
S N
O P</w>
???? ?</w>
19 70</w>
0 4</w>
0 1</w>
................ ..</w>
........ .......</w>
.. ??</w>
!!!!!!!! !!!</w>
!! ^^</w>
힐 러리</w>
흘러 간다</w>
흔 드</w>
후 려
효 과음</w>
회 자</w>
회 의</w>
회 수</w>
황 우
황우 슬
황우슬 혜</w>
화 났</w>
홍 어</w>
홍 길동</w>
형 기</w>
현 주</w>
혁 신</w>
허 락</w>
햄 버거</w>
해 바라기</w>
한 낱</w>
하 튼</w>
하 녀</w>
하 급</w>
피터 팬</w>
프렌 즈</w>
프 라</w>
편 도</w>
퍼 시
퍼시 픽</w>
팬 텀</w>
판 빙빙</w>
틀 어</w>
툭 툭</w>
퇴 폐</w>
통 틀어</w>
통 틀</w>
톰 하디</w>
톨 릭</w>
토 하</w>
토 로</w>
택 연</w>
태 희</w>
타 임
타 이</w>
타 격</w>
큽 니다</w>
클 레이</w>
코 피</w>
코 끼리</w>
치 우
충 돌</w>
추 격자</w>
초 저</w>
체 인지</w>
청 불</w>
청 각</w>
천 포</w>
천 안</w>
챔피 언</w>
찾아 왔</w>
참 담</w>
찬 성</w>
징 징</w>
질 렀</w>
지나 쳤</w>
지 마
지 르르</w>
중 독자</w>
중 국어</w>
줄 까</w>
줄 게</w>
준 다면</w>
좋 아</w>
조 사</w>
조 미
조 마조
제이 슨
제 타</w>
제 주도</w>
정 직</w>
정 상인</w>
정 려
정려 원</w>
정 교</w>
전 쟁
저 걸</w>
장 학
장 교</w>
잡 혀</w>
자 화상</w>
입 술</w>
일 진</w>
이래 야</w>
이 창
이 용
이 빠이</w>
이 겼</w>
이 건
을 지도</w>
윤제 문</w>
유 투</w>
유 전자</w>
워 스트</w>
운 드
운드 트랙</w>
우스 꽝</w>
우디 앨런</w>
우 에
왔 다
왔다 갔
왔다갔 다</w>
오 픈</w>
오 시
오 스</w>
예 쁘다</w>
예 기</w>
였 음
염 방</w>
연속 극</w>
여 학생</w>
여 백</w>
엘리 베이터</w>
어쩌 다가</w>
어려 워</w>
어 염</w>
어 선</w>
앨 범</w>
암 만</w>
악 령</w>
아이 덴
아이덴 티티</w>
아닐 까요</w>
아까 우</w>
아 시
아 려</w>
싸 대</w>
실 로</w>
신 혜</w>
신 비
시 마</w>
시 달리</w>
시 내</w>
승 질</w>
슬 립</w>
스티 브
스러 우</w>
스 페이
스 틸러</w>
스 민</w>
쉐 프</w>
수 호</w>
수 호
소림 사</w>
소 지</w>
소 릴</w>
세 밀</w>
성 근</w>
샤이 니</w>
샤 크</w>
새 론</w>
삼 촌</w>
산드라 블록</w>
사무 엘</w>
사 운드트랙</w>
사 색</w>
빨 라서</w>
비 춰</w>
비 에르</w>
브리 짓</w>
불 친절</w>
부 들</w>
부 드러운</w>
봐 선</w>
보 도</w>
벤 쳐</w>
베 트</w>
배 달</w>
배 끼</w>
방 사
방 대</w>
발 사</w>
발 달</w>
반 기</w>
박시 환</w>
바 위</w>
바 스코</w>
바 쁜</w>
바 꿨</w>
밀라 요보비치</w>
민 중</w>
민 영</w>
미 술
미 미</w>
미 디어</w>
미 덕</w>
문 란</w>
못 난이</w>
모 리
모 레
모 래</w>
모 녀</w>
며 느리</w>
메 디
머 금</w>
매 염방</w>
말 론</w>
마 의</w>
링 컨</w>
리 즈
리 자</w>
리 우</w>
로드리게 즈</w>
려 던</w>
런 트</w>
라 디오
뛴 다</w>
떨어뜨 린다</w>
따라 간다</w>
따 질</w>
디자 이너</w>
디 다</w>
디 게</w>
드 팔마</w>
드 렸</w>
뒷 이야기</w>
두려 워</w>
두 룩</w>
될 수록</w>
됐 었</w>
동 포</w>
동 정
동 굴</w>
돌이 켜</w>
도 발</w>
도 라</w>
도 달</w>
데려 가</w>
던 져
더러 움</w>
더 라는</w>
댄 싱</w>
대 소</w>
대 도</w>
대 견</w>
대 강</w>
당 위</w>
당 께</w>
달라 졌</w>
다 치</w>
다 우
다 뤘</w>
다 냐</w>
닉 스</w>
느 라고</w>
눈 꼽</w>
네 버</w>
내 주</w>
내 리
낭 패</w>
남 한</w>
남 이</w>
남 여</w>
남 북</w>
난 다고</w>
나 락</w>
나 다</w>
나 간다</w>
끊 이</w>
꾸 미</w>
꽃 비</w>
꼽 힐</w>
깎 아내리</w>
김민 정</w>
김 우빈</w>
김 사랑</w>
기 어
기 립</w>
기 능</w>
극 우</w>
그리 도</w>
그 은</w>
권 투</w>
권 장</w>
궁 합</w>
군 분투</w>
구 현</w>
교통 사고</w>
공 백</w>
공 대</w>
골 라서</w>
고 군분투</w>
경 주</w>
결 승전</w>
겠 어요</w>
검색 어</w>
건 졌</w>
거 북
거 꾸
개 무</w>
강 용석</w>
감 회</w>
★★ ★★
~ ^</w>
u st</w>
u r
bb b</w>
b y</w>
a c
W h
T o
T H
RE C</w>
O st</w>
O U
N O</w>
B ut</w>
> ></w>
9 11</w>
6 8</w>
5 9</w>
5 5</w>
1 7
1 1
.. ,</w>
.. '</w>
, ..</w>
!!!!!!!! !!!!!</w>
회 의원</w>
황정 음</w>
화 가</w>
홍경 인</w>
홍 석천</w>
홉 킨스</w>
홀 딱</w>
혼 합</w>
헤 어진</w>
해서 인지</w>
해 병대</w>
해 맑</w>
할로 윈</w>
한 채영</w>
하 치</w>
하 느
하느 님</w>
피 닉스</w>
플 라
풍 광</w>
풋 이</w>
푸 하하</w>
표 지</w>
포 로</w>
평 점
폄 하</w>
페넬로 페</w>
페 이</w>
팽 이</w>
팡 질
팡질 팡</w>
파 커</w>
파 렐</w>
틸 다</w>
특 공대</w>
통 곡</w>
토 토</w>
토 마
템 포</w>
텐 츠</w>
테 레
턱 없이</w>
터 스</w>
터 맨</w>
태 극</w>
타 케
타 리</w>
타 기</w>
키 이라</w>
크리스찬 베일</w>
코 폴라</w>
코 더</w>
컴 백</w>
컬 러</w>
컨 대</w>
커 다란</w>
캐 미</w>
캐 리
카 펜
추 하</w>
초 짜</w>
체 로</w>
첨 단</w>
천 상</w>
책임 감</w>
찰리 채플린</w>
찰 스</w>
차 려라</w>
찌푸 리</w>
찌 질이</w>
찌 꺼
찌꺼 기</w>
쯔 쯔</w>
쫄 딱</w>
징 가</w>
집 트</w>
지켜 야</w>
지겨 움</w>
지 매</w>
지 망</w>
지 간</w>
증 언</w>
줄리 아
줄리아 로버츠</w>
죽 여야</w>
죽 여도</w>
종 교인</w>
졸 림</w>
조디 포스터</w>
조 타</w>
제 트</w>
정 자</w>
정 이건</w>
정 극</w>
절 친</w>
전 직</w>
전 라</w>
전 광
저 학년</w>
장학 우</w>
장 엄</w>
장 대소</w>
자 동</w>
자 다</w>
자 나</w>
일 성</w>
일 기
이태 임</w>
이루 어진</w>
이 집트</w>
이 요</w>
이 스트</w>
이 뭐
이 국</w>
의 의</w>
응 징</w>
음 란</w>
유부 남</w>
유 죄</w>
위 엄</w>
원 장</w>
웃 길
운 서</w>
우 우
요 가</w>
외 우</w>
올리 버</w>
오 호</w>
오 마이갓</w>
오 마</w>
엿 같</w>
연 찮</w>
연 석</w>
역 경</w>
여성 부</w>
여 행
여 잔</w>
여 비</w>
여 균
여균 동</w>
에 고</w>
없 음</w>
얽 히</w>
어지 러
어렴 풋이</w>
어 르
어르 신</w>
어 낸</w>
야 야
앤 더슨</w>
애 쉬
알 라</w>
안 보</w>
아이 스</w>
아나 운서</w>
아 자니</w>
아 씨</w>
심 플</w>
신 소
신 데</w>
신 가</w>
시 초</w>
습 격</w>
슬 레이터</w>
슬 랩
슬랩 스틱</w>
스파 르
스 키
스 러</w>
숨 막히</w>
순 환</w>
수 퍼</w>
수 출</w>
수 천</w>
수 년</w>
속 터지</w>
속 상
소 중히</w>
소 시</w>
소 망</w>
세 자</w>
성 호</w>
성 별</w>
성 과</w>
선 영</w>
선 라이즈</w>
서 구</w>
샤 론</w>
생 산</w>
생 동감</w>
상 술</w>
상 기</w>
사 투</w>
사 세요</w>
사 벽</w>
쁩 니다</w>
빼 먹</w>
비 전</w>
분 야</w>
분 별</w>
부 제</w>
봣 엇
봐 두</w>
본 연</w>
본 래</w>
복 습</w>
보 트</w>
벌 려</w>
버 킷</w>
버 원</w>
배 급</w>
방 구</w>
발 하</w>
발 킬머</w>
반 데
반데 라스</w>
박시 연</w>
박상 민</w>
박 장대소</w>
박 꼬박</w>
박 근
바 르
바 닷
밋 기</w>
민 수</w>
민 간
민간 인</w>
미니 언</w>
미 켈
미 침</w>
미 오</w>
무서 워하</w>
무 상</w>
무 법
무 민</w>
무 력</w>
몹 시</w>
모자 르</w>
모자 람</w>
메 릴
메릴 스트립</w>
말 까</w>
만 족
만 져</w>
만 든지</w>
린 데</w>
린 다고</w>
리 리</w>
르 네
류 층</w>
로 지</w>
렸 다</w>
레 미제라블</w>
러시 아
러 블리</w>
래 서</w>
라 운드</w>
라 디오</w>
라 던데</w>
떠 드</w>
떠 났</w>
때 묻</w>
따라 오</w>
듬 뿍</w>
들어 와서</w>
들어 와</w>
들어 맞</w>
드릴 게요</w>
드 려</w>
뒷 맛</w>
두 서
두 산</w>
동 수</w>
돌려 주</w>
돌 란</w>
독 보</w>
도 질</w>
도 신</w>
덴 젤
데 로</w>
덩 달</w>
던 트</w>
덕 지</w>
더 구나</w>
대 장
대 위</w>
대 우</w>
대 명사</w>
대 대</w>
당 첨</w>
달라 진</w>
다 크
다 니까</w>
니콜라스 케이지</w>
느껴 진</w>
느껴 져</w>
놀 음</w>
놀 아나</w>
논 스톱</w>
노트 북</w>
넘어 갈</w>
넘 버원</w>
널 리</w>
낮 춰야</w>
남 궁
날 씨</w>
난 장판</w>
나탈 리</w>
나 니아</w>
나 고</w>
끝 없이</w>
끌 려서</w>
끈 끈</w>
꽥 꽥</w>
꼬 박꼬박</w>
꼬 꼬마</w>
깔 깔
까 말까</w>
김지 운</w>
김동 욱</w>
김 효진</w>
김 정화</w>
기 울
금 물</w>
굴 러
국 회의원</w>
구 질</w>
관 능</w>
곽 경
곽경 택</w>
공 공</w>
고 쳐</w>
고 든</w>
고 갈</w>
경 치</w>
결 핍</w>
것 다</w>
검 술</w>
걸 쳐</w>
걸 요</w>
거꾸 로</w>
개 답</w>
갑 수</w>
감 도</w>
갈 팡질팡</w>
갇 힌</w>
간 데</w>
가져 야</w>
가득 찬</w>
가 휘</w>
가 격</w>
ㅋㅋㅋㅋㅋㅋㅋㅋ ㅋㅋㅋㅋ
~ @
y ou
w e</w>
ti me</w>
m i
m an
g g
fu l</w>
er e</w>
d e
d b</w>
8 00</w>
... ;;;</w>
. (</w>
히 트맨</w>
희 경</w>
흉 내내</w>
휘 둘
훔 쳐</w>
후 딱</w>
화 성</w>
화 법</w>
혼 돈</w>
현 기증</w>
헬 드</w>
허 슬</w>
해 내</w>
할 려면</w>
할 땐</w>
한물 간</w>
한 들</w>
한 국
하 게</w>
풍 선</w>
표 한다</w>
포켓 몬스터</w>
포 맷</w>
폐 해</w>
폐 기물</w>
파고 들</w>
파 인</w>
티 시즘</w>
티 스</w>
특 촬
트렌 드</w>
트 럭</w>
툭 하면</w>
투 니</w>
토 시오</w>
토 렌트</w>
테 니스</w>
태권 브이</w>
태 민</w>
탐 구</w>
탄 압</w>
키 튼</w>
클 라
크래 프트</w>
콩 달
콩달 콩</w>
케이 온</w>
카펜 터</w>
카 타</w>
카 지노</w>
취 재</w>
충 이</w>
추 기
최 선정</w>
최 루
초 창
초창 기</w>
체 제</w>
체 능</w>
쭈 쭈</w>
쪽팔 리</w>
짠 해</w>
집 합
지 현우</w>
지 영</w>
지 던트</w>
지 는</w>
주 부</w>
주 름</w>
주 룩</w>
좋아 한다</w>
조쉬 하트넷</w>
조미 료</w>
조마조 마</w>
조 형기</w>
조 크</w>
조 문
조문 탁</w>
조 로운</w>
제이 콥</w>
제 압</w>
제 네
제 기</w>
정 복</w>
점 프</w>
절 벽</w>
전 투
저 따위</w>
저 그</w>
재 이</w>
장 르노</w>
잔 다</w>
작품 상</w>
자 아
임 금</w>
일 색</w>
인 크레
인 용</w>
이어 졌</w>
이시 영</w>
이뭐 병</w>
이명 박</w>
이루어 질</w>
이 케</w>
이 수정</w>
이 보영</w>
이 러
이 라니</w>
음 직</w>
음 미</w>
으니 라고</w>
으 면
으 라는</w>
유 사라</w>
유 동근</w>
위 장</w>
웃길 려고</w>
운 가</w>
요 한</w>
요 샌</w>
요 번</w>
외 전</w>
외 설</w>
외 도</w>
왜냐 하면</w>
왕 가</w>
왓 슨</w>
올 림
오지 랖</w>
오버 액션</w>
오다 기리
오 른다</w>
오 른</w>
오 른
오 드리</w>
예 체능</w>
영화 채널</w>
영 회</w>
였 었</w>
엿 보이</w>
여 요</w>
여 름
여 겨</w>
엔 드</w>
얼 렁
얼렁 뚱
어 려</w>
야 망</w>
애니 스톤</w>
애 뜻</w>
앙 상
앙상 블</w>
알 콩달콩</w>
알 아주</w>
안 구</w>
아닐 지</w>
아 플</w>
아 싸</w>
아 슬
싸 웠</w>
심 야</w>
심 보</w>
신성 일</w>
신 성</w>
신 랄</w>
시원 찮</w>
시끄러 워서</w>
시 대극</w>
시 답
시답 잖</w>
시 노
시 급</w>
슬 픈
스턴 트</w>
스타 인</w>
스카 이
스 텔</w>
스 쳐</w>
수 행</w>
수 설</w>
수 긍</w>
셔 도</w>
세 기말</w>
성 현</w>
성 재</w>
설 날</w>
선 한</w>
서 툰</w>
서 준</w>
생 방</w>
상 위</w>
상 류층</w>
사고 방식</w>
사 탄</w>
사 치</w>
사 와
사 스</w>
사 바</w>
사 나
빙 자</w>
빈 다</w>
비 틀</w>
비 서</w>
블 로</w>
블 레어</w>
불 허</w>
불 문</w>
북 자</w>
북 괴</w>
부러 웠</w>
부 풀
부 들
부들 부들</w>
봐 온</w>
볼 륨</w>
볼 께</w>
복 장</w>
보 일
보 듬</w>
보 기</w>
벤 트</w>
버 프</w>
배 치</w>
배 고
방사 능</w>
밨 는데</w>
발 표</w>
발 라</w>
반 열</w>
박 희
박 철수</w>
박 기
바 랄</w>
바 꼈</w>
밀려 온다</w>
밀 리
민 감</w>
미키 루크</w>
뮬 란</w>
물 어
문 성근</w>
무협 물</w>
무 진장</w>
무 이</w>
무 용</w>
무 서</w>
무 라
몰 아치</w>
몬 드</w>
면 모</w>
메 마른</w>
매 장</w>
망설 이</w>
막 혀</w>
마이클 베이</w>
마 담</w>
마 는</w>
릴 까</w>
리 코</w>
리 안</w>
리 버</w>
로 라</w>
랑 께</w>
랄 프</w>
락 스</w>
라이 토</w>
라디오 스타</w>
띄 엄</w>
똥 파리</w>
떼 우</w>
떠 나
따 먹</w>
들이 대</w>
드 려야</w>
드 럼</w>
뒷 모습</w>
뒤 떨어지</w>
두 사부일체</w>
동 떨어진</w>
독 수리</w>
도 입</w>
도 망치</w>
덴젤 워싱턴</w>
더러 워지</w>
더 버그</w>
더 락</w>
더 냐</w>
댕 기</w>
대 해선</w>
대 머리</w>
닮 음</w>
달 렸</w>
단 조로운</w>
단 독</w>
다행 히</w>
다른 가</w>
다가 온</w>
다 스</w>
다 라</w>
다 녔</w>
다 거나</w>
늘 어나</w>
녹 아들</w>
노 홍철</w>
노 동</w>
넘 사벽</w>
내려 놓</w>
내 포</w>
남궁 민</w>
남 극</w>
남 겨
날아 다니</w>
난 도질</w>
나 가
끝 맺</w>
끌어 가</w>
까 리</w>
김지 수</w>
김두 한</w>
김동 완</w>
김 종
기 용</w>
기 관</w>
그러 면</w>
그 물</w>
그 레이
그 간</w>
귀여 니</w>
구 지성</w>
구 니</w>
괴 로웠</w>
광 이</w>
공 중
공 사</w>
고 흐</w>
고 마</w>
계 몽</w>
경 이롭</w>
결 정체</w>
결 방</w>
거북 이</w>
거 릴</w>
개그 콘서트</w>
개 도</w>
강 자</w>
강 력
갔다 왔</w>
감 출</w>
감 자</w>
감 상
간 혹</w>
간 결</w>
각본 가</w>
가슴 속</w>
가 져</w>
가 이
가 발</w>
가 려</w>
ㅠㅠㅠㅠ ㅠㅠㅠ</w>
♡ ♡
~~ ♥</w>
~~ ~!</w>
~~ ~!!</w>
w w</w>
w ww</w>
w hat</w>
th at</w>
rea t</w>
m b</w>
lo g</w>
k s</w>
k n
it h</w>
g g</w>
f or
ec t</w>
e t</w>
da y</w>
a s
a p
9 1</w>
8 3</w>
6 6</w>
199 5</w>
12345 67
0 8</w>
0 6</w>
희 안</w>
희 롱</w>
희 라</w>
흥 하</w>
흐 믓</w>
휴 일</w>
후 진국</w>
후 손</w>
효 성</w>
횡 설
횡설 수설</w>
회 차</w>
황 진미</w>
활 극</w>
홍 콩
홍 성
혼 신</w>
호 준</w>
형 아</w>
헤 매</w>
헤 니</w>
허 황</w>
허 접
햇 살</w>
해 답</w>
해 군
할 인</w>
할 거</w>
한 테
한 걸</w>
한 건</w>
한 가요</w>
학 도</w>
하 희라</w>
하 울</w>
핏 줄</w>
피터 잭슨</w>
피 어
플 리</w>
프로 파
프 란
풀어 놓</w>
푼 젤</w>
푸 하하하</w>
표 현
표 방</w>
포 토</w>
편 협</w>
편 의
편 승</w>
페이 스
펀 치</w>
퍼 레이드</w>
팝 핀
판 다</w>
파 란</w>
파 라
틀 림</w>
트 레
통 통</w>
터 뜨
탈 북자</w>
탈 리즘</w>
클로 이</w>
클레 인</w>
크로 넨
크로넨 버그</w>
코스 모스</w>
코 어</w>
케 인</w>
커 리어</w>
캠 코더</w>
캐리 비안</w>
캅 스</w>
칼 싸움</w>
카 모</w>
카 르
카 렐</w>
치 장</w>
출 품</w>
출 산</w>
출 근</w>
춘 다</w>
추기 경</w>
최 종
최 시원</w>
최 다니엘</w>
최 곤
최곤 데</w>
총 잡이</w>
초 롱</w>
체 가</w>
첫 날</w>
철 민</w>
창 호</w>
창 석</w>
참 다
차 용</w>
차 예
차예 련</w>
찐 따</w>
찌푸 려</w>
쯧 쯧쯧</w>
쭉 쭉</w>
쬐 금</w>
쫓 기</w>
짜 피</w>
질 색</w>
질 림</w>
지지 부진</w>
지만 서도</w>
지도 자</w>
지나 갔</w>
지겨 워서</w>
지 킬</w>
지 로</w>
쥑 이</w>
중 생</w>
중 복</w>
줄 라고</w>
준 희</w>
주 어진</w>
주 몽</w>
주 먹
주 머니</w>
주 고</w>
주 가</w>
종 족</w>
조 이</w>
조 보아</w>
제 품</w>
정 해</w>
정 주</w>
정 면</w>
정 말
점 차</w>
점 정</w>
전 적</w>
적 용</w>
저 조</w>
저 놈</w>
재 훈</w>
재 대로</w>
장난 질</w>
장난 아</w>
장 통</w>
장 례
잣 대</w>
잡 다</w>
자 폐
자 시</w>
자 서
자 네</w>
임 무</w>
임 다</w>
일 지라도</w>
인크레 더블</w>
인 기
익 살</w>
이화 영</w>
이창 동</w>
이 현우</w>
이 지나</w>
이 영애</w>
이 사</w>
이 벤트</w>
음 표</w>
으 으으</w>
으 려면</w>
윤 식</w>
유 대인</w>
윌리 암
위 더
위더 스푼</w>
원 판</w>
원 탑</w>
원 수</w>
웃 음
울 궈
울궈 먹</w>
우디 알렌</w>
우 월</w>
우 애</w>
요 런</w>
외 노</w>
왕 정</w>
왔 음</w>
온 전히</w>
오버 랩</w>
오리엔 탈리즘</w>
오 즈</w>
오 바
오 리</w>
오 를</w>
예 언</w>
예 쁜데</w>
영 장</w>
연예 계</w>
연 희</w>
역 설</w>
역 겨울</w>
엘 리</w>
에로 티시즘</w>
에 리</w>
얼렁뚱 땅</w>
어이 없이</w>
어우러 지</w>
어떤 지</w>
어느 덧</w>
어 짜피</w>
어 장</w>
어 드
어드 벤
어드벤 처</w>
야 호</w>
야 만</w>
애 나</w>
애 국가</w>
알 모
알모 도
알모도 바르</w>
알 라
안쓰러 웠</w>
안 전
안 다는</w>
안 다고</w>
아마 존</w>
아 키</w>
아 부</w>
쓸모 없</w>
심 취</w>
심 은경</w>
심 슨</w>
심 도</w>
실 현</w>
실 질</w>
실 버</w>
실 물</w>
신소 율</w>
신 음</w>
신 사</w>
식 이</w>
시 린</w>
시 련</w>
시 놉
시놉 시스</w>
시 공간</w>
스페이 시</w>
스 탈
슌 지</w>
숙 면</w>
수 퍼
송일 국</w>
손 해</w>
속 물</w>
소 평가</w>
소 주</w>
소 설
소 란</w>
소 감</w>
셀 러</w>
성 준</w>
성 장통</w>
성 실</w>
성 국</w>
선 녀</w>
서 영</w>
서 동요</w>
생 활
새 로웠</w>
상 호</w>
상 한</w>
살 벌</w>
사 죄</w>
사 생활</w>
빼 앗</w>
빚 어낸</w>
빌 딩</w>
빈 틈</w>
비 장</w>
비 율</w>
비 겁</w>
브 레드</w>
붙 였</w>
불 사
불 량</w>
분 발</w>
부 탁
부 추
부 유</w>
부 당</w>
봣 을
봣 으면</w>
봣 더니</w>
봣 네</w>
보 살</w>
보 복</w>
보 그</w>
변 할</w>
변 이</w>
베이 컨</w>
베 닝</w>
벗어 날</w>
번 지르르</w>
버 틸</w>
백 진희</w>
백 야</w>
방 화</w>
밥 맛</w>
발 광</w>
반 한</w>
반 짝
반 말</w>
박 예진</w>
바람 직</w>
미친 놈</w>
미 카
미 치
미 선</w>
미 사</w>
물 리</w>
물 리
무 진</w>
무 례</w>
무 렵</w>
무 덤덤</w>
목 욕</w>
목 록</w>
모자 랄</w>
모 텔</w>
모 차
모 래
멘 트</w>
멕시 코</w>
메디 컬</w>
메 카</w>
머 스</w>
머 물</w>
맴 돌</w>
맥 클레인</w>
맥 빠지</w>
매 국
매국 노</w>
맞 췄</w>
망설 임</w>
말 라</w>
마 크
마 징가</w>
마 미</w>
르 스</w>
레이 미</w>
레 지던트</w>
레 마</w>
레 디</w>
레 니</w>
레 니
러 쉬</w>
라 푼젤</w>
라 다</w>
띠 아르</w>
띄 우</w>
떨어 트리</w>
떨 구</w>
떠올 라서</w>
들어 간다</w>
들 마</w>
드 슨</w>
드 레스</w>
드 기어</w>
두 루</w>
되 찾</w>
동 시대</w>
돌아 올</w>
돌아 간다</w>
도 쿄</w>
도 시
도 둑
델 피</w>
더 글라스</w>
대 안</w>
담 임</w>
달 수</w>
다름 없</w>
다 아</w>
다 르
다 다
니 없이</w>
늦 출</w>
능 욕</w>
늑대 인간</w>
느 낍
느낍 니다</w>
농 촌</w>
놈 놈</w>
놈 놈놈</w>
논 할</w>
노 스</w>
노 년</w>
넘 길</w>
내려 야</w>
내 지</w>
내 렸</w>
남 주의</w>
난 데
나와 야지</w>
낄 낄</w>
꾼 다</w>
꼬 인</w>
꼬 띠아르</w>
껄 렁</w>
꺼 져라</w>
김재 원</w>
김상 경</w>
김병 만</w>
김 흥
김 해
길 이</w>
긴 다는</w>
기독 교인</w>
기 구</w>
급 조</w>
근 디</w>
그만 두</w>
그려 지</w>
그 치</w>
그 따위</w>
귀여 운데</w>
굴 욕</w>
군 상</w>
국민 학교</w>
구 해서</w>
구 타</w>
구 구</w>
교 포</w>
괜 한</w>
괜 춘</w>
과 소평가</w>
과 감히</w>
골 드
고 은
고 대로</w>
결정 판</w>
결 심</w>
격 정</w>
거 래</w>
거 니</w>
개 오</w>
개 밥</w>
강 해서</w>
갈 증</w>
갈 까</w>
각 종</w>
가져 다
가져 가</w>
가 방</w>
가 르</w>
가 려진</w>
ㅡ ㅠ</w>
ㅠㅠ 진짜</w>
~~~~~~~~ ~~~~~~~~
~ *</w>
w e
v i
th ing</w>
t ra
p s</w>
m a</w>
h o
co m
b log</w>
^^ ♥</w>
^^ !</w>
TH E</w>
T OP</w>
S I</w>
OU T</w>
IM D
BE ST</w>
7 8</w>
7 7</w>
5 6</w>
5 1</w>
4 9</w>
0 2</w>
........ .........</w>
. ♡</w>
,, ,</w>
히 데
흡 혈
흡혈 귀</w>
흐 흐흐</w>
효 리</w>
횡 포</w>
횟 수</w>
현 저히</w>
현 실
현 무</w>
헝 거</w>
허접 쓰레기</w>
행 오버</w>
행 성</w>
해군 기지</w>
해 용</w>
해 봄</w>
해 명</w>
할 께</w>
할 까봐</w>
한 껏</w>
하 비에르</w>
필 리
피 아니
피아니 스트</w>
피 로</w>
프레 임</w>
풍 성</w>
푸 드</w>
편의 점</w>
편 한</w>
패 트</w>
팝핀 현준</w>
팔 레
팔레 스타인</w>
판 타</w>
파이 퍼</w>
티 아라</w>
트 리오</w>
퉤 퉤</w>
테 스</w>
턴 즈</w>
터 트리</w>
태 워</w>
탄 사</w>
탁 재훈</w>
타 고난</w>
클 라이
크 림
큘 라</w>
쿠 퍼</w>
콜 라</w>
코 멘트</w>
코 끝</w>
케빈 코스트너</w>
컨 텐츠</w>
캔 디</w>
카 터</w>
치 미</w>
츄 얼리</w>
취 학</w>
최 성국</w>
쳐 진</w>
체 자</w>
체 도</w>
체 감</w>
채 시
채시 라</w>
찾아 봐도</w>
찾아 본</w>
참 된</w>
참 가자</w>
찰 지</w>
차 오르</w>
차 량</w>
찔 끔</w>
짜 린</w>
징 기
징기 스
징기스 칸</w>
진 중</w>
진 도</w>
진 다면</w>
지겨 웠</w>
중 단</w>
중 계</w>
줍 시다</w>
죽 도</w>
주 의
주 세요</w>
좋아 함</w>
조 온</w>
제 자리</w>
제 멋대로</w>
제 대</w>
정신 줄</w>
정 체
정 보석</w>
정 감</w>
절 하</w>
전 우치</w>
전 무</w>
전 도</w>
전 대</w>
적 시</w>
저 항</w>
저 스틴</w>
잭 블랙</w>
재 결합</w>
자서 전</w>
자 평</w>
입 곡</w>
임 상수</w>
일 부분</w>
일 그러
인간 미</w>
인 조</w>
인 영</w>
익 스피어</w>
이하 늬</w>
이 편</w>
이 청아</w>
이 색</w>
이 방
이 룰</w>
유 효</w>
유 전</w>
유 감</w>
윌리암 스</w>
위 력</w>
웟 다</w>
원주 민</w>
원 영</w>
원 더
우 식</w>
용 어</w>
용 사</w>
욕 한</w>
요 리사</w>
와 도</w>
올림 픽</w>
온 라인</w>
오 프</w>
오 징
영 향
였음 을</w>
열 쇠</w>
연애 시대</w>
연 작</w>
연 아</w>
연 수</w>
연 변이</w>
연 말</w>
연 개</w>
에어 컨</w>
에 플렉</w>
에 어</w>
에 반
에 디</w>
에 단
에단 호크</w>
얼 간</w>
얻어 맞</w>
어지 간히</w>
어긋 나</w>
어 빠진</w>
어 루
약 점</w>
액 츄얼리</w>
애 처
애 증</w>
애 슐리</w>
알 콜</w>
알 아들</w>
안 다면</w>
안 내
아이 폰</w>
아쉬 워서</w>
아 픕니다</w>
아 찔</w>
아 슬</w>
아 부지</w>
아 랫
아 네
씁 슬</w>
썩 어빠진</w>
신 체</w>
신 이</w>
시끄러 워</w>
시 미</w>
시 갈</w>
스토 린</w>
스턴 트맨</w>
스며 드</w>
스 토</w>
스 킨</w>
스 스</w>
슈 나이더</w>
숨 죽이</w>
수 원</w>
수 성</w>
수 목</w>
솔 까
솔까 말</w>
손 녀</w>
소림 축구</w>
소 이</w>
소 신</w>
소 더버그</w>
셰 익스피어</w>
센 세이
센세이 션</w>
선 언</w>
선 미</w>
선 명</w>
서 지</w>
서 늘</w>
샤 넬</w>
생명 력</w>
생 소</w>
새 끼
상 현</w>
상 대
상 가</w>
삽 입곡</w>
삼 박자</w>
삼 림</w>
살아 오</w>
살아 간다</w>
살 려
산 트</w>
삭 막</w>
사 후</w>
사 족</w>
사 유</w>
사 뭇</w>
사 망
사 단</w>
빨 려</w>
뷰 티</w>
불 사신</w>
분 단</w>
북 치</w>
보여 줘</w>
별 것</w>
변 함</w>
베 티</w>
번 개</w>
버무 린</w>
백 제</w>
백 윤식</w>
배 워</w>
배 용
발 끝</w>
반 대편</w>
박 지성</w>
박 쥐</w>
바 보
바 니</w>
바 나</w>
바 뀜</w>
밀어 주</w>
밀 도</w>
민 세연</w>
민 비</w>
미 워할</w>
미 라</w>
미 노</w>
미 끼</w>
뭉 치</w>
물 음표</w>
문 화
무법 자</w>
무 신</w>
못 생김</w>
못 난</w>
모차 르트</w>
모리 꼬
모리꼬 네</w>
모른 다는</w>
모레 츠</w>
모 아
모 모</w>
메 르스</w>
머 저리</w>
맹 목</w>
맥 과
맥과 이어</w>
망 칠</w>
망 친다</w>
말 라
만족 감</w>
막 힐</w>
막 힌다</w>
막 심</w>
마리 옹</w>
마 키</w>
마 비</w>
마 리아</w>
마 다가
마다가 스카</w>
마 구
마구 잡이</w>
마 감</w>
릿 느릿</w>
리처 드</w>
리차 드</w>
리 틀</w>
리 턴즈</w>
리 딕</w>
리 도</w>
리 더
르 륵</w>
루 피</w>
롯 데
로 미오</w>
로 군</w>
러 기</w>
래 미</w>
래 디</w>
랏 다</w>
라이 언
라 던지</w>
라 니까</w>
띄 워</w>
뜯 어
뚱 뚱</w>
뚜 껑</w>
떨어 집니다</w>
때 린다</w>
딜 레마</w>
들어 온</w>
들려 주</w>
들 어야</w>
드라 큘라</w>
드 셨</w>
뒤 돌아보</w>
됩 니까</w>
되 새기</w>
동 해</w>
돌 연변이</w>
도시 락</w>
던 진</w>
대 체로</w>
대 식</w>
당 혹</w>
답 시고</w>
달 성</w>
다 중</w>
다 분</w>
다 녀</w>
다 네요</w>
닐 슨</w>
느 릿느릿</w>
눈 치
눈 길</w>
노래 방</w>
노 숙</w>
노 민우</w>
노 르
네 요
넘나 드</w>
너 머</w>
냐 구</w>
냈 으면</w>
내세 운</w>
내게 는</w>
남 배우</w>
날 로</w>
난 지</w>
나타 낸</w>
나타 났</w>
나 부
꿀 리</w>
깝 치
김지 영</w>
김성 수</w>
김 인권</w>
김 용
김 신</w>
김 범</w>
기다 려야</w>
기 수</w>
급 작</w>
글로 리아</w>
그리 울</w>
그럴싸 한</w>
그 렌</w>
그 레
궁 굼</w>
군 국주의</w>
구 상</w>
구 사</w>
구 별</w>
교 실</w>
괴 짜</w>
관 해</w>
공 략</w>
곤 충</w>
고 치</w>
고 준희</w>
고 야</w>
고 다르</w>
고 교</w>
겹 치</w>
겸 손</w>
겨 냥</w>
검 프</w>
걸 친</w>
거슬 려</w>
거 탑</w>
거 저</w>
거 린</w>
개 인
강 풀</w>
갓 파더</w>
갑작 스런</w>
감 탄사</w>
감 수성</w>
각 오</w>
가르 시아</w>
가 스
가 량</w>
가 라
가 드</w>
ㅡㅡ ㅡㅡ
ㅜ ㅡ</w>
ㅜ ㅠ
ㅗ ㅗ</w>
ㅇㅇ ㅇㅇ</w>
ㄷ ㄷ
♥ .♥</w>
♡ ♡♡♡</w>
~~ !!!!</w>
wa s</w>
w o</w>
w o
uc k</w>
th er</w>
t er</w>
s on</w>
r y</w>
ma n</w>
i es</w>
goo d
g o</w>
el l</w>
ea u
e x
a m
^ *
U F
S o</w>
S h
R e
F B
FB I</w>
C g</w>
C SI</w>
C D</w>
? ..</w>
? !</w>
? !!</w>
> .</w>
< <</w>
;;;;;;;; ;;;;
7 9</w>
4 7</w>
4 1</w>
19 60</w>
1 50</w>
0 9</w>
.. -</w>
. -_-;;</w>
. )</w>
!!!!!!!! !!!!</w>
! "</w>
힘 찬</w>
힘 겹</w>
흡 인력</w>
흠 흠</w>
흐 트
흐 른</w>
휴 지
휴지 통</w>
휴 잇</w>
휴 식</w>
휘 날리</w>
환 생</w>
화 통</w>
화 음</w>
화 날</w>
홍콩 식</w>
호 인</w>
호 수</w>
호 빗</w>
호 들
호들 갑</w>
혈 쌍
혈쌍 웅</w>
현 주소</w>
현 민</w>
헌 트</w>
허우 적
허 드</w>
해 져요</w>
해 야
해 방</w>
합 성</w>
함 량</w>
할 리
할 껄</w>
한테 서</w>
한 꺼
한꺼 번에</w>
하 다
피 해
피 티</w>
프로 필</w>
프라 임</w>
프 린
풍 운</w>
풀어 낼</w>
표 면</w>
평 행</w>
퍼 서</w>
패션 왕</w>
팝 송</w>
판 도</w>
파헤 치</w>
티 브이</w>
특촬 물</w>
트루 먼</w>
트 릴</w>
트 론</w>
트 랩</w>
투 영</w>
텔 레
터무 니없</w>
터 키</w>
택 한</w>
태 일</w>
태 영</w>
탄 식</w>
탄 도</w>
타 패닝</w>
타 니</w>
키 운</w>
키 는</w>
크림 슨</w>
크 닉</w>
쿵 후</w>
코 스터</w>
켄 이치</w>
케 스트라</w>
컬 리</w>
커 진</w>
카 레</w>
친 한</w>
친 숙</w>
치 즈</w>
치 가</w>
측 은</w>
취 업</w>
춤 출</w>
추 종</w>
최 우식</w>
청소 년기</w>
청 법</w>
첩 혈쌍웅</w>
채 화</w>
채 웠</w>
찾아 오</w>
창 고</w>
찰 력</w>
찍 히</w>
찌 들</w>
쫓 아
짜 증
지 희</w>
지 점</w>
지 미</w>
지 덕지</w>
지 기</w>
지 긋</w>
지 고</w>
즈 미</w>
중 사</w>
중 립</w>
중 경
중경 삼림</w>
줄 리</w>
주의 보</w>
주 완</w>
주 룩
주룩 주룩</w>
주 다</w>
주 고
좌 왕</w>
종 사</w>
조 정석</w>
조 셉</w>
조 던</w>
제 주</w>
제 니</w>
정준 하</w>
정 조</w>
정 전</w>
정 색</w>
정 규</w>
전 생</w>
전 병</w>
저 랬</w>
재 산</w>
잡 지</w>
잡 아
잔 혹
자 장가</w>
자 베스</w>
자 무시</w>
자 경</w>
잊혀 질</w>
잉 글
입 담</w>
임 원
임원 희</w>
임 요
임요 환</w>
임 성
임 산
임산 부</w>
일 수</w>
일 당</w>
일 날</w>
인 질
인 주</w>
인 제</w>
인 사이드</w>
이중 인격</w>
이어 질</w>
이수 경</w>
이성 민</w>
이럴 까</w>
이 천
이 자</w>
이 유리</w>
이 완
이 따
이 날</w>
이 광수</w>
이 경</w>
의 혹</w>
의 연</w>
의 료</w>
음 울</w>
은 희수</w>
은 대</w>
으 뜸</w>
육 아</w>
유니 크</w>
유 라</w>
위 해선</w>
위 상</w>
위 버</w>
웨 폰</w>
웟 음</w>
월 광</w>
워 낭</w>
우스 운</w>
우 째</w>
우 왕
우왕 좌왕</w>
우 연찮</w>
우 산</w>
우 라</w>
우 덜</w>
욕 감</w>
올 슨</w>
온 데</w>
오징 어</w>
오지 호</w>
오 케스트라</w>
오 자</w>
오 스카</w>
오 산</w>
오 드리
오 달수</w>
예 스</w>
예 림</w>
영향 력</w>
열 혈</w>
열 매</w>
연 코</w>
연 도</w>
연 달</w>
역 행</w>
여 하튼</w>
여 잔데</w>
엘리 트</w>
엘리 자베스</w>
엑소시 즘</w>
에이 즈</w>
에 릭
에 디
얼 거리</w>
얼 간이</w>
어설 퍼서</w>
어 쨌</w>
양 쪽</w>
앞 선</w>
앞 둔</w>
알렉 산
알 찬</w>
알 린</w>
안내 상</w>
안 심</w>
아이 큐</w>
아우 라</w>
아무 거</w>
아름다 움
아 앙</w>
아 멜
아 랍</w>
아 더</w>
아 껴</w>
아 깝
씁 시다</w>
쏟아 져</w>
쌓 인</w>
심리 전</w>
심 혜진</w>
심 심
신 중</w>
신 물</w>
신 문</w>
신 드
신 났</w>
신 교</w>
신 경
식 사</w>
시 판</w>
시 들</w>
승 희</w>
슬 픕니다</w>
스튜 어트</w>
스 틴
스 톰</w>
쉴 즈</w>
쉴 드</w>
숨 쉬</w>
순 전히</w>
순 결</w>
수퍼 맨</w>
수 채화</w>
수 두룩</w>
수 도
속 자</w>
속 상하</w>
소 연</w>
소 문
소 모</w>
세 윤</w>
세 라</w>
세 나</w>
성 범죄</w>
섭 섭</w>
설레 였</w>
선 교사</w>
석 양</w>
서 인지</w>
생각 납니다</w>
생 겨
상대 방</w>
상 담</w>
상 간</w>
살아 난</w>
사라 짐</w>
사라 질</w>
사라 져야</w>
사 실감</w>
뽑 아
빼 어난</w>
빨 리
비 해선</w>
비 범</w>
비 긴
비긴 즈</w>
브라 운
브라 보</w>
불 릴</w>
부 하</w>
부 장</w>
볼 지</w>
볼 려면</w>
본 전</w>
보 라
보 는
베이 커</w>
베이 더</w>
번 호</w>
번 쩍</w>
버 스톤</w>
버 드</w>
버 니</w>
백 수</w>
방 귀</w>
방 가</w>
밥 그릇</w>
발 매</w>
발 단</w>
반 려</w>
박지 윤</w>
박기 웅</w>
박 민영</w>
바르 뎀</w>
밀 러</w>
민 경</w>
미술 관</w>
미 호</w>
미 취학</w>
미 자</w>
문 제작</w>
무서 워
무 자비</w>
무 계</w>
무 거울</w>
몰 두</w>
모 임</w>
모 이</w>
모 으</w>
모 가지</w>
메 릴</w>
메 기</w>
멋 진데</w>
먼 데</w>
먹먹 하</w>
맹 탕</w>
매 끄
망설 였</w>
만드 세요</w>
만 도</w>
만 데</w>
만 능</w>
만 끽</w>
막 혀서</w>
막 내</w>
마 트</w>
마 침
마 왕</w>
마 사미</w>
마 라
마 귀</w>
리스 콧</w>
리 엄</w>
리 들
리들 리스콧</w>
류 급</w>
롤 러
련 지</w>
레이 버</w>
레이 놀
레이놀 즈</w>
레 시
런 던</w>
러 너</w>
랭 이</w>
라이 온</w>
라이 어</w>
라 미</w>
떨 림</w>
떠오 를</w>
때 릴</w>
따라 갈</w>
들 으면서</w>
들 어서</w>
드러 난다</w>
둬 야</w>
두 목</w>
동 서양</w>
동 반</w>
동 남아</w>
돌 파</w>
도 착</w>
도 자기</w>
도 그</w>
데이 빗
대 입</w>
대 여
대 생</w>
대 니</w>
대 니
당 한다</w>
당 근</w>
달 아
단 연코</w>
다코 타패닝</w>
다우 니</w>
다 투</w>
다 웠</w>
다 움</w>
다 요</w>
다 닌
다 느니</w>
늙 은이</w>
눈 썹</w>
눈 동자</w>
눈 깔</w>
논 다</w>
녹 아
노 처녀</w>
노 망</w>
네 리</w>
냐 면</w>
냉 철</w>
냉 전</w>
내려 오</w>
내 년</w>
내 고</w>
남 다른</w>
날라 다니</w>
나오 미</w>
나 사</w>
나 쁨</w>
나 리</w>
나 눠
낄 낄
끌 로드</w>
끊임 없</w>
꾸밈 없</w>
꾸 며
깝 깝</w>
김현 중</w>
김정 훈</w>
김유 정</w>
김영 철</w>
김 일성</w>
김 새론</w>
김 꽃비</w>
기 황후</w>
기 미</w>
기 르</w>
기 네스</w>
기 관
글 씨</w>
극 화</w>
그리 스
그럴듯 하게</w>
귀 환</w>
군 사</w>
구 토</w>
구 출</w>
구 심</w>
괴 로움</w>
관 서</w>
관 상</w>
과 욕</w>
공 항</w>
골 고루</w>
고은 아</w>
고 평</w>
고 창석</w>
고 유</w>
경 음</w>
견 뎌</w>
게 으
겉 돌</w>
겉 도</w>
걸어 가</w>
걸 려서</w>
거침 없</w>
개 차
개 방</w>
개 개인</w>
갔다 온</w>
갔 으면</w>
값 진</w>
갑 옷</w>
감 미</w>
감 금</w>
간 지
각 시
가 든</w>
ㅠㅠㅠㅠㅠㅠㅠㅠ ㅠㅠㅠㅠ
ㅇ ㄴ
♥♥ ♥♥♥</w>
~! ~!
y e</w>
wor ld</w>
wa y</w>
w i
ver y
u s
tt er</w>
t y</w>
t u
t s</w>
t er
s k
or y</w>
n e</w>
n a</w>
li fe</w>
l u
l ow</w>
k m</w>
in e</w>
im db</w>
g i
c m</w>
c c
b i
` `</w>
W hat</w>
Th is</w>
T X</w>
R o
M a
M B</w>
E R</w>
? )</w>
=_ =</w>
9999 9999
8 1</w>
7 6</w>
6 5</w>
5 8</w>
4 6</w>
4 3</w>
4 3
4 00</w>
................ ...</w>
. @</w>
- .-
- ,
, .,.,
' '</w>
희 준</w>
흐 미</w>
휴 그랜트</w>
휘 두
후 회
후 쿠
회 안</w>
황 당
황당 무계</w>
환 호</w>
화 병</w>
화 딱지</w>
홍수 현</w>
혼 모</w>
혜 리</w>
협 화음</w>
현 수</w>
헨 젤</w>
헤어 질</w>
향 하</w>
행 세</w>
해 체</w>
해 유</w>
해 변</w>
해 낼</w>
합 쳐서</w>
할 려</w>
한 회</w>
한 가득</w>
하하 하하하</w>
하 염
하염 없이</w>
하 산</w>
하 류</w>
하 라</w>
하 곤</w>
플래 툰</w>
플 레이
프랑스 인</w>
풍 요</w>
포 트만</w>
폐 쇄</w>
편 파</w>
편 제</w>
페 티
펑 크</w>
퍼 니</w>
패 자</w>
패 배</w>
패 배
판 정</w>
파 하</w>
파 파</w>
틱 하</w>
티 격
티격 태
티격태 격</w>
튼 튼</w>
트 립</w>
트 린</w>
트 렉</w>
투 혼</w>
투 캅스</w>
투 척</w>
퇴 물</w>
퇴 마</w>
통 화</w>
토마 토</w>
토 막</w>
토 대</w>
토 나</w>
테 드</w>
태 인</w>
타 협</w>
타 카
키 니</w>
크로 스</w>
퀴 벌레</w>
콜 라
코 네리</w>
케이 션</w>
컴 플렉스</w>
카메 론
카메론 디아즈</w>
카 운
카 사
치 히로</w>
치 졸</w>
치 욕</w>
츠 야</w>
취 소</w>
출 중</w>
출 구</w>
춘 부</w>
축 축</w>
추 리
최루 성</w>
최 재
초 특급</w>
첨 가</w>
천 만
천만 다행</w>
채 울</w>
참다 참
참다참 다</w>
찰 나</w>
찮 은</w>
찢 어지</w>
찢 어
쬐 끔</w>
쪽 지</w>
쨔 응</w>
짜 깁</w>
징그러 운</w>
징 글
질러 대</w>
질 서</w>
질 린</w>
질 렌
질 구질</w>
직 시</w>
지 웅</w>
지 어다</w>
지 식인</w>
지 시</w>
지 스</w>
지 석</w>
지 사</w>
지 붕</w>
지 린</w>
지 려</w>
즐거 워</w>
즐 겼</w>
즐 겨라</w>
줄리 안</w>
주 자</w>
주 유
주유 소</w>
주 무
주 군</w>
주 곡</w>
종 료</w>
조 디</w>
제이슨 스타뎀</w>
제 프</w>
제 약</w>
정선 희</w>
정 해진</w>
정 윤희</w>
정 겨운</w>
접 속</w>
점 령</w>
전 화
전 현무</w>
전 태일</w>
전 신</w>
전 수
저 미</w>
저 격
재미 없
장 땡</w>
잠 재</w>
잠 재
자 취</w>
자 의식</w>
자 루</w>
자 락</w>
입 증</w>
입 니다요</w>
일으 킬</w>
일 종</w>
인 진</w>
인 육</w>
인 원</w>
인 과
이태 리</w>
이주 승</w>
이재 은</w>
이장 우</w>
이용 철</w>
이어 져</w>
이명 세</w>
이래 도</w>
이다 해</w>
이 효리</w>
이 현</w>
이 프로</w>
이 진</w>
이 을</w>
이 마</w>
이 동</w>
이 긴</w>
의 무</w>
의 구심</w>
음 침</w>
을 라고</w>
은 지원</w>
윤 호</w>
윤 하</w>
육 성</w>
유 희
유 태인</w>
유 연석</w>
유 식</w>
유 명
유 괴</w>
위 노
웨 인</w>
웨 딩</w>
원 한다</w>
원 츄</w>
울 프</w>
울 트라</w>
우 즈</w>
우 동</w>
용 자</w>
용 인</w>
용 의자</w>
용 도</w>
요 점</w>
요 인</w>
왼 쪽</w>
외 침</w>
외 쳐</w>
왜 색</w>
왓 츠</w>
왈 츠</w>
오사 무</w>
오 전</w>
오 마주</w>
오 경</w>
예 상외</w>
영 문</w>
연 정훈</w>
연 금
역 습</w>
여 장</w>
여 오</w>
여 론</w>
엔 젤</w>
에이 지</w>
에반 스</w>
에 코</w>
에 이미</w>
에 용</w>
엇 갈리</w>
엄 지원</w>
얼 핏</w>
얼 척</w>
언 덕</w>
억 양</w>
어울 려서</w>
어긋 난</w>
어 후</w>
어 야죠</w>
어 눌</w>
양 자경</w>
얄 밉</w>
약 해서</w>
야 해</w>
야 경</w>
암 담</w>
알라 딘</w>
안 일</w>
안 나</w>
악 랄</w>
아파 요</w>
아이 즈</w>
아야 세</w>
아슬 아슬</w>
아나 킨</w>
아낌 없이</w>
아 홉</w>
아 선</w>
아 미
아 멘</w>
아 랑</w>
아 따
아따 맘마</w>
십 자
신비 주의</w>
신드 롬</w>
신 의</w>
신 료</w>
신 론
신론 자</w>
신 난다</w>
시시 껄렁</w>
시끄 러운</w>
시 야</w>
스피 릿</w>
스트 림</w>
스노 우</w>
스 퍼</w>
스 탄</w>
스 쿨</w>
스 리</w>
슈 트</w>
쉰 들러</w>
숨 겨져</w>
수 치
수 잔</w>
수 없이</w>
수 신료</w>
수 빈</w>
수 목
수 니</w>
송 재림</w>
손 현주</w>
손 길</w>
속 아</w>
속 빈</w>
소 희</w>
소 이다</w>
소 용
센 터</w>
세 운</w>
세 아</w>
세 상
성 취</w>
설 원</w>
설 렜</w>
선 조</w>
선 악</w>
선 고</w>
서 희</w>
생각 난</w>
생 이</w>
색 안경</w>
상 속자</w>
살 펴
사 원</w>
사 만다</w>
삐 뚤
뿐 이</w>
뿌 린</w>
뿌 듯</w>
뻣 뻣</w>
뺏 기</w>
빨리 빨리</w>
빠 리</w>
빛 난다</w>
비 할</w>
비 보이</w>
블랙 홀</w>
브리 트니</w>
브랜 든</w>
브 릭</w>
브 룩
뷰 티
불사 조</w>
불 협화음</w>
불 평</w>
부추 기</w>
부끄러 울</w>
부 조</w>
부 려</w>
부 감</w>
봣 다
볼 품
볼 게요</w>
보인 다고</w>
보 지마
보 증</w>
변 경</w>
벤 허</w>
베리 모어</w>
베 인</w>
베 네
벙 어리</w>
번 지</w>
벅 스</w>
버 틀러</w>
버 릇</w>
버 러지</w>
배용 준</w>
배 출</w>
배 창호</w>
배 신자</w>
방 문</w>
밝혀 졌</w>
발버 둥</w>
반 해서</w>
반 란</w>
반 동</w>
반 공</w>
박준 형</w>
박재 정</w>
박영 규</w>
박근 혜</w>
박 해진</w>
박 은혜</w>
박 성
박 선영</w>
바람 난</w>
바 퀴벌레</w>
바 인즈</w>
바 야</w>
바 바라</w>
바 늘</w>
민 지</w>
미켈 슨</w>
미치 광이</w>
미 야</w>
미 쓰</w>
미 셸</w>
미 로</w>
미 드
믄 서</w>
뮤지 션</w>
물 어내</w>
물 량</w>
문 장</w>
무지 개</w>
무서 우</w>
무 공</w>
몽 땅</w>
몸 소</w>
몰랐 었</w>
몰 아가</w>
몰 상식</w>
모 욕감</w>
모 님</w>
명 수</w>
메 일</w>
멈 췄</w>
멀 리
맹 인</w>
매 춘부</w>
매 진</w>
맞 출</w>
망 스</w>
맘 껏</w>
만 대</w>
막 힘</w>
막 지</w>
막 연</w>
마츠 코</w>
마음 껏</w>
마 틴
마 우스</w>
마 린</w>
립 니</w>
리 토</w>
리 브</w>
리 모</w>
리 니</w>
룸 메이트</w>
룬 드
룬드 그렌</w>
루 션</w>
롯데 시네마</w>
롤러 코스터</w>
로빈 윌리엄스</w>
로버트 드니로</w>
로 이드</w>
로 이</w>
로 스트</w>
로 망스</w>
로 리타</w>
렵 니다</w>
련 만</w>
레이 첼
레 아</w>
레 슬링</w>
램 버트</w>
랜 턴</w>
라이 벌</w>
라 구요</w>
또 래</w>
떠나 보내</w>
때려 부수</w>
들 였</w>
드릴 께요</w>
드러 워</w>
드러 낸</w>
드 맨</w>
되새 겨</w>
동 행</w>
동 전</w>
동 작</w>
돈 벌이</w>
독일 군</w>
도 인</w>
도 어</w>
도 심</w>
도 끼</w>
더러 워서</w>
대 조</w>
대 작전</w>
답 변</w>
달 릴</w>
달 라도</w>
단 절</w>
다이 애나</w>
다가 올</w>
다 정</w>
다 잉</w>
다 뤄
다 닌</w>
다 구요</w>
니 코</w>
늑대 소년</w>
눈 부시</w>
놔 도</w>
노 리스</w>
넘 겼</w>
내 뱉</w>
남 잔데</w>
남 겨요</w>
날카 롭</w>
난 다면</w>
나이 틀리</w>
나온 지</w>
나온 다면</w>
나부 랭이</w>
나 우</w>
끈 기</w>
꿀 꿀</w>
꾸 며</w>
꼇 다</w>
깨 우치</w>
깨 우
깡 통</w>
까 놓</w>
김원 효</w>
김소 현</w>
김 준
김 갑수</w>
기다려 집니다</w>
기 획
기 질</w>
기 점</w>
기 뻤</w>
급 박</w>
근 원</w>
그러 므로</w>
그 레이스</w>
그 레이</w>
국 물</w>
국 군</w>
국 경</w>
구 질구질</w>
구 시대</w>
구 스</w>
구 석
구 미</w>
구 공</w>
교 복</w>
괜찬 은
관 통</w>
관 객
과 학자</w>
공 통
골 목</w>
고 퀄</w>
고 슬링</w>
고 립</w>
고 단</w>
계 약</w>
격 하</w>
게 라도</w>
거슬 림</w>
개 취</w>
개 신교</w>
개 선</w>
개 방식</w>
강 함</w>
강 연</w>
강 림</w>
감 춰진</w>
감 초</w>
감 우</w>
갈아 타</w>
간 장</w>
간 디</w>
각시 탈</w>
각 도</w>
가벼 움</w>
가 혹</w>
가 출</w>
가 이</w>
가 렛</w>
ㅉㅉ ㅉㅉ
ㅉ ㅉㅉㅉ</w>
~ ♥
zz zz</w>
v od</w>
th e
r u
kn ow</w>
k ing</w>
i l</w>
g k
f il
f f</w>
f d
dd dd
d er
d d</w>
c k</w>
V S</w>
U C
T L</w>
M y</w>
L A</w>
K TX</w>
C o
???????? ?</w>
;;;; ;;;</w>
6 2</w>
3 7</w>
3 6</w>
3 500</w>
199 4</w>
199 2</w>
1 80</w>
0 3</w>
./ ./
... ^^</w>
- ;;</w>
,, ,,</w>
**** )</w>
' .</w>
" """</w>
흔 해</w>
휼 륭</w>
휴 우</w>
훤 히</w>
후 퇴</w>
후 세</w>
후 벼</w>
후 광</w>
확 률</w>
화 합</w>
화 학</w>
홍성 진</w>
홍 은희</w>
홍 수</w>
홀 트</w>
홀 리
혹 해서</w>
혜 영</w>
현 혹</w>
현 아</w>
헤어 짐</w>
헛 점</w>
헛 된</w>
헌 데</w>
허 수
허 상</w>
허 드슨</w>
허 공</w>
햅 번</w>
핸드 헬드</w>
핸 드</w>
할 지라도</w>
한 혜진</w>
한 자</w>
한 게</w>
하드 코어</w>
하 늘
필 자</w>
필 연</w>
피라 미드</w>
피 폐</w>
피 눈물</w>
프리 즌</w>
프로 스트</w>
프 론</w>
풀 풀</w>
풀 려</w>
표현 력</w>
평 양</w>
페 즈</w>
페 르
판 중</w>
판 매</w>
티 벳</w>
틀 렸</w>
트리 에</w>
트라 맨</w>
트 렁
트렁 크</w>
퇴 화</w>
퇴 색</w>
퇴 마
퇴마 록</w>
통 찰력</w>
토니 스콧</w>
터무 니없이</w>
터 프</w>
터 뜨리</w>
탱 이</w>
택 하</w>
택 트</w>
태권 도</w>
태 어
탈 세</w>
크리스 천</w>
크레이 그</w>
크 라</w>
큐 브릭</w>
쿠 나</w>
쿄 코</w>
콜린 스</w>
코 프스키</w>
코 코</w>
코 치</w>
코 디</w>
커 트</w>
칼 부림</w>
카 닉</w>
칭 하</w>
친 상간</w>
츠 마
츠마 부
충 전</w>
충 우
충우 돌</w>
충 실히</w>
축 제</w>
추리 물</w>
추 행</w>
추 측</w>
최 상급</w>
최 면</w>
총 출동</w>
촌 티</w>
체 리</w>
철 권</w>
천 장
천장 지구</w>
처 한</w>
챙 겨
채 감</w>
찾아 온</w>
착 신</w>
찡 해</w>
쪽팔 린다</w>
짤 린</w>
집 시</w>
질렌 할</w>
진 지희</w>
진 심
진 격</w>
지리 멸
지리멸 렬</w>
지나 쳐</w>
지나 갈</w>
지 체</w>
지 으</w>
지 위</w>
즉 시공</w>
즈 링</w>
중 학</w>
중 국식</w>
줄 여</w>
줄 래</w>
줄 라</w>
준 지</w>
주 희</w>
주 입</w>
주 식
주식 회사</w>
죄 지</w>
죄 인</w>
죄 의식</w>
좌 충우돌</w>
좋아 했</w>
좋아 해</w>
종 자</w>
종 국</w>
졸 릴</w>
존 엄</w>
존 레
조 상</w>
조 물</w>
제 이미</w>
제 욱</w>
정 크</w>
정 준</w>
정 윤</w>
접 할</w>
절 박</w>
전광 렬</w>
전 효성</w>
전 트</w>
전 율</w>
전 역</w>
전 시</w>
전 략</w>
적 벽</w>
적 도</w>
저 장</w>
재 조명</w>
재 목</w>
장 서희</w>
장 가휘</w>
잣 집</w>
잘 사</w>
잘 라서</w>
잔 적</w>
자 와</w>
임성 한</w>
일 지매</w>
일 보</w>
일 말</w>
일 레
일레 븐</w>
인질 극</w>
인 어</w>
인 소</w>
인 방</w>
인 민
인 게</w>
익 준</w>
이종 혁</w>
이재 용</w>
이자 스민</w>
이순 재</w>
이방 인</w>
이민 자</w>
이리 치</w>
이래 저래</w>
이래 요</w>
이라 크</w>
이 티</w>
이 토
이 지훈</w>
이 지현</w>
이 정</w>
이 와이</w>
이 영환</w>
이 세상</w>
이 뤄</w>
이 룬
이 데
이데 올
이데올 로
이데올로 기</w>
이 덕화</w>
이 끈</w>
의 미
음 식
을 려나</w>
은 숙</w>
은 교</w>
으셨 어요</w>
으 어</w>
으 련만</w>
윤 찬</w>
유희 왕</w>
유 신</w>
유 세윤</w>
유 루
유루 유리</w>
유 독</w>
위 인</w>
웠 을</w>
웟 던</w>
원더 풀</w>
워 질</w>
울 트라맨</w>
울 렁
우울 해</w>
우 릴</w>
욜 라</w>
요 시
왔 으니</w>
완 전
와일 드</w>
와 야</w>
올 린다</w>
온 주완</w>
온 다는</w>
오연 서</w>
오래 도록</w>
오 케이</w>
오 웬</w>
오 스틴</w>
오 브스</w>
오 라
영 창</w>
열 중</w>
열 악</w>
열 망</w>
연출 가</w>
연애 질</w>
연 하</w>
연 제욱</w>
연 재</w>
연 우진</w>
연 연</w>
역 전</w>
여 타</w>
에 유</w>
에 머리
에머리 히</w>
엄 연히</w>
얽 힌</w>
얼 룩
언 터
언 정</w>
어설 펐</w>
어두 워서</w>
어 치</w>
양 익준</w>
약 물</w>
야구 팬</w>
야 심</w>
야 마다</w>
앤 디</w>
애 착</w>
애 락</w>
암 흑
안 도</w>
악 기</w>
아이 콘</w>
아 찌</w>
아 악</w>
아 실</w>
아 몬드</w>
아 른
아 껴서</w>
심 해서</w>
실 리</w>
신 입</w>
신 애</w>
신 박</w>
신 가요</w>
시 저</w>
시 온</w>
시 니
승 장구</w>
승 승장구</w>
습 관</w>
슬 러</w>
스피 디</w>
스트 레
스타 쉽</w>
스마 트</w>
스 태
스 킬</w>
스 위
슈퍼 주니어</w>
슈 타인</w>
쉬 리</w>
숨 소리</w>
숨 겨</w>
술 집</w>
수치 심</w>
수 첩</w>
수 식</w>
수 구</w>
수 건</w>
솔 솔</w>
손 자</w>
손 바닥</w>
소유 자</w>
소문 난</w>
소 음</w>
소 비
소 나기</w>
세르 크</w>
세 염</w>
성 당</w>
설 사</w>
설 국</w>
설 교</w>
선 진국</w>
선 지</w>
섞 이</w>
석 훈</w>
서글 픈</w>
서 편제</w>
서 울
서 막</w>
샤 인</w>
색 채감</w>
색 즉시공</w>
삼 순</w>
삼 생이</w>
살아 간다는</w>
산 악</w>
산 물</w>
사형 수</w>
사이 비</w>
사이 먼</w>
사라 진다</w>
사 마</w>
뽕 짝</w>
뼈 저리</w>
빛 난</w>
빗 대</w>
빌어 먹
빌어먹 을</w>
빈 틈
빈 자리</w>
비 평가</w>
비 에
비 싸</w>
비 상
비 견</w>
블 루
블 로그</w>
브레이 브</w>
브라운 관</w>
브라 더스</w>
브 랜드</w>
불 어</w>
불 급</w>
부 질
부 잣집</w>
부 심</w>
부 셔</w>
부 서지</w>
부 린</w>
부 른다</w>
봉 사</w>
볼 루션</w>
볼 께요</w>
본 느</w>
복수 초</w>
복 지</w>
복 원</w>
복 사</w>
복 고</w>
보 완</w>
보 디
베르 세르크</w>
베 르</w>
베 가스</w>
버 블</w>
버 렷</w>
백 성</w>
배 껴</w>
방송 사</w>
방 치</w>
밥 상</w>
발 언</w>
받아들 일</w>
받 침</w>
반 함</w>
반 올림</w>
박정 민</w>
박 히</w>
박 차</w>
박 살
바티 칸</w>
미친 년</w>
미 혼모</w>
미 운</w>
미 란다</w>
미 도</w>
뭘 로</w>
물 리치</w>
물 러
물 들</w>
물 든</w>
문 희</w>
문 학
묵 묵
무 참히</w>
무 인</w>
무 용
무 신론자</w>
무 분별</w>
못 한다는</w>
못 된</w>
몰 이</w>
목 격</w>
모 은</w>
모 르
명 치</w>
면 서요</w>
멕 라이언</w>
메가 폰</w>
멈 춘</w>
멀리 서</w>
머 레이</w>
매니 저</w>
매 튜
매 즈</w>
매 너</w>
맞춰 야</w>
맞 이</w>
망 해라</w>
망 한다는</w>
망 이</w>
망 가</w>
말 세</w>
말 다</w>
만 회</w>
만 한데</w>
만 인</w>
만 발</w>
막 바지</w>
링 크</w>
린 즈링</w>
리 플리</w>
리 포터</w>
리 키</w>
리 에</w>
르네 젤위거</w>
륜 미</w>
류 현경</w>
루 룩</w>
로 워서</w>
렉 터</w>
레드 포드</w>
래 쉬</w>
라 즈
똥 개</w>
똘 똘</w>
떳 떳</w>
때려 치</w>
때려 잡</w>
딸 년</w>
딸 내미</w>
딴 판</w>
따라 다니</w>
들어 온다</w>
들려 오</w>
들 아</w>
드리 안</w>
드 루</w>
드 롱</w>
드 레
뒤 쳐지</w>
두 리
두 들
된 다니</w>
돼 야</w>
동정 심</w>
동 이</w>
동 거</w>
동 갑</w>
돌려 본</w>
도 장</w>
도 식</w>
던 가요</w>
더 한</w>
대 항</w>
대 접</w>
대 적</w>
대 여</w>
대 런</w>
대 담</w>
당 초</w>
당 분간</w>
담아 냈</w>
달라 질</w>
달 튼</w>
달 랑</w>
단 비</w>
닥 다리</w>
다이 아몬드</w>
다시 피</w>
다닌 다</w>
다녀 오</w>
다 죠</w>
다 를까</w>
다 네</w>
다 고요</w>
니 와</w>
니 나</w>
는 걸</w>
느 그</w>
눈물 겹</w>
누 적</w>
노르 웨이</w>
노 조미</w>
넘어 갔</w>
넘 어지</w>
냉 무</w>
내세 우</w>
내려 라</w>
내 전</w>
남 겨준</w>
남 겨야</w>
낙 원</w>
나이 트
나아 진</w>
나아 졌</w>
나눠 서</w>
나 코</w>
나 이스</w>
나 아지</w>
나 문희</w>
나 뉜
나 뉘</w>
나 눈</w>
끝났 어야</w>
끝 났</w>
끔 직</w>
꿈 속</w>
꿀 잠</w>
깨 닳</w>
깜 빡</w>
까 이</w>
까 락스</w>
까 나</w>
깊 숙
김해 숙</w>
김태 우</w>
김재 중</w>
김민 선</w>
김 새</w>
긴 다면</w>
기획 사</w>
기 라</w>
기 냥</w>
근 친상간</w>
근 처</w>
극 악</w>
그리 워지</w>
그리 구</w>
그럴 듯</w>
그 릴</w>
권 위</w>
구구 절절</w>
구 했</w>
구 태
구 제</w>
구 닥다리</w>
교 제</w>
괴 로운</w>
괜찬 은</w>
광 희</w>
광 개
관 용</w>
과 다</w>
공포 심</w>
공산 주의</w>
공 동</w>
공 동
고 풍</w>
고 질</w>
고 지
고 잉</w>
고 역</w>
고 만
고 니</w>
계 승</w>
계 륜미</w>
경 직</w>
경 기도</w>
결 말
게 시판</w>
겁 내</w>
겁 난다</w>
건 네</w>
거슬 려서</w>
거 절</w>
거 인</w>
거 워</w>
거 물</w>
거 만</w>
개차 반</w>
개 폼</w>
감 방</w>
갈 비</w>
간 호사</w>
간 수</w>
간 단히</w>
각 기</w>
가 지
가 이리치</w>
가 신</w>
가 릴</w>
가 네</w>
ㅡㅡ 아</w>
ㅌ ㅊ</w>
ㄲ ㄲ
~~ ~!!!</w>
~ ""</w>
zz z</w>
w ith</w>
t x</w>
st i
si c</w>
s c
re e</w>
r e</w>
q u
p a
ou s</w>
li ke</w>
il l
hh hh
g reat</w>
ff ff
cc tv</w>
c f</w>
c an</w>
b u
a b
_ *</w>
^ ^^</w>
^ )
T v</w>
T A</w>
L ove</w>
IMD B</w>
C h
B o
? ...</w>
8 000</w>
5 7</w>
5 2</w>
2 3
199 6</w>
1234567 8
1 500</w>
1 5
1 3
................ ....</w>
.. ♥</w>
.. ???</w>
.. ""</w>
. ???</w>
. ""</w>
---- ----
* _*</w>
히로 스
히 가
희생 양</w>
희 미</w>
흥 겨운</w>
흑 흑흑</w>
흐 릿</w>
휼 륭
후 우</w>
효 율</w>
회 전</w>
황 진이</w>
황 신혜</w>
환 각</w>
확 장</w>
확 보</w>
화 남</w>
홍수 아</w>
홀 리</w>
호 쾌</w>
호 진</w>
호 소
형 용</w>
혐 오감</w>
현 자</w>
현 영</w>
행 각</w>
핵 폭탄</w>
해서 웨이</w>
해 져
해 버림</w>
해 로운</w>
해 골</w>
해 결
합 친</w>
할 라</w>
한다 면서</w>
한 지훈</w>
한 발</w>
한 물</w>
한 답시고</w>
한 눈</w>
한 나</w>
한 가인</w>
하 위</w>
하 우</w>
하 악</w>
하 셈</w>
하 룻
하룻 밤</w>
하 락</w>
필리 핀</w>
피 자</w>
피 어나</w>
피 식
프로파 간다</w>
프랑스 어</w>
프 랑</w>
푸 근</w>
폭 풍
포 세이
포세이 돈</w>
포 도</w>
평 안</w>
평 보</w>
평 면</w>
편 집
편 의</w>
편 안
편안 히</w>
페 스트</w>
페 미</w>
펏 다</w>
퍼 스트</w>
팔 리</w>
판 권</w>
파 쿠</w>
파 장</w>
파 니</w>
파 국</w>
퇴 출</w>
통 할</w>
톰 슨</w>
톤 즈</w>
테 두리</w>
터무 니</w>
터 치</w>
태 풍</w>
태 연</w>
태 경</w>
타쿠 스</w>
타이 드</w>
타 빌
타빌 레</w>
타 루</w>
키 타</w>
키 코
크리스 파인</w>
크리스 탈</w>
크레이 지</w>
쿠 키</w>
콜린 파렐</w>
코 믹스</w>
케 네
케네 디</w>
캐 스트</w>
칸 타빌레</w>
카 톡</w>
카 미</w>
카 다</w>
침 공</w>
칠 레</w>
친 자</w>
치 아</w>
츠마부 키</w>
츠 카</w>
취 한</w>
춘 향</w>
춘 향
추 적자</w>
첫 째</w>
첫 눈</w>
철 중</w>
천 하
처 형</w>
처 키</w>
처 분</w>
챔 프</w>
책임 져라</w>
채 운</w>
창 의
창의 력</w>
참 전</w>
참 상</w>
참 사</w>
참 가</w>
찬 가</w>
착 해</w>
차이 점</w>
차 안</w>
차 림</w>
차 가
찔 러</w>
쪽 박</w>
짜 고
짜고 짜</w>
징그러 워</w>
징 글</w>
집합 소</w>
집어 치우</w>
집 사</w>
질 질질</w>
진 행
진 입</w>
진 분</w>
진 경</w>
지나 간</w>
지긋 지긋</w>
지 쳤</w>
지 이</w>
지 우
지 언정</w>
증 인</w>
증 발</w>
쥬 드</w>
쥐 뿔</w>
중 화
죽 여서</w>
주 현</w>
주 성</w>
주 르륵</w>
주 드로</w>
죄 수</w>
좌 석</w>
좋아 합니다</w>
종 현</w>
종 잡</w>
종 옥</w>
종 방</w>
조 제</w>
조 율</w>
조 윤희</w>
조 세
조 로리</w>
조 나
조 그만</w>
졌 어요</w>
젠 더</w>
제임스 완</w>
제이 크</w>
제이 로한</w>
제 거</w>
정체 불명</w>
정준 용</w>
정 형</w>
정 지훈</w>
정 봉</w>
정 겹</w>
점 퍼</w>
절 대
전투 력</w>
전쟁 터</w>
전 우애</w>
전 기
적 막</w>
저 하</w>
저 스</w>
재 자</w>
장 악</w>
장 선</w>
장 대</w>
장 관</w>
잡 혀
잡 담</w>
잠 자리</w>
잠 입</w>
잠 기</w>
작 살
자 폭</w>
자 주
자 잘</w>
자 룡</w>
자 금</w>
임 성</w>
임 마</w>
일으 켰</w>
일기 장</w>
일 침</w>
일 일
일 승천</w>
일 수록</w>
인 자</w>
인 애</w>
익 스트림</w>
이천 희</w>
이루어 진다</w>
이 형</w>
이 해도</w>
이 한</w>
이 프</w>
이 인</w>
이 은
이 웃
이 영활</w>
응 사</w>
은 수</w>
은 서</w>
으 랴</w>
윤 두
육 감</w>
유부 단</w>
유 통</w>
유 불급</w>
유 발
유 물</w>
유 대</w>
윌 슨</w>
윈 튼</w>
위 태</w>
웨 어</w>
워 리어</w>
울 화통</w>
울 릴</w>
욱 일승천</w>
우 파</w>
우 짜</w>
우 유부단</w>
욕 정</w>
욕 되</w>
외 부</w>
왕 창</w>
왕 년</w>
올리 버스톤</w>
온 리</w>
오시 이</w>
오바 이트</w>
오 현민</w>
오 타</w>
오 이</w>
오 강호</w>
옜 날</w>
예 비
예 민</w>
예 견</w>
영 자</w>
였 으며</w>
열 폭</w>
열 증</w>
열 리</w>
연 약</w>
여 대생</w>
여 관</w>
엘 렌</w>
엔 진</w>
에디 머피</w>
에 피</w>
에 볼루션</w>
에 단</w>
에 구</w>
엌 ㅋㅋ</w>
었 는데</w>
엇 갈
엄 한</w>
엄 지</w>
엄 띄엄</w>
어리 숙</w>
어 드</w>
양 지</w>
야 징</w>
애쉬 튼</w>
애국 자</w>
애 플</w>
애 보</w>
애 도</w>
앙 심</w>
암흑 기</w>
알려 져</w>
알 프레
안전 벨트</w>
안재 모</w>
안 면</w>
안 내</w>
악 질</w>
악 의</w>
악 순환</w>
아파 하</w>
아낌 없</w>
아 픈
아 임</w>
아 베</w>
아 름</w>
아 라
쓰 이</w>
쑤 시</w>
쌓 이</w>
싸 지르</w>
십 수</w>
심심 풀이</w>
실베 스타</w>
실 이</w>
실 시간</w>
실 비아</w>
실 까</w>
신기 전</w>
신 디</w>
신 나고</w>
식 민지</w>
시 종</w>
시 방</w>
시 로</w>
시 력</w>
시 덥</w>
승 호</w>
슬퍼 지</w>
슬 쩍</w>
슬 로</w>
스폰 지</w>
스파르 타쿠스</w>
스탠 리</w>
스타 트렉</w>
스타 크래프트</w>
스타 일
스칼 렛
스칼렛 요한슨</w>
스 치</w>
숨 바
숨바 꼭
숨바꼭 질</w>
순 박</w>
수 화</w>
수 현</w>
수 거</w>
송 은채</w>
솟 구
손 톱</w>
손 은서</w>
손 목</w>
소 이현</w>
소 울</w>
소 오강호</w>
소 명</w>
소 고기</w>
셔 널</w>
세이 두</w>
세 련
성 일</w>
성 사</w>
선 하</w>
서 툴</w>
서 투
서 브</w>
서 론</w>
샤이 닝</w>
생 체</w>
생 사</w>
샘 레이미</w>
새끼 야</w>
살펴 보</w>
산 맥</w>
사와 지리</w>
사망 유희</w>
사 회상</w>
사 키</w>
사 우
삐 딱</w>
뿌 리
뽑 아내</w>
빨 려
빨 랑</w>
빡 이</w>
빠져 든</w>
비 키니</w>
비 정</w>
비 애</w>
비 례</w>
비 디오
불러 야</w>
불러 서</w>
불러 도</w>
분 열증</w>
분 방</w>
부질 없</w>
부러 워</w>
부 작용</w>
부 릉</w>
부 릉
부릉 부릉</w>
봉 만대</w>
볼품 없</w>
볼 트</w>
본 토</w>
보 험</w>
보 지</w>
보 안
벡 터맨</w>
베이 스</w>
베 니니</w>
범 람</w>
버 텼</w>
버 젓
밸 류</w>
백 조</w>
백 성현</w>
백 발</w>
배 종옥</w>
방 정</w>
발 이</w>
박희 순</w>
박 한</w>
박 민우</w>
바라 지</w>
밌 음
밀 폐</w>
민 가</w>
미드 나잇</w>
미 확인</w>
미 쳐서</w>
미 적
미 어지</w>
미 신</w>
물 타기</w>
물 으면</w>
물 려
문학 관</w>
무너 진</w>
무 전</w>
무 인도</w>
무 언</w>
무 심</w>
무 림</w>
무 기력</w>
몽 롱</w>
못 한다면</w>
몰아 넣</w>
몰 살</w>
모 양
명 목</w>
멸 종</w>
메이 퀸</w>
메 어</w>
멈 춰</w>
먹 힐</w>
맴 돈</w>
매 이</w>
맞 출
맞 짱</w>
망 울</w>
맛 나</w>
말 초</w>
말 랐</w>
만 찬</w>
막 걸리</w>
마 일
마 리오</w>
린 제이로한</w>
리 모
를 수록</w>
루 야</w>
루 나</w>
로보 트</w>
로 페즈</w>
로 치</w>
로 나</w>
로 구나</w>
렸 으면</w>
렬 히</w>
레이 트</w>
레 슬리</w>
럭 키</w>
러 진</w>
랑 머리</w>
랄 까요</w>
란 스</w>
라즈 베리</w>
라 클
라 던가</w>
라 니
라 기에</w>
라 고요</w>
띄 엄띄엄</w>
뛰 쳐</w>
똥 차</w>
딸 린</w>
딸 래미</w>
딴 따라</w>
따 져</w>
들여 다보</w>
들 으며</w>
들 썩
든 다고</w>
드라 이브</w>
드 린다</w>
드 류
드 레</w>
뒤 지</w>
두서 없</w>
두근 거림</w>
두 루
두 각
두각 시</w>
동물 농장</w>
동 명</w>
돌려 도</w>
돌 변</w>
돌 린</w>
독 고</w>
도 희</w>
도 취</w>
도 요
도 영</w>
덱 스터</w>
데이 비스</w>
데 레</w>
데 니스</w>
덩 크</w>
대여 점</w>
대 포</w>
대 판</w>
대 의</w>
대 응</w>
대 수</w>
대 국</w>
대 고</w>
당 사자</w>
답 답
담아 낼</w>
담 동</w>
달려 드</w>
달 프</w>
단 서</w>
단 력</w>
단 단</w>
닥 쳐</w>
닥 거리</w>
다코 타</w>
다른 데</w>
다니 요</w>
다 짜고짜</w>
다 주</w>
다 재</w>
다 워야</w>
다 릅니다</w>
다 룰</w>
다 드</w>
닉 쿤</w>
늘 려서</w>
는 지도</w>
느 닷
느 긋</w>
눌 렀</w>
눈 망울</w>
눈 가</w>
녹 여</w>
노 랑머리</w>
냉 장고</w>
내 안</w>
내 사</w>
내 림</w>
내 래</w>
낮 춰</w>
낮 출</w>
날카 로운</w>
날라 가</w>
날 짜</w>
날 릴</w>
날 뛰</w>
난 쟁이</w>
낙 하산</w>
나 빴</w>
나 물</w>
끝 냈으면</w>
끌어 들이</w>
끌려 가</w>
끈 적</w>
꾸 리</w>
꾸 러기</w>
꽃 뱀</w>
꽁 짜</w>
꼴 라</w>
꼭 지</w>
꼭 두각시</w>
꺄 아</w>
깽 판</w>
깨 금</w>
깔 깔</w>
까 대</w>
김정 태</w>
김소 은</w>
김 영애</w>
김 빠진</w>
김 광
길 들여</w>
기다 립니다</w>
기다 릴</w>
기 연</w>
기 성</w>
기 상
기 둥</w>
금 고</w>
글 래
그 해</w>
그 쪽</w>
그 린
그 네</w>
규 칙</w>
권 해</w>
굿 굿
굴 리</w>
굴 곡</w>
구태 의연</w>
구 한</w>
구 체</w>
구 리
구 두</w>
구 가</w>
광 태</w>
광 장</w>
광 신도</w>
광 고
과 유불급</w>
과 격</w>
공통 점</w>
공 인</w>
골드 버그</w>
고마 웠</w>
고 상</w>
고 봉</w>
고 모</w>
고 귀</w>
계 실</w>
경 심</w>
경 비</w>
경 비
결 재</w>
격 추</w>
겨 울
검 증</w>
건너 뛰</w>
건 들</w>
거 룩</w>
거 니와</w>
개 입</w>
개 유</w>
개 불</w>
개 거</w>
개 간지</w>
갖 췄</w>
강 해</w>
강 철중</w>
강 간
강간 범</w>
갑작 스럽</w>
갈 지</w>
갈 구</w>
간 츠</w>
간 과</w>
가져 왔</w>
가까 워</w>
가까 움</w>
가 학</w>
가 족
가 정부</w>
가 을
가 여</w>
가 닥</w>
가 늠</w>
가 가</w>
ㅠㅠ 너무</w>
ㅠ ㅡㅠ</w>
ㅗㅗ ㅗㅗ
ㅓ ㅓ
ㅐ ㅐ
ㅏ ㅏ
ㅋㅋㅋㅋ ㅋㅋㅋ</w>
ㅇㅇㅇㅇ ㅇㅇㅇㅇ
ㅇ ㄹ</w>
~! ^^</w>
~ ♥♥</w>
~ ^^*</w>
~ '</w>
wa ys</w>
w n</w>
w j
tra sh</w>
ti ful</w>
th um
t v
t ed</w>
sn l</w>
se e</w>
s er
r ou
per f
p ar
k tx</w>
k d
in g
i d</w>
i a</w>
eau tiful</w>
e ar
d l
d er</w>
d a</w>
an g</w>
a y</w>
a s</w>
^^ ♡</w>
^ *</w>
UF O</w>
S t
O h</w>
O TL</w>
L i
I P</w>
A NG</w>
? )
>> >>
; ..</w>
6 00</w>
3 8</w>
1 10</w>
0 5</w>
... (</w>
.. -_-;</w>
.. ,
., .,</w>
. /</w>
-- -</w>
,,,,,,,, ,,,,,,,,
' '
! ~~</w>
힘 없</w>
히 키코
히키코 모리</w>
희 일</w>
흡 입</w>
흠 집</w>
흘 림</w>
흐 를</w>
휘둘 리</w>
훑 어
훈 련
후 자</w>
후 아</w>
후 감</w>
황 폐</w>
활 력</w>
환 점</w>
확 대</w>
화 원</w>
화 난</w>
홍 기</w>
혼 혈</w>
호 퍼</w>
호 타루</w>
호 세</w>
호 벤</w>
협 상</w>
혈 전</w>
현 역</w>
현 대사</w>
헵 번</w>
헬 렌</w>
헤어 나올</w>
헤 드
험 담</w>
헌 법</w>
허수 아비</w>
허 지웅</w>
허 용</w>
행 하</w>
행 태</w>
행 중</w>
행 보</w>
했 을지도</w>
했 는데도</w>
해 프닝</w>
해 양</w>
해 보일</w>
해 보인다</w>
해 리스</w>
해 고</w>
항 우</w>
합 창</w>
합 당</w>
할 머님</w>
한예 리</w>
한 태</w>
한 스</w>
한 듯</w>
한 데요</w>
한 겨
하 워드</w>
하 비</w>
하 물
하물 며</w>
하 락
하락 세</w>
하 는
핀 란드</w>
피 할</w>
피 셔</w>
플 랜</w>
프랑 켄
퓨 처</w>
품 질</w>
표 기</w>
폭풍 우</w>
폭 력
페 킨
페킨 파</w>
팽 팽</w>
패 트릭</w>
패 닉</w>
패 널</w>
팔 자</w>
팔 린</w>
판 결</w>
파 탈</w>
파 크</w>
파 일
파 업</w>
파 가
파가 니니</w>
티 헌터</w>
트로 트</w>
트 위
트 레이
투 철</w>
투 어</w>
투 사</w>
퇴 장</w>
통 했</w>
토 해</w>
텐 슨</w>
텍 사스</w>
테 렌스</w>
텅 텅</w>
턱 대고</w>
태 왕</w>
태 상</w>
탈 피</w>
탁 구</w>
타 오르</w>
타 당</w>
타 고
킬 려고</w>
키 웠</w>
큰 일날</w>
퀄 러
콧 수염</w>
콘 택트</w>
콘 다</w>
코미 디언</w>
코 트</w>
코 토</w>
코 엔</w>
케이 크</w>
컨 트롤</w>
커 티스</w>
커 지</w>
캡 슐</w>
캐 빈</w>
칼 질</w>
카사 노바</w>
카메 라
카 톨릭</w>
카 고</w>
칭 송</w>
침 착</w>
치 병</w>
치 는</w>
츤 데레</w>
취 했</w>
충 성</w>
최 진
최 정윤</w>
총 집합</w>
총 리</w>
초 원</w>
체 스</w>
체 계</w>
청 담동</w>
첨 밀
첨밀 밀</w>
천 황</w>
천 군</w>
처 제</w>
채 팅</w>
창 작자</w>
창 욱</w>
착 취</w>
차 치</w>
찐 빵</w>
쪼 끔</w>
쪼 개</w>
쪼 가리</w>
쩡 히</w>
징징 거리</w>
질 나</w>
진 흙</w>
진 욱</w>
진 득</w>
진 동</w>
지하 실</w>
지난 주</w>
지 휘</w>
지 칠</w>
지 창욱</w>
지 진</w>
지 존
지 으며</w>
지 불</w>
지 멋대로</w>
지 망
지망 생</w>
지 를</w>
지 독
지독 히</w>
지 겨울</w>
지 갑</w>
즐 거</w>
중화 사상</w>
중 주</w>
중 앙</w>
중 동</w>
줏 대</w>
줄 줄이</w>
죽 여
주 영</w>
주 마</w>
주 드</w>
주 근
주근 깨</w>
주 간</w>
좔 좔</w>
좌 익</w>
종 결
종결 자</w>
조선 인</w>
조 종사</w>
조 센
조센 징</w>
조 만
조만 간</w>
젠 토</w>
제네 거</w>
제 쳐</w>
정선 경</w>
정 하</w>
정 정</w>
정 일
정일 우</w>
정 이</w>
정 의
정 두
정두 홍</w>
점 기</w>
전기 톱</w>
전 복</w>
전 미</w>
전 력</w>
전 남편</w>
전 날</w>
적 인</w>
저 질렀</w>
저 승</w>
저 속</w>
저 릿</w>
재밌 기만</w>
재 해</w>
재 하</w>
재 중</w>
재 인</w>
장미 인애</w>
장례 식</w>
장 모</w>
잡 음</w>
잖 니</w>
작 일</w>
작 곡</w>
자 폐</w>
자 알</w>
자 구요</w>
자 괴
자괴 감</w>
자 객</w>
자 각</w>
입 문</w>
입 대</w>
일으 킨다</w>
일 정</w>
일 전</w>
일 어서</w>
인 해서</w>
인 지도</w>
인 재</w>
인 심</w>
인 신
인 다는</w>
인 구</w>
인 걸</w>
이준 익</w>
이어 진다</w>
이어 진</w>
이어 주</w>
이병 훈</w>
이룬 다</w>
이따 금</w>
이기 주의</w>
이 원
이 슬</w>
이 송
이송 희일</w>
이 산
이 사
이 레</w>
이 랬
이 대
이 니
이 네</w>
이 길이</w>
이 규
이 고</w>
이 가
의미 심장</w>
의 문
의문 점</w>
은 커녕</w>
은 진</w>
으 스스</w>
으 란</w>
윤제 균</w>
윤두 준</w>
윤 성호</w>
유인 나</w>
유발 자</w>
유 해</w>
유 일
유 민</w>
유 다</w>
웽 크</w>
웨 스</w>
웨 볼</w>
원 정</w>
웅 얼</w>
웃 이</w>
움직 인다</w>
울 적</w>
울 고
우 웨볼</w>
우 베</w>
용 화</w>
용 하</w>
용 재</w>
용 소</w>
욕 해</w>
요 즈음</w>
외 로워</w>
왜냐 면</w>
왜 지</w>
왕 건</w>
왈 칵</w>
올라 갔</w>
온 다고</w>
옥 택연</w>
옥 상</w>
오른 쪽</w>
오락 가락</w>
오다 기리</w>
오 종</w>
오 미</w>
오 맹
오맹 달</w>
오 도
오 닐</w>
오 노</w>
예 여</w>
영화 계</w>
영 채</w>
영 주</w>
영 양
영 국인</w>
열 풍</w>
연금 술사</w>
연 화</w>
연 장선</w>
연 가시</w>
역겨 워서</w>
여성 상</w>
여 야지</w>
엠마 왓슨</w>
엘리 샤</w>
엘 프</w>
엘 렌
에 버</w>
에 미</w>
에 미
없 인</w>
업 체</w>
어지 러운</w>
어려 워서</w>
어딘 지</w>
어 진다</w>
어 져</w>
어 엉</w>
어 미</w>
어 머님</w>
어 그</w>
얘 긴지</w>
양 성</w>
양 다리</w>
야 이</w>
앵 앵
애 드
암 세포</w>
알렉산 더</w>
알 몸</w>
알 랭
않 되</w>
안타까 워서</w>
안재 욱</w>
안 톤</w>
안 이</w>
악 수</w>
악 덕</w>
아이 스크림</w>
아멜 리에</w>
아니 한가</w>
아나 콘다</w>
아 하하</w>
아 프
아 웅</w>
아 웅
아 웃
아 성</w>
아 녔</w>
씨 름</w>
씌 우</w>
쓰 인</w>
쏴 라</w>
썬 더</w>
써 놨</w>
싸 워</w>
싱 싱</w>
십자 가</w>
심리 학</w>
심 란</w>
심 경</w>
실 태</w>
실 증</w>
실 전</w>
실 재</w>
실 은</w>
실 신</w>
신경 질</w>
신 라</w>
식 장</w>
식 객</w>
시니 컬</w>
시 티헌터</w>
시 집</w>
시 즈</w>
시 요</w>
시 록</w>
시 러</w>
시 너지</w>
승 연</w>
슬 프
슬 램</w>
스폰 서</w>
스파이 크</w>
스트 셀러</w>
스타 킹</w>
스며 들</w>
스 프
스 윈튼</w>
스 모
스 나이
스나이 퍼</w>
슈 얼</w>
숭 숭</w>
숭 배</w>
숟 가락</w>
순 애보</w>
숙 정</w>
수 확</w>
수 트</w>
수 익</w>
수 요일</w>
수 레</w>
수 라</w>
수 동</w>
쇼 핑</w>
속 하</w>
소리 치</w>
소 제</w>
셔 터</w>
셀 프</w>
섹 슈얼</w>
세 편</w>
세 탁
성 훈</w>
성 추행</w>
섭 렵</w>
선 희</w>
선 호</w>
선 우
선 샤인</w>
선 덕
선 거</w>
섞 여서</w>
서 두</w>
서 니</w>
샬 롯</w>
새 나</w>
상 효</w>
상 작</w>
삽 니다</w>
살아 왔</w>
살아 났</w>
살 이</w>
살 려서</w>
산 부
산부 인과</w>
사회 주의</w>
사이 보그</w>
사무 실</w>
사나 운</w>
사 토미</w>
사 정봉</w>
사 자
사 살</w>
사 발</w>
사 명</w>
사 람
삘 이</w>
뻥 튀기</w>
뺴 고</w>
빨 간
빤 히</w>
빌어 먹</w>
빈 곤</w>
빅 토
비 장미</w>
비 밥</w>
비 들</w>
비 드</w>
블 린</w>
블 런트</w>
블 란
블란 쳇</w>
뷰티 풀</w>
불 태우</w>
불 치병</w>
불 안감</w>
북 극</w>
부러 진</w>
부러 움</w>
부러 울</w>
부끄러 워</w>
부끄러 움</w>
부 치</w>
부 자
부 엉
부 렸</w>
부 다
부 녀</w>
봣엇 는데</w>
봣 을까</w>
봣 는대</w>
봉 지</w>
본 보기</w>
복 합</w>
복 판</w>
보인 다는</w>
보디 가드</w>
보 호
보 합</w>
보 컬</w>
보 정</w>
보 이스</w>
보 세</w>
병 풍</w>
병 장</w>
별 명</w>
변 호인</w>
벤 에플렉</w>
베 스트셀러</w>
베 니</w>
베 껴</w>
벗 겨</w>
범 위</w>
벌 어진</w>
벌 거
버 텨</w>
버 들</w>
버 겁</w>
백 동수</w>
배 짱</w>
배 울까</w>
배 달
발 란스</w>
발 기</w>
박재 범</w>
박 철민</w>
박 건
바람 나</w>
바 칩니다</w>
바 쳐</w>
바 로
밋 지</w>
밀 양</w>
민 들
민들 레</w>
미적 지근</w>
미나 토</w>
미 혼</w>
미 터</w>
미 처</w>
미 약</w>
미 셸
미 셀</w>
미 세</w>
미 란</w>
미 경</w>
뭉 친</w>
물 러</w>
묻 힐</w>
문 어</w>
문 법</w>
묵묵 히</w>
묵 시록</w>
무협 지</w>
무지 막지</w>
무서 운데</w>
무너 졌</w>
무너 져</w>
무 턱대고</w>
무 성의</w>
무 늬</w>
무 감각</w>
못 됨</w>
몰 리</w>
모자 란다</w>
모양 새</w>
모래 시계</w>
모 인</w>
모 성</w>
명 확히</w>
명 함</w>
명 작
명 심</w>
면 서도</w>
메 카닉</w>
메 소드</w>
메 멘토</w>
멍 이</w>
멍 멍이</w>
멋 져서</w>
멋 쟁이</w>
멋 모르</w>
멀 쩡히</w>
맨 몸</w>
매 직</w>
매 수</w>
만 일</w>
만 듦
만듦 새</w>
만 다
막 혔</w>
막 장
마이클 잭슨</w>
마음 대로</w>
마 흔</w>
마 틸다</w>
마 카
마 침</w>
마 차</w>
마 네
립 스</w>
리모 컨</w>
리 포트</w>
리 콜</w>
리 듬</w>
리 다</w>
리 기</w>
릅 답
뤽 베송</w>
루 프</w>
루 저</w>
로드리게 스</w>
로 케</w>
로 인</w>
로 마
로 또</w>
로 니
로 건</w>
렌 지</w>
레 스
레 빗</w>
레 베
렁 이</w>
러시 안</w>
러 블</w>
랭 킹</w>
랭 보</w>
라스 베가스</w>
라 치</w>
라 오스</w>
라 뇨</w>
뜬 구름</w>
뜨거 워지</w>
뜨 린</w>
뛰쳐 나가</w>
뚜 기</w>
떨 려</w>
떠올 라</w>
떠오 름</w>
따 온</w>
따 른다</w>
디 질</w>
디 아이</w>
들여 다</w>
들 롱</w>
들 러리</w>
득 이</w>
드리 프트</w>
드라 이
드라 만데</w>
드 러</w>
뒤 엎</w>
됫 음</w>
되 돌릴</w>
돼 도</w>
동 서</w>
동 산</w>
동 사
동 방
돌이 킬</w>
독 재자</w>
도 피</w>
도 성</w>
도 마
도 도</w>
델 마</w>
데 인
데 여</w>
데 모</w>
덧 없</w>
덤 블</w>
더 미</w>
더 라고</w>
더 듬</w>
대 야</w>
대 동
달 력</w>
달 기</w>
단 속</w>
다가 갈</w>
다 채</w>
다 뤄</w>
다 님</w>
니 노</w>
능 글
는 진</w>
느닷 없이</w>
느 니만</w>
누 명</w>
누 릴</w>
놀 이터</w>
녹아 든</w>
노 잼</w>
년 도</w>
네 드</w>
넘어 섰</w>
냐 고요</w>
냅 두</w>
냄 새나</w>
낸 다는</w>
내 치</w>
내 밀</w>
내 레이션</w>
내 라</w>
남 훈</w>
난 사</w>
난 민</w>
난 동</w>
난 데</w>
난 강</w>
나이트 메어</w>
나온 다니</w>
나빠 요</w>
나 영
나 세</w>
나 불
나 눌</w>
끼 친</w>
끝 장
끝 자락</w>
끓 어
끌 림</w>
끈 질
끄 덕
꿋 꿋</w>
꾹 꾹</w>
꼴 통</w>
꼬 시</w>
껄 끄럽</w>
꺼 풀</w>
깜 깜</w>
깔 리</w>
까 불</w>
까 라</w>
깊숙 히</w>
김흥 수</w>
김기 련</w>
김 지훈</w>
김 유미</w>
김 영호</w>
김 석훈</w>
김 서
길 이길이</w>
기 봉</w>
기 덕</w>
기 네</w>
금 융</w>
금 성</w>
글 썽
근 접</w>
근 사</w>
그리 워진다</w>
그래 비티</w>
그 마</w>
그 랬
그 램</w>
귀 족</w>
권 유</w>
국 정원</w>
구 축</w>
구 용</w>
구 야</w>
구 슬</w>
구 숙정</w>
구 세주</w>
교 환</w>
교 육
교 도</w>
괘 씸</w>
관객 모독</w>
과 시</w>
공 범</w>
공 권력</w>
고스 톱</w>
고 용</w>
고 고
계 층</w>
계 보</w>
경 종</w>
경 박</w>
겸 비</w>
견 주</w>
격 렬</w>
겠 다고</w>
겉 핥</w>
검 찰</w>
걸 출</w>
걸 이형</w>
건 대</w>
거 하</w>
거 세</w>
거 미
거 론</w>
거 듭
개 체</w>
개 짱</w>
개 개</w>
강 점기</w>
강 이경</w>
강 대국</w>
감 시</w>
갈 이</w>
간 통</w>
간 질</w>
가져다 준</w>
가져 오</w>
가져 다가</w>
가 하</w>
가 입</w>
가 오</w>
ㅌ ㅌ
ㅉ ㄴ
~~~~~~~~ ~~</w>
~~ !
x xx</w>
wa t
w ow</w>
thum bs</w>
t a</w>
st ory</w>
s s
s m
rea l
real ly</w>
perf ect</w>
p tv</w>
p p
p la
oc k</w>
n o
n g</w>
ma de</w>
m u
m in
l a</w>
j u
it y</w>
il li
i m</w>
g od</w>
g en
for ever</w>
er o</w>
ea r</w>
ea d</w>
e l</w>
c o</w>
bo mb</w>
ar y</w>
a u
a r</w>
_ _
^ &
^& ^</w>
X XX</w>
UC C</w>
To p</w>
SN S</w>
SN L</w>
S A</w>
P TV</w>
OOOO OOOO
O ne</w>
O M
L OV
L L</w>
I S</w>
I PTV</w>
I N
E T</w>
A M</w>
@ !</w>
???????????????? ?????????</w>
?! ?</w>
= ;</w>
7 5</w>
7 4</w>
7 3</w>
6 3</w>
6 1</w>
5 4</w>
4 2</w>
199 3</w>
198 7</w>
12 00</w>
1010 10</w>
1 30</w>
00 000</w>
// //
................ ......</w>
... !!</w>
!!!!!!!!!!!!!!!! !!</w>
! ..</w>
히로스 에</w>
히로 시</w>
히가 시노</w>
히 나타</w>
흰 색</w>
희 노
희노 애락</w>
흥 했</w>
흘러 간</w>
흐 를수록</w>
휘 파
휘파 람</w>
후회 막심</w>
후 려</w>
후 다
후다 닥</w>
후 끈</w>
효 도</w>
회 피</w>
회 개</w>
활 짝</w>
환 한</w>
화 피</w>
화 점</w>
화 산</w>
화 두</w>
호 투</w>
호 충</w>
호 빵
호빵 맨</w>
혜 택</w>
형 상</w>
협 찬</w>
현 학</w>
현 존</w>
현 제</w>
현 장감</w>
혁 명
혀 진</w>
헤이 글</w>
헤어 졌</w>
헤 라클
헤라클 레스</w>
허 풍</w>
허 약</w>
행 사</w>
행 복
핵 폐기물</w>
해서 라도</w>
해 야죠</w>
해 부</w>
해 봐라</w>
해 몽</w>
할 렐
할렐 루야</w>
한 세아</w>
하하 하하하하</w>
하이 머</w>
하늘 나라</w>
하 점</w>
하 와이</w>
하 리수</w>
하 러</w>
하 두</w>
하 고
필 히</w>
필 로그</w>
필 력</w>
피식 피식</w>
피 조물</w>
피 에르</w>
피 쉬</w>
플래 닛</w>
플 레
플 러</w>
프리 미
프렌 치</w>
프렌 드</w>
퓨 타</w>
퓨 리</w>
풍 수</w>
풍 미</w>
풋 볼</w>
풀 렸</w>
표 시</w>
폴 리</w>
폭 도</w>
폭 격</w>
포 효</w>
평 할</w>
평 일</w>
펼쳐 진다</w>
편 리</w>
페티 쉬</w>
페 어리</w>
패배 자</w>
패러 다임</w>
패 리스</w>
파일 럿</w>
파라 다이스</w>
파 인즈</w>
파 이란</w>
틈 틈
트리 플</w>
트루 퍼스</w>
트 집</w>
트 로</w>
트 래</w>
튀어 나온</w>
튀 김</w>
퉁 퉁</w>
투 스</w>
투 게
투게 더</w>
통 증</w>
통 렬</w>
통 과</w>
토니 자</w>
토 모</w>
토 론</w>
텐 도</w>
테이 텀</w>
테레 사</w>
테레 비</w>
터 트
터 커</w>
터 닝</w>
택 했</w>
태 클</w>
태 기</w>
타쿠 야</w>
타 츠야</w>
타 자</w>
킬 리언</w>
킨 슨</w>
킨 다는</w>
키 키</w>
클로 즈</w>
클라이 맥스</w>
클 레</w>
크로 노스</w>
크레이 븐</w>
크 림</w>
크 라이</w>
퀴 들</w>
퀄러 티
코 빅</w>
켄 신</w>
케 리</w>
컬 킨</w>
커 트
커 스
캐 치</w>
캐 스퍼</w>
캐 롤</w>
캐 나다</w>
칼 리</w>
칼 라</w>
카메라 맨</w>
카 이지</w>
카 이거</w>
칠 맛</w>
친 딸</w>
치우 친</w>
치 켜
치 워</w>
치 아키</w>
츠 비</w>
취 한다</w>
취 약</w>
충 고</w>
출 세
춘 추</w>
추 천
추 노</w>
최진 혁</w>
최재 성</w>
최 하점</w>
최 영</w>
촛 불</w>
촘 촘</w>
초 초</w>
초 인</w>
초 래</w>
초 난강</w>
쳐 넣</w>
청 초</w>
청 소</w>
철 학자</w>
철 도</w>
천 배</w>
천 둥</w>
처 단</w>
채 니</w>
찾아 내</w>
창 작
창 력</w>
창 대</w>
차 릴</w>
찌 찌</w>
찌 든</w>
찌 그러
쫒 기</w>
쫄 깃
쫄깃 쫄깃</w>
짱 꼴라</w>
짜 여
짜 르트</w>
징글 징글</w>
짓 밟</w>
집 애</w>
집 념</w>
짐 머</w>
질 지</w>
질 병</w>
질 렸</w>
진짜 루</w>
진 이한</w>
진 세연</w>
직 행</w>
직 면</w>
지존 파</w>
지 휘
지 호</w>
지 평</w>
지 켰</w>
지 운</w>
지 안</w>
지 냈</w>
지 급</w>
지 각</w>
증 폭</w>
즐 긴</w>
중 화</w>
줄리 델피</w>
줄 였</w>
줄 어들</w>
줄 곧</w>
주 지</w>
주 아</w>
주 된</w>
종 로</w>
종 려
좀 처럼</w>
존 자</w>
존 엄
족 하</w>
조세 호</w>
조나 단</w>
조 자룡</w>
조 우</w>
조 성
제임스 딘</w>
제 이미
제 게</w>
정치 판</w>
정 혜</w>
정 찬</w>
정 웅
정웅 인</w>
정 열</w>
정 승
정 다
접 해</w>
점 쟁이</w>
절 망감</w>
절 단</w>
전 환점</w>
전 향</w>
전 함</w>
전 진</w>
전 주</w>
전 장</w>
전 우</w>
전 술</w>
전 성
전 미선</w>
전 능</w>
저 지</w>
저 무어</w>
저 력</w>
재미 있
재 우</w>
장 풍</w>
장 병</w>
장 물</w>
장 래</w>
잡 스러운</w>
잘 린</w>
잘 리</w>
잖 어</w>
잔 소리</w>
작 년도</w>
자폐 아</w>
자 지</w>
자 지
자 비에
자 민</w>
자 랐</w>
잊어 버리</w>
입 사</w>
임 은경</w>
임 순례</w>
일일 이</w>
일본 군</w>
일그러 진</w>
일 지도</w>
일 자리</w>
일 어</w>
일 루
일 곱</w>
인신 매매</w>
인생 관</w>
인 스</w>
인 데도</w>
이해 관계</w>
이토 준지</w>
이완 맥그리거</w>
이어 폰</w>
이수 혁</w>
이상 윤</w>
이상 아</w>
이기 우</w>
이기 광</w>
이건 모</w>
이 휘
이 홍기</w>
이 쪽</w>
이 윤
이 분
이분 법</w>
이 무
이 만
이 른</w>
이 뤘</w>
이 당</w>
이 끼</w>
의 사
의사 소통</w>
응 답</w>
응 급</w>
음악 가</w>
음 증</w>
을 진</w>
을 지라도</w>
을 꼬</w>
을 가</w>
은 디</w>
으이 그</w>
으이 구</w>
으니 라구</w>
으니 까요</w>
으 아아아아</w>
윤 회</w>
윤 여정</w>
윤 상현</w>
유명 세</w>
유리 창</w>
유 주얼</w>
유 주</w>
유 정</w>
유 영</w>
유 어</w>
유 심히</w>
유 로</w>
유 두</w>
유 다인</w>
위노 나</w>
위 함</w>
위 반</w>
웰 컴</w>
월 트</w>
월 터</w>
월 버그</w>
월 급</w>
원 어</w>
워 짐</w>
워 드
웃 겨야</w>
웁 니다</w>
움 찔</w>
우 화</w>
우 현</w>
우 유</w>
우 우</w>
우 매</w>
우 겨우</w>
욬 ㅋㅋㅋ</w>
용 납</w>
욕 심
요 오</w>
외 울</w>
왤 케
완 치</w>
완 득이</w>
와 핑</w>
옮 긴</w>
올라 와</w>
올라 간</w>
오다기리 조</w>
오 현경</w>
오 예</w>
오 르
오 디오</w>
예비 군</w>
예 리</w>
염 두</w>
열 등
열등 감</w>
연 휴</w>
연 우</w>
연 신</w>
연 개
연개 소문</w>
여 화</w>
여 줌</w>
여 주
여 덟</w>
엘렌 페이지</w>
엘 라</w>
엔 터</w>
엔 블루</w>
엑 기스</w>
에이 스</w>
에이 브
에드 워드
에 필로그</w>
에 타</w>
얽 혀</w>
얼 짱</w>
얼 릉</w>
얼 라</w>
얼 굴
억 불</w>
어벤 저스</w>
어떻 하</w>
어 택</w>
어 욧</w>
어 야
어 쌔
어쌔 신</w>
어 난다</w>
얘 길</w>
얘 긴데</w>
얘 긴</w>
양 사</w>
야야 야</w>
야 설</w>
야 간</w>
앵 무
앵무 새</w>
애 플렉</w>
애 프
애 완
애 리</w>
애 나
애나 벨</w>
앞 두</w>
앜 ㅋ</w>
알려 졌</w>
알 바
안쓰 러운</w>
안 토니
안 중</w>
안 나
아시 아인</w>
아버 님</w>
아들 놈</w>
아닐 지라도</w>
아네 트</w>
아 효</w>
아 원</w>
아 스
아 만다
아 른</w>
아 드레
아드레 날린</w>
아 고</w>
씨 엔블루</w>
쑤 셔</w>
써 야지</w>
싸 운</w>
싸 그리</w>
싱 그러
십 계</w>
실 타</w>
실 속</w>
신성 록</w>
신 유주</w>
신 사
신 격
신격 화</w>
식 탁</w>
시노 부</w>
시 퍼</w>
시 카고</w>
시 청
시 비</w>
시 베
시베 리아</w>
시 릴</w>
시 라노</w>
시 드</w>
승 기</w>
습 니다만</w>
슬퍼 하</w>
스트 레이트</w>
스튜 디오</w>
스토 킹</w>
스태 프</w>
스타 트</w>
스타 샤</w>
스 와핑</w>
스 부르</w>
스 네이
스 너
스너 프</w>
슈 마
슈마 허</w>
숙 연</w>
숙 명</w>
수 표</w>
수 컷</w>
수 영장</w>
수 사
수 려</w>
손 수건</w>
손 병
손병 호</w>
속 옷</w>
속 성</w>
속 삭
소 판</w>
소 멸</w>
셀 마</w>
세 훈</w>
세 종</w>
세 인</w>
세 미</w>
성 제</w>
성 매매</w>
성 대
성 급</w>
섬 기</w>
설 희</w>
설 쳐</w>
설 령</w>
선덕 여왕</w>
선 셋</w>
선 보이</w>
선 리</w>
선 댄스</w>
선 곡</w>
서 독</w>
생 존자</w>
생 아</w>
생 물
삽 시다</w>
삼 각
살 피</w>
살 구</w>
산 책</w>
산 산
산 다고</w>
사회 생활</w>
사 하</w>
사 채</w>
사 역</w>
사 실상</w>
사 비</w>
사 노</w>
사 격</w>
삐 리</w>
뻐 꾸
뻐꾸 기</w>
빼앗 긴</w>
빼앗 기</w>
빌 려
빈 센트</w>
빅토 리아</w>
비 지
비 위</w>
비 웃음</w>
비 아
비 단</w>
블 랑
브로 드
브레이 커</w>
불 운</w>
불 능</w>
불 나</w>
분 통</w>
분 리
분리 수거</w>
분 다</w>
분 과</w>
북 미</w>
부엉 이</w>
부다 페스트</w>
부 턴
부 숴</w>
부 상</w>
부 림
부 대원</w>
봣 지만</w>
봣 다가</w>
봣 는데도</w>
봣 나</w>
봐 야
봉 인</w>
볼 만</w>
본 업</w>
본 분</w>
보 전</w>
보 이즈</w>
보 관</w>
변 한다</w>
변 종</w>
변 기</w>
벨 류</w>
벤 자민</w>
벤 더</w>
베이 싱어</w>
번 뜩
벅 차오르</w>
버젓 이</w>
버 호벤</w>
뱅 크</w>
배 포</w>
배 움</w>
방 면</w>
발 한다</w>
발 작</w>
발 자국</w>
발 산</w>
발 머리</w>
발 렌
발 레
발 굴</w>
반 찬</w>
반 반</w>
박용 하</w>
박성 웅</w>
박건 형</w>
박 서준</w>
바라 볼</w>
바닷 가</w>
바 론</w>
바 랐</w>
바 도</w>
바 뀐
바 꾼다</w>
밌 었
밀리 터리</w>
미 움</w>
미 쉘</w>
미 성숙</w>
미 뤄</w>
미 라
미 나</w>
뭐 한</w>
물 려</w>
묻 혔</w>
문 정희</w>
문 어
무서 운지</w>
무너 뜨리</w>
무 정</w>
무 교</w>
못 합니다</w>
못 내</w>
몸 부림
몰 카</w>
목 요일</w>
모 짜르트</w>
모 기</w>
명 료</w>
명 랑</w>
멜 라니</w>
메 타
머 드</w>
맹 물</w>
맥 아더</w>
매 춘</w>
매 도</w>
매 너
매너 리즘</w>
매 긴</w>
매 그
매 개체</w>
맞출 려고</w>
망 측</w>
맛 집</w>
맘 속</w>
말라 야</w>
말 자</w>
말 레나</w>
말 랑</w>
만 리</w>
막 대</w>
막 길</w>
막 가</w>
마지 막
마이 애미</w>
마음 씨</w>
마네 킹</w>
마 코토</w>
마 일</w>
마 술사</w>
마 성</w>
마 샬</w>
립 시다</w>
리차 드기어</w>
리즈 위더스푼</w>
리더 십</w>
리 노</w>
리 나
리 개</w>
른 다고</w>
류 탄</w>
류 에</w>
룰 렛</w>
루 루</w>
로빈 윌리암스</w>
로그 인한</w>
로 튼</w>
로 케이션</w>
로 저무어</w>
로 비</w>
로 고</w>
려 는데</w>
려 고요</w>
레오 네</w>
레베 카</w>
레 파</w>
레 트</w>
레 먼</w>
렇 게
런 타임</w>
런 가</w>
러시아 워</w>
래 빗</w>
랄 랄라</w>
라이 징</w>
라 퓨타</w>
라 빈</w>
라 니깐</w>
라 는지</w>
뜨 릴</w>
뛰쳐 나왔</w>
뛰쳐 나오</w>
뛰어 남</w>
떨어 진다고</w>
떠 다니</w>
땡 겨</w>
땟 을까</w>
때 기</w>
따라 갔</w>
따라 감</w>
따 왔</w>
따 귀</w>
디 센트</w>
들어 라</w>
들 썩</w>
드러 났</w>
드 려서</w>
드 니</w>
뒷 심</w>
뒤 돌</w>
둘러 싼</w>
두려 워하</w>
동방 신기</w>
동 학</w>
동 력</w>
독 교</w>
도망 자</w>
도망 갈</w>
도마 뱀</w>
도 화
도 로
도 나</w>
데 니
덜 하</w>
덜 떨어진</w>
던 디</w>
던 대</w>
덕 션</w>
더럽 히</w>
더라 구여</w>
더 프</w>
더 위</w>
더 없이</w>
대장 금</w>
대 선</w>
대 사도</w>
대 문</w>
대 목</w>
대 놓</w>
대 나</w>
대 국민</w>
당 해서</w>
달 팽이</w>
단 발머리</w>
단 발</w>
다이 아</w>
닐 라</w>
닌 텐도</w>
니 티</w>
니 스트</w>
느껴 본</w>
뉴 하트</w>
눌 린</w>
누 군</w>
놓 쳐서</w>
노 조</w>
노 장</w>
노 선</w>
년 놈</w>
네 일</w>
네 오</w>
넝 쿨</w>
넘 김</w>
널 렸</w>
냅 시다</w>
내세 울</w>
내리 막길</w>
내 장</w>
내 눈
낭 자</w>
남 장</w>
날아 갔</w>
날 조</w>
날 라리</w>
난데 없</w>
난 히</w>
나타 냈</w>
나올 땐</w>
나빠 서</w>
나 아요</w>
나 빠지</w>
나 르</w>
나 니</w>
끝 낸</w>
끓 여</w>
끌어 당기</w>
꾸밈 없이</w>
꽁 치</w>
꼼 꼼</w>
꼭 꼭</w>
꼬 여서</w>
꼬 여</w>
껴 안</w>
껄 껄</w>
꺼 려</w>
깨 물</w>
깃 든</w>
김희 애</w>
김정 일</w>
김상 중</w>
김기 영</w>
김 예림</w>
김 봉
김 보
김 밥</w>
김 남주</w>
긴 하</w>
기 중</w>
기 시
기 복</w>
기 막히</w>
기 른</w>
기 로</w>
기 남</w>
기 꺼이</w>
기 광</w>
급 한</w>
금 기</w>
글 귀</w>
극 영화</w>
극 명</w>
그림 판</w>
그려 졌</w>
그런 가요</w>
그라 드</w>
그 름</w>
그 니까</w>
그 늘</w>
귀 하</w>
굴 레</w>
군 부</w>
군 복</w>
군 단</w>
국 사</w>
구석 구석</w>
구로 자와</w>
구 단</w>
구 글</w>
괜 찬</w>
괄 호</w>
관람 자</w>
관 중</w>
관 전</w>
관 음증</w>
관 록</w>
공중 전</w>
공 작</w>
공 들인</w>
고마 움</w>
고 양</w>
고 아</w>
고 무</w>
고 라도</w>
고 구려</w>
고 객</w>
계 산</w>
경찰 서</w>
경 제
견 해</w>
겨 우겨우</w>
겨 누</w>
게 일</w>
게 나</w>
겉 모습</w>
걸 치</w>
걸 루</w>
거 야</w>
갱 스부르</w>
객 기</w>
개인 차</w>
개 코</w>
개 살구</w>
개 드립</w>
개 구
강 윤재</w>
강 성재</w>
강 변</w>
강 물</w>
갔다 오</w>
값 어치</w>
감상 문</w>
감 칠맛</w>
갈 라
간 판</w>
간 부</w>
각본 상</w>
가지 가지</w>
가져 온</w>
가위 질</w>
가라 앉</w>
가 트</w>
가 톨릭</w>
가 창력</w>
가 증</w>
가 엾</w>
가 연</w>
가 실</w>
가 련</w>
가 다</w>
가 구</w>
ㅜㅜ ㅜㅜㅜ</w>
ㅋㅋㅋㅋㅋㅋㅋㅋ ㅋㅋㅋ</w>
ㅉㄴ ㅉㄴ
ッ ク
ック ス</w>
セ ックス</w>
♥♡ ♥</w>
~♥ ~♥
~ `</w>
~ ^^
~ ??</w>
~ ,</w>
~ (</w>
~ "</w>
~ !!!!!</w>
~ !!
you r</w>
uc c</w>
tr l</w>
to o</w>
t m
st er</w>
so me</w>
sh it</w>
sd f
s si
ri ght</w>
p re
p h
p e
p art</w>
on na</w>
on g</w>
l es</w>
k r</w>
k f
k a
j y
j ust</w>
ga in</w>
f i
e y
e very
e h
d f
bo dy</w>
be tter</w>
an g
al ways</w>
al ly</w>
^^ .</w>
^* ^</w>
W or
T wo</w>
N ot</w>
M A
L O
I T</w>
H D</w>
G TA</w>
E E
C ar
B O
B A</w>
???? ???</w>
;;;;;;;;;;;; ;;;;;</w>
;; ;
7 0
6 4</w>
5 18</w>
5 000</w>
22 22
197 7</w>
1 0000
.? .?
................ .....</w>
. ^^
. -_-;</w>
-_- ..</w>
, ...</w>
+ +
** *</w>
' ,</w>
"" ,</w>
!!!!!!!! !!!!!!!</w>
!! ♥
! ~</w>
! (</w>
! ""</w>
힘 입</w>
힐 러
힌 트</w>
히 말라야</w>
흥 행
흥 얼거리</w>
흥 겨
흙 탕</w>
흐 리</w>
휩 쓸
휘두 르</w>
훑어 보</w>
훌 륭
후 훗</w>
후 리</w>
효 종</w>
회 중</w>
회 원</w>
회 가</w>
황금 기</w>
황 진</w>
황 시
홧 팅
홥 니다</w>
활 력
활력 소</w>
확 실이</w>
화 요일</w>
화 문</w>
화 감</w>
홍 자매</w>
홀 릭</w>
혜 련</w>
형편 없이</w>
협 주곡</w>
혐 한</w>
헤어 나오</w>
헤 헤헤</w>
허 트</w>
허 탈
허탈 감</w>
허 위</w>
허 울</w>
허 설</w>
행 한</w>
행 진</w>
했 어여</w>
햇 빛</w>
해 줘도</w>
해 줘</w>
해 영</w>
해 본</w>
해 병</w>
해 다</w>
합 체</w>
합 니다만</w>
한물 갔</w>
한 복</w>
한 드</w>
한 결
한결 같이</w>
한 건데</w>
학 력</w>
하드 보일
하드보일 드</w>
하나 경</w>
하 프</w>
하 인</w>
하 심</w>
하 수구</w>
하 반기</w>
하 리</w>
하 등</w>
필 사</w>
핀 스</w>
픽 업</w>
피 비
플레이 어</w>
플라 스틱</w>
플 까</w>
프로 덕션</w>
프랑켄 슈타인</w>
프 라이
풀 릴</w>
푸 르</w>
폴 더</w>
폰 트리에</w>
포 핀스</w>
포 장
폐 쇄
폐 기</w>
폐 가</w>
평 민</w>
편 해</w>
펠 레</w>
페 지</w>
페 리스</w>
페 드로</w>
펀 지</w>
퍼 드</w>
패 륜</w>
패 로우</w>
팡 이</w>
팔 로</w>
파 리스</w>
파 랑
파 급</w>
틴 토</w>
티 플러</w>
티 아</w>
티 머스</w>
틀 맨</w>
트 리스
트리스 탄</w>
트 로우</w>
트 라이
트라이 앵글</w>
투 비</w>
토 탈</w>
토 가</w>
텔레 비전</w>
텐 데요</w>
테 크</w>
테 오</w>
털 린</w>
터 빈</w>
태 평양</w>
태 자</w>
태 생</w>
탈 옥</w>
탄 성</w>
타임 캡슐</w>
타 스</w>
타 로</w>
타 국</w>
키 득
키 나</w>
클 론</w>
크리스토 퍼
크리스 틴
크리스 챤</w>
크 루
쿠 스트리
쿠스트리 차</w>
쿠 라</w>
콩 콩
콜라 보</w>
코 지</w>
코 웃음</w>
코 스</w>
코 만도</w>
커 쳐</w>
커 졌</w>
커 너
커너 히</w>
캐 서
캐서 린
캐 머
칼 날</w>
카우 보이</w>
침 침</w>
침 입</w>
치 정</w>
치 워라</w>
치 사</w>
츠 카
춰 서</w>
출 소</w>
춘 몽</w>
추 상미</w>
최종 병기</w>
최고 점</w>
최 양
최 동
총 소리</w>
초 이스</w>
초 속</w>
초 상</w>
초 사</w>
체 하</w>
청 객</w>
철 부지</w>
천하 무적</w>
천 추</w>
천 외</w>
천 식</w>
천 선</w>
처 하</w>
처 진다</w>
처 량</w>
채 식</w>
찾아 다니</w>
찾 기</w>
참 젖</w>
참 극</w>
찰 진</w>
찬 물</w>
착 륙</w>
찌 릿</w>
쫒 아가
쪽팔 려</w>
짜 린데</w>
질 수록</w>
질 릴</w>
질 르</w>
진 흙탕</w>
진 저</w>
진 아</w>
진 시
진 건</w>
지켜 봐야</w>
지리 한</w>
지나 쳐서</w>
지 탱</w>
지 친다</w>
지 지리</w>
지 장</w>
지 워야</w>
지 배
지 문</w>
지 뢰</w>
지 드래곤</w>
지 녔</w>
쥬 리</w>
쥐 새끼</w>
줫 나</w>
중 충</w>
준 이</w>
죽 여라</w>
주 한</w>
주 책</w>
주 절</w>
주 저리</w>
주 저
주 옥</w>
주 범</w>
주 노</w>
주 교</w>
좌 우</w>
종 범</w>
존엄 성</w>
존레 논</w>
존 박</w>
족 보</w>
조 현재</w>
조 여</w>
조 엘</w>
조 언</w>
조 류</w>
조 단</w>
조 강지
조강지 처</w>
졋 음</w>
졋 다</w>
젠 틀맨</w>
젠 장
제 비</w>
제 끼</w>
정승 필</w>
정 은</w>
정 은
정 소동</w>
정 선</w>
점 철</w>
절 절히</w>
전쟁 물</w>
전수 전</w>
전성 시대</w>
전 해진다</w>
전 지</w>
전 임</w>
전 영
전영 록</w>
전 수</w>
전 물</w>
전 계</w>
전 경</w>
적 정</w>
저격 수</w>
저 질러
저 작</w>
저 음</w>
저 며</w>
쟁 호투</w>
잭 니콜슨</w>
재미 났</w>
재 범</w>
재 발</w>
재 민</w>
장미 희</w>
장 춘몽</w>
장 본인</w>
장 벽</w>
장 발</w>
장 모님</w>
장 률</w>
장 려</w>
장 단</w>
장 남</w>
장 관리</w>
장 강</w>
잡 힐</w>
잡 혔</w>
잡 혀서</w>
잔 다르
잔다르 크</w>
작살 나</w>
작 단</w>
작 가
자연 재해</w>
자비에 돌란</w>
자 초</w>
자 씨</w>
자 손</w>
자 분</w>
자 부심</w>
자 문</w>
자 무
자 멸</w>
자 만</w>
자 라나</w>
자 도</w>
자 길</w>
잊어 버린</w>
입 힌</w>
입 히</w>
입 원</w>
입 소문</w>
입 김</w>
임 주
임 달
임달 화</w>
일루 미나
일루미나 티</w>
일 편</w>
일 테</w>
일 장춘몽</w>
일 개</w>
인공 지능</w>
인 형
인 질</w>
인 어
인어 공주</w>
인 수</w>
인 베이
인 들</w>
인 거</w>
이지 스</w>
이종 수</w>
이영 아</w>
이승 철</w>
이소 라</w>
이상 준</w>
이산 가족</w>
이무 영</w>
이리 도</w>
이기 전</w>
이경 실</w>
이경 규</w>
이가 흔</w>
이 즈미</w>
이 정도</w>
이 응
이응 경</w>
이 온</w>
이 얌</w>
이 식</w>
이 비</w>
이 를</w>
이 룩</w>
이 도</w>
이 단</w>
이 니</w>
이 꺼이</w>
이 긴다</w>
이 겨
이 건가</w>
의 천</w>
의 서</w>
응 보</w>
음악 회</w>
음 주
음 양사</w>
을 려면</w>
을 까
은 행
으 하하</w>
으 앙</w>
으 로선</w>
으 라</w>
윤 도현</w>
육 식</w>
유 하</w>
유 태</w>
유 추</w>
유 유
유 용</w>
유 비</w>
유 모</w>
유 린</w>
유 년기</w>
유 경</w>
윌 리</w>
위 화감</w>
위 조</w>
위 드</w>
웠 으면</w>
월 애</w>
월 래</w>
원 투</w>
원 참</w>
원 영
원 시인</w>
원 소</w>
워 져</w>
워 낙
워낙 에</w>
웅 얼
울 딸</w>
운 석</w>
우에 노</w>
우에 노
우 하</w>
우 피</w>
우 직</w>
우 중충</w>
우 승자</w>
우 뢰</w>
욬 황시
용 쟁호투</w>
용 임</w>
용 암</w>
용 량</w>
욕 탕</w>
욕 보이</w>
요 상</w>
요 것</w>
왜 놈</w>
왕 좌</w>
왕 족</w>
왕 조</w>
왈 가
완 다</w>
와일 드
와 장창</w>
와 와</w>
옵 티머스</w>
올 라서</w>
온 다면</w>
옥 수수</w>
오래 전</w>
오락 실</w>
오드리 햅번</w>
오다기리 죠</w>
오 토</w>
오 잉</w>
오 멘</w>
오 렌지</w>
오 나</w>
오 구리
오구리 슌</w>
예 찬</w>
예 약</w>
예 수
예 비</w>
예 르
예르 모</w>
영화 학</w>
영화 상</w>
영 춘</w>
영 영</w>
였 으니</w>
염 소</w>
열 전</w>
열 심</w>
열 사</w>
연 이</w>
연 습
연 산
연산 군</w>
연 길</w>
연 가</w>
엮 이</w>
역 사관</w>
여행 기</w>
여 민정</w>
여 기자</w>
여 구</w>
엠마 뉴
엠마뉴 엘</w>
엘 지</w>
에스 티</w>
에드워드 노튼</w>
에 덴</w>
엊 그
업 고</w>
얼 어
얼어 붙</w>
얼 씬</w>
얼 빵</w>
어리 둥
어리둥 절</w>
어루 만져</w>
어떤 가</w>
어두 워</w>
어 서요</w>
어 버
어 물</w>
어 뜨
어뜨 케</w>
어 데
양 화</w>
양 채니</w>
얌 전</w>
약 혼자</w>
야 했</w>
야 비</w>
야 로</w>
앳 킨슨</w>
앳 된</w>
애프 터</w>
애처 롭</w>
애드 리언</w>
애니 메</w>
애 로</w>
애 라</w>
앞 머리</w>
앙 스</w>
알 아먹</w>
알 란</w>
안젤 리나
안젤리나 졸리</w>
안쓰러 울</w>
안 주</w>
안 리</w>
안 대</w>
안 기</w>
악 동</w>
악 관</w>
아이언 스</w>
아우 르</w>
아마 겟
아마겟 돈</w>
아름다움 의</w>
아르 젠토</w>
아니 야</w>
아나 키
아 톰</w>
아 즈</w>
아 재</w>
아 워</w>
아 영</w>
아 스트</w>
아 스</w>
아 수라</w>
아 세요</w>
아 미</w>
아 론</w>
씨 부리</w>
쓰러 질</w>
썩 소</w>
싸 워서</w>
싱 글</w>
심 할</w>
심 상</w>
심 문</w>
실 황</w>
실 행</w>
실 지</w>
실 주의</w>
실 실</w>
실 마리</w>
신기 신</w>
신 용</w>
신 영</w>
신 앙심</w>
시 행</w>
시 킬려고</w>
시 전</w>
시 자</w>
시 월애</w>
시 에
시 설</w>
시 상식</w>
시 르</w>
시 디</w>
시 댁</w>
시 다
시 끌
시끌 벅
시 고니</w>
승 리자</w>
승 려</w>
슬픈 지</w>
슬픈 데</w>
슬 럼
스펙 트</w>
스파 게
스파게 티</w>
스트 라이
스터 링</w>
스타 덤</w>
스카이 폴</w>
스 펀지</w>
스 패로우</w>
스 판</w>
스 컬리</w>
스 미</w>
스 다</w>
슈퍼 카</w>
슈 왈
쉴 새
쉴새 없이</w>
쉬 워</w>
술 술</w>
순 풍</w>
순 금</w>
숙 희</w>
숙 모</w>
수목 드라마</w>
수 용소</w>
수 아</w>
수 부대</w>
수 법</w>
수 류탄</w>
수 련</w>
손 대</w>
손 님</w>
속 마음</w>
소설 가</w>
소비 자</w>
소 현</w>
소 총</w>
소 매
소 림</w>
소 령</w>
소 년
세 일</w>
세 상사</w>
세 바
세 드</w>
성 행위</w>
성 통곡</w>
성 적
성 원</w>
성 우진</w>
성 난</w>
설 익</w>
설 렌
설렌 다</w>
선 행</w>
선 비</w>
선 량</w>
석 구</w>
서투 르</w>
서글 프</w>
서 현</w>
서 운</w>
서 여</w>
서 스펙트</w>
서 미</w>
서 랜
서랜 든</w>
샤를 리즈
샤를리즈 테론</w>
샤 아</w>
생 김새</w>
생 계</w>
색 체</w>
상 통</w>
상 책</w>
상 증</w>
상 쇄</w>
상 반</w>
상 금</w>
삼 키</w>
삼 생</w>
살 릴
산 전수전</w>
산 고</w>
사회 악</w>
사이 버</w>
사이 다</w>
사 히</w>
사 항</w>
사 의</w>
사 실주의</w>
사 슴</w>
사 병</w>
사 명
사명 감</w>
사 료</w>
사 드</w>
사 귄</w>
사 공</w>
삐뚤 어진</w>
쁜 지</w>
뿜 어내</w>
뻔 한데</w>
빨 아먹</w>
빨 랐</w>
비디오 방</w>
비 토</w>
비 고</w>
블 링</w>
블 룸</w>
블 루스</w>
브리 지스</w>
브룩 쉴즈</w>
브로드 웨이</w>
브로 큰</w>
브레이 킹</w>
브랜 든
브라 운</w>
브 릿</w>
불 쾌감</w>
불 상</w>
불 사</w>
불 복</w>
불 리우</w>
불 량
불 감
불감 증</w>
분 리</w>
북 유럽</w>
부턴 가</w>
부탁 드립니다</w>
부 셔
부 세미</w>
부 문</w>
봣 어요
봣 는
봐 도
봄 날</w>
볼 려구</w>
볼 래요</w>
복 구</w>
보일 려고</w>
보여 도</w>
보안 관</w>
보 아
보 물
보 구</w>
보 가트</w>
병 역</w>
병 아리</w>
병 든</w>
변 환</w>
변 치</w>
변 덕</w>
벤 스틸러</w>
베네 딕
베 아르</w>
벌 인</w>
벌 여</w>
벌 벌</w>
번뜩 이</w>
버 릴까</w>
뱃 속</w>
백 화점</w>
배 워서</w>
배 웁니다</w>
배 설</w>
배 부른</w>
배 리</w>
방 콕</w>
방 청객</w>
방 위</w>
밤 중</w>
발버 둥
발버둥 치</w>
발 현</w>
발 발</w>
반짝 반짝</w>
반 칙</w>
반 정부</w>
반 사</w>
박살 내</w>
박 형식</w>
박 혔</w>
바티 스타</w>
바 친다</w>
바 닐라</w>
밀 레니
밀레니 엄</w>
민 혁</w>
민 간</w>
미야자 키
미스 코리아</w>
미 트</w>
미 소녀</w>
미 세스</w>
미 디</w>
뮤 츠</w>
뭘 까요</w>
뭐 니</w>
뭐 니
뭐니 뭐니</w>
물리 학</w>
물 음</w>
물 귀신</w>
물 감</w>
무지 무지</w>
무거 워</w>
무거 우</w>
무 안</w>
무 더운</w>
무 난히</w>
몽 상가</w>
몽 상</w>
몸 뚱
몰 아주</w>
몰 려</w>
몰 라라</w>
목 걸이</w>
모자 른</w>
모아 놨</w>
모 았</w>
모 사</w>
모 건
모건 프리먼</w>
명 연</w>
면 허</w>
면 목</w>
면 도</w>
멱 살</w>
메이 커</w>
메리 다</w>
메 탈</w>
메 식</w>
메 시</w>
메 모리</w>
메 달</w>
멀 티</w>
머리 통</w>
머 나
매튜 본</w>
매 운
매 들린</w>
매 달리</w>
매 니</w>
망쳐 버렸</w>
망 인</w>
망 상증</w>
망 가졌</w>
만든 다면</w>
만 듭니다</w>
막 론</w>
막 골</w>
마이 어스</w>
마 크로스</w>
마 츠</w>
마 추</w>
마 이걸</w>
마 십시오</w>
마 고</w>
마 가렛</w>
릴 린</w>
린 내</w>
리스 크</w>
리 허설</w>
리 포트만</w>
리 턴</w>
리 요</w>
리 어스</w>
리 비</w>
리 마</w>
류 헤이</w>
루 팡</w>
루 이</w>
롤 링</w>
로 이
로 운데</w>
로 세</w>
로 니</w>
려 졌</w>
려 져</w>
레이 크</w>
레스 베일</w>
레 포트</w>
레 슬러</w>
러시아 어</w>
러 움</w>
러 요</w>
래 기</w>
라스 폰트리에</w>
뜬 다</w>
뜨거 움</w>
똥 통</w>
똥 물</w>
떔 에</w>
따라 간</w>
디 저
디 스크</w>
디 스코</w>
등 골</w>
들어 내</w>
들 린다</w>
들 렸</w>
든 게</w>
드림 하이</w>
드리 마</w>
드라이 버</w>
뒷 받침</w>
뒤 끝</w>
둘러 보</w>
두려 울</w>
두려 운</w>
두들 겨</w>
두 서</w>
된 단</w>
돼 야지</w>
돼 버렸</w>
돼 먹</w>
동 하</w>
동 질</w>
동 조</w>
동 상</w>
돌 린다</w>
돌 대가리</w>
독 한</w>
도요 타</w>
도망 간</w>
도둑 놈</w>
도 주</w>
도 산</w>
도 대</w>
데이 지</w>
데 일리</w>
던 졌</w>
던 스</w>
더욱 이</w>
더러 웠</w>
더 그</w>
대 풍수</w>
대 성통곡</w>
대 박
대 면</w>
대 량</w>
대 군</w>
대 개</w>
담 론</w>
달라 요</w>
달 하</w>
단 합</w>
단 단히</w>
다케 우치</w>
다 툼</w>
다 작</w>
다 우</w>
다 오</w>
다 분히</w>
다 모</w>
다 매</w>
다 리오</w>
다 다</w>
니 시
니 들</w>
니 노
능 글</w>
늘어 짐</w>
는 단</w>
느껴 져요</w>
느 려서</w>
뉘 앙스</w>
눈 여겨</w>
눈 쌀</w>
눈 멀</w>
눈 먼</w>
눅 눅</w>
누 이</w>
누 굴
누굴 까</w>
뇌 물</w>
농 부</w>
놀라 워</w>
놀 란다</w>
녹 여
노 희경</w>
노 파</w>
노 트</w>
노 잼
노 이즈</w>
노 부</w>
노 모</w>
노 리개</w>
노 련</w>
네 프</w>
네 모</w>
네 그려</w>
넘어 오</w>
내용 물</w>
내세 워</w>
내눈 엔</w>
내 셔널</w>
내 사랑</w>
낯 익</w>
낮 잠</w>
났 으면</w>
남 짓</w>
남 지현</w>
남 우</w>
남 미</w>
날 이</w>
난 로</w>
나탈 리포트만</w>
나온 다길래</w>
나영 석</w>
나 체</w>
나 진</w>
나 원참</w>
나 왔으니</w>
나 면</w>
나 마나</w>
나 르
나 나코</w>
끼 얹</w>
끼 어들</w>
끌어 올리</w>
끌 렸</w>
끄 레기</w>
꿰 뚫</w>
꿈 꿔</w>
꾸며 낸</w>
꾸 민</w>
꽂 히</w>
꼼 수</w>
꺼 이꺼이</w>
꺼 림
깍 아내리</w>
까 만</w>
김태 훈</w>
김지 호</w>
김서 형</w>
김 한
김 용</w>
김 연아</w>
김 빠지</w>
김 무
김 경
길 예르모</w>
길 러</w>
길 들이</w>
긴 장
기상 천외</w>
기다 릴
기 전</w>
기 인</w>
기 어린</w>
기 야</w>
기 신기신</w>
기 쁩니다</w>
기 량</w>
기 득</w>
기 껏</w>
기 겁</w>
금 할</w>
금 련</w>
근 성</w>
근 무</w>
극 소수</w>
그리 워하</w>
그럴듯 하고</w>
그러 니깐</w>
그라 피</w>
그 쳤</w>
그 제
규 정</w>
귀여 울</w>
권 태기</w>
권 태</w>
권 력자</w>
궁 상</w>
굶 주
굵 직</w>
굴 복</w>
국 수
국 보</w>
구구 구구</w>
구 정</w>
구 애</w>
구 수</w>
구 걸</w>
교 황</w>
교 본</w>
괜찬 았
괜찬 고</w>
괜 시리</w>
광 활</w>
광 화문</w>
광 인</w>
광 복
관계 없이</w>
관계 없</w>
관 해서</w>
관 장</w>
관 세
관 광
과대 망상</w>
공포 증</w>
공동 체</w>
공 급</w>
고 픔</w>
고 품격</w>
고 쳐야</w>
고 지식</w>
고 의</w>
고 은정</w>
고 아원</w>
고 시</w>
고 서라도</w>
고 독
계 집</w>
계 속
경 극</w>
경 관</w>
겹 쳐</w>
견 뎌
게이 고</w>
검 열</w>
걸 즈</w>
걸 음
걷 어
건축 가</w>
건 방
건 드렸</w>
거슬 러</w>
거미 줄</w>
거 실</w>
거 두</w>
개 티</w>
개 츠비</w>
개 이</w>
개 싸움</w>
개 별</w>
개 구</w>
강 화</w>
강 제
강 국</w>
감 칠</w>
감 내</w>
갈 대</w>
갈 갈이</w>
간 대</w>
간 다면</w>
간 극</w>
간 간이</w>
각 이</w>
가스 펠</w>
가 희</w>
가 정
가 루
가 레스베일</w>
가 누</w>
ㅠㅠㅠㅠ ㅠ
ㅠㅠ ㅜ
ㅏ ㅇ
ㅋㅋㅋㅋ ㅋㅋㅋㅋㅋㅋ</w>
ㅋㅋㅋㅋ ㅋㅋㅋㅋㅋ</w>
ㅋㅋㅋㅋ ㅋㅋㅋㅋ</w>
ㅋㅋㅋㅋ ㅋ
ㅊ ㅊ</w>
ㅉㅉ ㅉ
ㅇ ㅂ
ㅇ ㄴ</w>
ㄷ ㄷ</w>
♡ .♡</w>
★ ☆
○ ○
~~~~~~~~ ~~~</w>
~~~~ !!!</w>
wh en</w>
wat ch</w>
w ill</w>
un n
u u
tt le</w>
st er
sn s</w>
sh ow</w>
sh o
sh e</w>
s low</w>
s i</w>
p e</w>
ov ie</w>
ou r</w>
oc k
o d
n d
m s</w>
m ore</w>
m or
m m</w>
li ve</w>
k s
j t
j o
in a</w>
i ptv</w>
ha ve</w>
h n</w>
good good
f uck</w>
el y</w>
ee p</w>
e li
e a</w>
do g</w>
da s
d on</w>
c n</w>
c i
b le</w>
b eautiful</w>
ar k</w>
ar d</w>
a tion</w>
^^ ;;;</w>
^^ ..</w>
W W
WW E</w>
P P
PP L</w>
O N</w>
N C</w>
M bc</w>
LOV E</w>
J Y
G oo
G od</w>
G G</w>
F or</w>
D C</w>
C C
A ll</w>
A T</w>
A I
@ .@</w>
???? ????</w>
???? ??</w>
> <
7 00</w>
7 000</w>
3 000</w>
22 22</w>
2 8
199 1</w>
198 2</w>
197 9</w>
12345678 90</w>
123 4</w>
10 3</w>
10 1</w>
1 11</w>
.... ?</w>
.... .
.,, .</w>
-_- ?</w>
-- ></w>
-- --</w>
+ +</w>
!!!!!!!!!!!!!!!! !</w>
!!!!!!!! !!!!!!</w>
!!!!!!!! !!!!!!!!</w>
힘 주</w>
힘 겨
힐 튼</w>
히데 오</w>
히 힛</w>
히 히히</w>
흰 둥이</w>
희 화</w>
희 빈</w>
희 봉</w>
희 망
희 귀</w>
흥행 작</w>
흥겨 움</w>
흡 수</w>
흘러 서</w>
흘러 감</w>
흔 든</w>
흐 음</w>
흐 느끼</w>
휼륭 한</w>
휩 쓸</w>
휠 씬</w>
휘 트니</w>
훼 이크</w>
훨 훨</w>
훈련 소</w>
후려 치</w>
후 크</w>
효 자</w>
효 린</w>
횡 재</w>
회 식</w>
회 색</w>
회 담</w>
황 혼</w>
황 수정</w>
황 마</w>
확 확</w>
확 연히</w>
확 고</w>
화 정</w>
화 산고</w>
홍 대</w>
혼 동</w>
혼 녀</w>
혼 내</w>
호소 다</w>
호 응</w>
호 아
호 빵</w>
호 비</w>
호 라이
호라이 즌</w>
호 두</w>
호 날
호날 두</w>
호 기</w>
협 회</w>
협 소</w>
혐 이다</w>
혐 오
혐오 증</w>
혈 액
혈액 형</w>
현대 물</w>
현 화</w>
혁명 가</w>
헷갈 렸</w>
헤 서
헤서 웨이</w>
헤 메</w>
험 난</w>
험 기</w>
헌 팅</w>
허우적 대</w>
허 허허허</w>
허 허
허 진호</w>
허 준호</w>
허 그</w>
허 구
향 상</w>
향 곡</w>
행 방
행방 불명</w>
핵 크
핵크 만</w>
해야 함</w>
해결 책</w>
해 했</w>
해 할</w>
해 치</w>
해 안</w>
해 성</w>
합 법</w>
합 류</w>
함 장</w>
함 꼐</w>
할리 베리</w>
할 망
할망 구</w>
한 평생</w>
한 티</w>
한 입</w>
한 승연</w>
한 다는데</w>
한 강</w>
학 습</w>
학 부모</w>
학 개
학개 론</w>
하루 마</w>
하 향</w>
하 핫</w>
하 지</w>
하 준</w>
하 데스</w>
핏 빛</w>
핍 박</w>
필 요
피 크닉</w>
피 카</w>
피 에타</w>
피 아
피 비</w>
피 로
피 나</w>
플 라이</w>
프린 스</w>
프로 메
프로메 테
프로메테 우스</w>
프란 체
프란체 스카</w>
프 레이저</w>
프 랭
푹 푹</w>
푸 른
표 준</w>
폴 로</w>
폴 란
폴란 스키</w>
폰 다</w>
폭 포</w>
폭 죽</w>
폭 격
폭격 기</w>
포 착</w>
포 용</w>
포 에버</w>
포 비</w>
평 판</w>
페이스 북</w>
페 어</w>
페 시</w>
페 루</w>
페 러</w>
페 니</w>
퍼 니
퍼니 셔</w>
패션 쇼</w>
패 스트</w>
패 스
팔 뚝</w>
팔 계</w>
판 소리</w>
판 명</w>
파 오</w>
파 시즘</w>
파 수</w>
파 쇼</w>
파 랑</w>
파 고</w>
티 모시</w>
티 메이
티메이 텀</w>
틈틈 이</w>
특 기</w>
특 권</w>
트로 이</w>
트 리스</w>
트 래
트 니
튀 겨</w>
퇴 근</w>
통 한다</w>
통 장</w>
토 투</w>
토 토로</w>
토 비
토비 맥과이어</w>
토 미
토 레</w>
토 대왕</w>
토 당
텍 스트</w>
테 크닉</w>
테 라</w>
털 이</w>
터뜨 려</w>
터 집니다</w>
터 보</w>
터 링</w>
터 너</w>
태 평</w>
태 조</w>
태 식</w>
탈 주</w>
탄 스럽</w>
탁 탁</w>
타케 시</w>
타임 즈</w>
타르 코프스키</w>
타 카</w>
타 일러</w>
타 이거</w>
타 운</w>
타 귀</w>
킹 스맨</w>
킬 미</w>
킬 링
킨 스키</w>
키 타
키 지</w>
키 즈</w>
키 워드</w>
키 를</w>
키 가</w>
클리 닉</w>
클레 어</w>
클 로</w>
큰 둥</w>
크리스 티</w>
크 업</w>
크 나
크나 큰</w>
콕 콕</w>
코 헨</w>
코 우</w>
코 브라</w>
코 마</w>
케이 티</w>
케빈 베이컨</w>
케 르
컨 디션</w>
커스 버트</w>
커 처</w>
캣 우먼</w>
캠 페인</w>
캐머 런</w>
칼 리토</w>
칸 나</w>
카우 프만</w>
카 호</w>
카 인드</w>
카 이
카 오스</w>
카 악</w>
카 라</w>
카 날라</w>
침 서</w>
친 해</w>
친 하</w>
친 정</w>
친 목</w>
친 모</w>
친 근
친근 감</w>
치 여</w>
치 산</w>
치 마</w>
출세 작</w>
춘향 전</w>
축 소판</w>
축 소</w>
추천 요</w>
추 성훈</w>
추 방</w>
추 녀</w>
최양 일</w>
최동 훈</w>
최 효종</w>
최 원영</w>
최 불
최불 암</w>
초 록
쳐 묵</w>
쳐 드</w>
체 인</w>
철 호</w>
철 인</w>
천 연
천 부</w>
천 련</w>
처 참히</w>
책임 지</w>
책임 자</w>
책 상</w>
채 정
채정 안</w>
채 무</w>
채 닝</w>
창 출</w>
참 배</w>
찬 열</w>
차 였</w>
차 서</w>
차 렸</w>
차 돌</w>
찔 리</w>
찔 렸</w>
찍 힌</w>
찌 개</w>
쫘 악</w>
쫓아 다니</w>
쫓 아가</w>
쫒 는</w>
쪄 요</w>
짤 라
짤라 먹</w>
짜여 져</w>
짜 르</w>
징그러 웠</w>
징그러 움</w>
짓 밟
집 요</w>
집 구석</w>
질 풍
질 퍽</w>
진 희경</w>
진 절
진절 머리</w>
진 압</w>
진 범</w>
직 후</w>
직 구</w>
지휘 자</w>
지 터</w>
지 킨</w>
지 침서</w>
지 전능</w>
지 은</w>
지 으면</w>
지 목</w>
지 말
지 롱</w>
지 나온</w>
지 끈
즐거 워지</w>
즐거 울</w>
쥬 만지</w>
줫 는데</w>
중 위</w>
중 시</w>
준 기</w>
죽 순</w>
주고 받</w>
주 절
주 이</w>
주 심</w>
주 스</w>
주 랑</w>
종려 시</w>
종 훈</w>
종 반</w>
좀 더</w>
졸 렬</w>
졸 려요</w>
졸 라서</w>
졷 나</w>
존 시나</w>
존 경심</w>
조 종</w>
조 져</w>
조 윤
조 오</w>
조 영</w>
조 여오</w>
조 소</w>
조 센</w>
젠장 할</w>
제니퍼 코넬리</w>
제 하</w>
제 점</w>
제 우스</w>
제 겐</w>
제 게
정의 감</w>
정다 빈</w>
정 장</w>
정 반대</w>
정 들</w>
접 목</w>
전화 기</w>
전 지전능</w>
전 제</w>
전 용
전 염</w>
전 선</w>
전 멸</w>
전 면</w>
전 공</w>
적 중</w>
적 이</w>
적 군</w>
저 팔계</w>
저 쩌</w>
저 만</w>
저 널
저 곳</w>
쟈 니</w>
쟁 취</w>
재 평가</w>
재 롱</w>
장 희빈</w>
장 장</w>
장 의사</w>
장 신영</w>
장 보</w>
잡 영</w>
잠 잠</w>
잠 잘</w>
잠 식</w>
잔 재미</w>
작 과</w>
작 곡
작곡 가</w>
자폐 증</w>
자아 도취</w>
자아 낸다</w>
자 존</w>
자 전</w>
자 재</w>
자 원</w>
자 수</w>
자 서</w>
자 상</w>
자 빠</w>
자 국민</w>
잊혀 진</w>
잊혀 져</w>
잊 히</w>
입 학</w>
입 시</w>
입 니다만</w>
임 창</w>
임 자</w>
임 수</w>
잃어 버렸</w>
일으 켜</w>
일깨 우</w>
일 행</w>
일 텐데</w>
일 차원</w>
일 리아</w>
일 가
인형 극</w>
인민 군</w>
인기 투표</w>
인과 응보</w>
인공 호흡</w>
인 지라</w>
인 조
인 업</w>
인 양</w>
인 스턴트</w>
인 도
인 강</w>
익 장</w>
이휘 재</w>
이탈 리안</w>
이어 짐</w>
이승 환</w>
이수 현</w>
이상 형</w>
이뤄 지지</w>
이런 가</w>
이러 면</w>
이라 던가</w>
이대 근</w>
이 터널</w>
이 질</w>
이 진욱</w>
이 점수</w>
이 재</w>
이 언</w>
이 수</w>
이 세영</w>
이 블</w>
이 등
이 듭</w>
이 두
이두 용</w>
이 냐
이냐 리
이냐리 투</w>
이 게
의 형제</w>
의 해서</w>
의 무
음주 운전</w>
음식 물</w>
음 조</w>
음 보살</w>
음 다</w>
은 비</w>
으 흑</w>
으 이</w>
으 음</w>
으 윽</w>
으 셧</w>
윤 주</w>
윤 수</w>
유일 무이</w>
유인 원</w>
유 인</w>
유 연</w>
유 대
유 능</w>
유 노
유노 윤호</w>
유 나</w>
유 감
윗 치</w>
윈 슬
윈슬 렛</w>
윅 스</w>
위 크</w>
위 일체</w>
위 성</w>
위 선
위선 자</w>
웠 으나</w>
웠 어요</w>
웟 지만</w>
월 레스</w>
월 남</w>
원영 의</w>
원 혼</w>
원 할</w>
원 칙</w>
원 죄</w>
원 제목</w>
원 원</w>
원 시</w>
원 동력</w>
웅얼 웅얼</w>
웃음 거리</w>
울고 불</w>
울 지마</w>
운 동
운 건</w>
우에노 주리</w>
우려 낸</w>
우 희</w>
우 재</w>
우 위</w>
우 워</w>
우 비</w>
우 러</w>
우 들리</w>
욬황시 욬황시
용 품</w>
용 산</w>
용 가</w>
욕 함</w>
요 소
요소 요소</w>
요 상한</w>
외 한</w>
외 로울</w>
왕 후</w>
왕 실</w>
왕 성</w>
왕 빛나</w>
왈가 왈
왈가왈 부</w>
완 주</w>
완 료</w>
와일드 카드</w>
옮 겼</w>
올 려라</w>
온 파</w>
온 돌</w>
온 도</w>
온 나</w>
옥 정</w>
오 크</w>
오 카다</w>
오 천련</w>
오 차</w>
오 중</w>
오 인</w>
오 스
오 구리</w>
예 용</w>
예 쁠</w>
영웅 담</w>
영양 가</w>
영 진</w>
영 재</w>
영 알</w>
영 민</w>
영 감
영 가</w>
엽 당</w>
열 등</w>
연 합</w>
연 필</w>
연 식</w>
역 효과</w>
역 주행</w>
역 자</w>
역 류</w>
역 력</w>
역 도산</w>
역 기</w>
여지 없이</w>
여 중</w>
여 옥</w>
여 리</w>
여 겼</w>
여 겨
여 건</w>
엣 지</w>
엠 버</w>
엘 사</w>
엘 런</w>
엔 니
에이 핑크</w>
에미 넴</w>
에 프</w>
에 밀</w>
에 드</w>
엊그 제</w>
었 다</w>
엇갈 린</w>
업 무</w>
엄청 났</w>
얼 티메이텀</w>
얼 토당
얼 얼</w>
언 뜻</w>
억 수
억수 로</w>
어지러 워서</w>
어데 블</w>
어 허</w>
어 쩔
어 질</w>
어 주</w>
어 졌</w>
어 림</w>
어 때</w>
어 든</w>
어 니</w>
양 아</w>
양 면</w>
양 대</w>
약 혼</w>
약 발</w>
야 할</w>
야 자</w>
야 생</w>
야 밤</w>
야 기</w>
앵앵 거리</w>
앨 빈</w>
애완 견</w>
애쉬 튼
애 원</w>
애 스</w>
애 물</w>
애 매
애매 모호</w>
애 마
애마 부인</w>
애 드립</w>
애 당초</w>
앞 날</w>
압 구정</w>
암 투</w>
알리 시아</w>
알랭 들롱</w>
알 트만</w>
안토니 오</w>
안 양</w>
안 들</w>
안 가</w>
악 무도</w>
아카 데미
아이 구</w>
아아 아아아</w>
아리 랑</w>
아들 딸</w>
아나 스타샤</w>
아깝 다</w>
아 폴로</w>
아 청</w>
아 주머니</w>
아 울
아 우성</w>
아 비
아 만</w>
아 리아</w>
아 델</w>
아 귀</w>
아 가리</w>
쓸 까</w>
쓴 다는</w>
쓰 여진</w>
쏠 려</w>
썰 매</w>
싸 질러</w>
싸 이
십 시요</w>
심 한데</w>
심 영</w>
심 볼</w>
심 령</w>
싫어 한다</w>
실 타
신사 참배</w>
신 카이</w>
신 청</w>
신 예</w>
신 소</w>
신 세</w>
신 년</w>
식 품</w>
식 코</w>
식 자</w>
시끄 러</w>
시 합</w>
시 프</w>
시 큰둥</w>
시 완</w>
시 신</w>
시 녀</w>
승 아</w>
습 격
습격 사건</w>
슴 당</w>
스티븐 스필버그</w>
스티브 카렐</w>
스티브 잡스</w>
스티 치</w>
스트 롱</w>
스트 로
스토 우</w>
스탠 바이</w>
스네이 프</w>
스 핀</w>
스 프</w>
스 팀</w>
스 콜</w>
스 케이트
스 커
스 쳐
스 찬</w>
스 웽크</w>
스 완</w>
스 럼</w>
슈 타</w>
슈 주</w>
숨 결</w>
순 응</w>
순 영</w>
숙 이</w>
수호 지</w>
수 히</w>
수 진</w>
수 장</w>
수 십
수 시로</w>
수 수
수 무
수 명</w>
수 리
수 난</w>
수 결</w>
쇼 타</w>
송 해성</w>
송 가</w>
손 호준</w>
소피 아</w>
소용 돌이</w>
소설 책</w>
소매 치기</w>
소 파</w>
소 용</w>
소 오</w>
소 민</w>
소 린</w>
소 노
소노 시온</w>
소 나타</w>
소 굴</w>
셔 틀</w>
셔 츠</w>
셔 야죠</w>
세이 모어</w>
세바 스찬</w>
세 탁</w>
세 삼</w>
세 계인</w>
성적 순</w>
성 희롱</w>
성 형
성 현아</w>
성 찬</w>
성 질나</w>
성 지루</w>
성 전</w>
성 인
성 관</w>
섯 손가락</w>
섬 터</w>
섬 짓</w>
선 문
선문 답</w>
선 데이</w>
선 다</w>
선 남
선남 선녀</w>
선 구
석 기</w>
서 현진</w>
서 지혜</w>
서 지석</w>
서 준영</w>
서 술</w>
서 럽</w>
서 든</w>
서 교</w>
생물 학</w>
생겼 으면</w>
생 충</w>
생 일
생 선</w>
생 길
샘 물</w>
샐 러
색 달</w>
새 아빠</w>
상 향</w>
상 실감</w>
상 세히</w>
상 병</w>
상 반기</w>
삼 위일체</w>
삼 국</w>
삼 겹
삼겹 살</w>
살아 간</w>
살려 냈</w>
살 육</w>
살 려야</w>
산 벌</w>
사이 렌</w>
사 쿠</w>
사 채
사 심</w>
사 생아</w>
사 부</w>
사 담</w>
사 나</w>
사 간</w>
사 각</w>
뿌 렸</w>
뺑 소니</w>
뺏 긴</w>
빨 치산</w>
빨 라</w>
빨 강</w>
빡 빡이</w>
빠져 버린</w>
빠 름</w>
빛 날</w>
빌 려다</w>
빈 부</w>
빈 번</w>
빅 풋</w>
빅 맨</w>
비상 구</w>
비 화</w>
비 친</w>
비 주류</w>
비 엘</w>
비 수</w>
비 버</w>
비 루</w>
블랙 리스트</w>
브랜든 리</w>
브 로</w>
브 렌
브 레
브 라스</w>
불러 오</w>
불러 대</w>
불가 사의</w>
불 어
불 려</w>
불 꽃
불꽃 놀이</w>
분 홍</w>
분 출</w>
분 자</w>
분 임</w>
분 말</w>
부르 스</w>
부러 워요</w>
부끄러 웠</w>
부 지
부 전</w>
부 술</w>
부 사장</w>
부 릅
부 름</w>
부 드러
부 기</w>
봣 음
본 사</w>
볶 이</w>
복 음</w>
복 성</w>
복 불복</w>
복 고풍</w>
보아 하니</w>
보고 싶
보 존</w>
보 원</w>
보 우</w>
보 면
보 로</w>
보 드
보 다
보 급</w>
병 동</w>
별 기</w>
변 호</w>
변 주</w>
변 강</w>
벤 더스</w>
베르 토</w>
베네딕 트</w>
베 로니
베 니스</w>
베 껴서</w>
벙 커</w>
범 주</w>
번 외</w>
버 무리</w>
버 마</w>
백 악관</w>
배우 자</w>
배달 부</w>
배 합</w>
방송 인</w>
방 자</w>
방 울
밨 다</w>
발 판</w>
발 린</w>
발 로</w>
발 력</w>
발 동</w>
받아들 여야</w>
반 할</w>
반 자</w>
반 일</w>
반 세기</w>
박정 아</w>
박상 원</w>
박 시</w>
박 세영</w>
박 살</w>
박 명수</w>
바보 짓</w>
바라 봐</w>
바닷 속</w>
바뀐 다</w>
바 흐</w>
바 질</w>
바 요</w>
바 스</w>
바 바리</w>
바 네
바네 사</w>
바 꿨
바꿨 으면</w>
밌 다
밀어 붙이</w>
밀려 왔</w>
밀 려서</w>
민 족
미셸 공드리</w>
미 카</w>
미 진</w>
미 워하</w>
미 완성</w>
미 영</w>
미 스트</w>
미 명</w>
미 면</w>
미 래
뭥 미
뭣 하러</w>
뭉 개</w>
물려 주</w>
물 급</w>
문화 가정</w>
문제 지</w>
문 외한</w>
무라 타쿠야</w>
무라 카미</w>
무거 움</w>
무 한대</w>
무 취</w>
무 찌르</w>
무 속</w>
무 미</w>
무 리
무 뎌
무 니</w>
무 녀</w>
무 구</w>
무 개</w>
몽 키</w>
몰려 오</w>
몰랐 다</w>
몰라 보</w>
목 욕탕</w>
목 마른</w>
모 태</w>
모 창</w>
모 에</w>
모 릅니다</w>
모 노</w>
명 쾌</w>
명 이인</w>
명 색</w>
명 관</w>
명 계
명계 남</w>
멜로 드라마</w>
메타 포</w>
메이 크업</w>
메이 슨</w>
메 탈
메 세</w>
메 르</w>
먼 트</w>
먹 힌</w>
먹 거리</w>
머리 털</w>
머나 먼</w>
머 시</w>
머 물러</w>
맹 세</w>
맨 디
맨디 무어</w>
맥 퀸</w>
맥 없이</w>
맥 없</w>
맥 도
매끄 러운</w>
매 달</w>
매 겨</w>
맞춰 진</w>
맞 춤
맞 아
망 토</w>
망 처</w>
맛 볼</w>
말 미</w>
말 려</w>
만 질</w>
만 들
만 담</w>
만 난다는</w>
만 감</w>
마침 표</w>
마침 내</w>
마이클 만</w>
마라 톤</w>
마라 도나</w>
마 켓</w>
마 직</w>
마 운
마 시
마 수리</w>
마 나
릿 지</w>
립 싱크</w>
릴 지</w>
린 제이</w>
리처 드기어</w>
리 터</w>
리 액션</w>
리 아
리 시</w>
리 부</w>
리 만큼</w>
리 가</w>
른 다는</w>
루 머</w>
롭 슈나이더</w>
롤 라</w>
로메 로</w>
로 키</w>
로 왔</w>
로 완</w>
로 만
려 터진</w>
려 거든</w>
렉 션</w>
레이 코</w>
레오 니</w>
레시 피</w>
레시 라
레시라 무</w>
레 셔</w>
러브 신</w>
라이 터</w>
라 티
라 요</w>
라 든지</w>
라 드</w>
뜻 대로</w>
뜯어 먹</w>
뜨거 웠</w>
뜨거 워</w>
똑 똑
또 렷</w>
떨어 져라</w>
떨 린다</w>
떡 하니</w>
떡 볶이</w>
떠올 릴</w>
떠 돌</w>
떠 난다</w>
때 울</w>
때 깔</w>
땅 크</w>
땅 콩</w>
딸 기</w>
따 리</w>
디저 트</w>
디 유</w>
디 액션</w>
디 시</w>
듯 한</w>
들어 옴</w>
들 여진</w>
들 려서</w>
들 도</w>
들 개</w>
든 다는</w>
드러 진</w>
드라 만</w>
드라 고</w>
드 한</w>
뒷 골목</w>
뒤 집어
둬 라</w>
둥 지</w>
둥 둥</w>
두서 없이</w>
두 부</w>
됫 다</w>
됫 는데</w>
되 풀이</w>
되 려</w>
되 돌아가</w>
되 돌리</w>
동정 표</w>
동물 원</w>
동 인</w>
동 선</w>
동 명이인</w>
돌아 와요</w>
돌아 갔</w>
돌 보</w>
돋 보입니다</w>
독립 투사</w>
도 치</w>
도 작</w>
도 원</w>
도 수</w>
도 마</w>
도 룡</w>
덴 마크</w>
데 우스</w>
데 어데블</w>
덮 어
덩 치</w>
덤 스</w>
던져 진</w>
던 스트</w>
덕 지덕지</w>
더 해져</w>
더 스틴</w>
더 스틴
더 랬</w>
더 디</w>
댕 이</w>
대 학
대 출</w>
대 초</w>
대 주</w>
대 여섯</w>
당 해도</w>
당 수</w>
당 돌</w>
당 나라</w>
답 안</w>
달 한</w>
단 정지</w>
다이 안</w>
다르 덴</w>
다니엘 헤니</w>
다 이나</w>
다 영</w>
다 야</w>
다 섯손가락</w>
다 문화가정</w>
다 망</w>
닌 깐</w>
니 키타</w>
니 키</w>
니 임</w>
니 버</w>
니 더</w>
능 미</w>
늘 렸</w>
는 지요</w>
느껴 서</w>
느 려터진</w>
눌 러
눈치 채</w>
눈물 바다</w>
눈물 겨운</w>
눈 꺼풀</w>
놨 는데</w>
놔 야</w>
놈 을</w>
놀 림</w>
녹여 낸</w>
녹 이</w>
노 팅
노 크</w>
노 친</w>
노 익장</w>
노 라면</w>
노 도</w>
넼 ㅋㅋ</w>
네 영</w>
네 덜
네 다</w>
네 놈을</w>
넘어 감</w>
넘 긴</w>
너 저분</w>
너 리</w>
너 구리</w>
냉 동</w>
내리 막</w>
내려 갔</w>
내 재</w>
내 스</w>
내 쉬</w>
내 숭</w>
내 린다</w>
내 가</w>
낮 춘</w>
남 쪽</w>
남 기남</w>
날 지</w>
날 드</w>
날 까봐</w>
난데 없이</w>
난 자</w>
난 만</w>
난 당</w>
낙 제점</w>
낙 서</w>
나카 시마</w>
나오 미
나뉜 다</w>
나 원</w>
나 용</w>
나 쁠</w>
나 베</w>
나 란히</w>
나 날이</w>
끼 쳐</w>
끝장 나</w>
끝 물</w>
끝 나갈</w>
끌 린다</w>
끌 로
끈 적
끄 집어
꿀 잼</w>
꾸 준</w>
꼴 값</w>
꼬 셔서</w>
껍 질</w>
꺼 운</w>
꺅 꺅</w>
꺄 악</w>
깽 이</w>
깨 졌</w>
까 한</w>
까 닭</w>
까 다
김혜 자</w>
김한 민</w>
김선 영</w>
김 형
김 지현</w>
김 슬기</w>
김 삼순</w>
길 리엄</w>
길 들여진</w>
길 들여
기타 노
기술 자</w>
기다려 진다</w>
기관 총</w>
기 태</w>
기 집애</w>
기 요시</w>
기 생충</w>
기 쁜</w>
기 뻐
기 무라타쿠야</w>
기 똥차</w>
기 댈</w>
기 담</w>
급 히</w>
금 영화</w>
글래 머</w>
글 리</w>
글 러</w>
근 현</w>
근 작</w>
근 대사</w>
그제 서야</w>
그리 드</w>
그럴듯 한데</w>
그런 지는</w>
그런 가
그런가 보다</w>
그 렁</w>
그 랴</w>
그 랜드</w>
귀 타귀</w>
귀 염</w>
권 합니다</w>
굴러 다니</w>
굴 러</w>
군 필</w>
군 중</w>
국 방
구 미호</w>
교 향곡</w>
교 조</w>
교 전</w>
교 장</w>
교 관</w>
괴 로워</w>
괴 로
괞 찬
괜춘 한데</w>
광복 절</w>
광개 토대왕</w>
광 녀</w>
관세 음보살</w>
관 조</w>
관 습</w>
관 뒀</w>
관 두</w>
관 능미</w>
관 건</w>
곽 현화</w>
과 함</w>
과 천선</w>
공 신</w>
곰 탕</w>
곰 곰
골 수</w>
고만 고만</w>
고마 울</w>
고두 심</w>
고 이</w>
고 음</w>
고 위
고 약</w>
고 스</w>
고 사
고 무
고 라</w>
고 딕</w>
고 등</w>
고 나</w>
고 구마</w>
고 경
고경 표</w>
계 백</w>
계 곡</w>
곁 들여</w>
경찰 차</w>
경 화</w>
경 배</w>
결 단</w>
격 히</w>
격 차</w>
겠 지</w>
걸 쳐서</w>
걸 스</w>
걸 린다</w>
건축 학개론</w>
건 성</w>
건 설</w>
건 다</w>
거 첨</w>
거 시</w>
거 스
거 사</w>
거 물급</w>
거 르</w>
거 려요</w>
거 덩</w>
거 다</w>
개구 쟁이</w>
개 과천선</w>
갖 춰야</w>
강제 규</w>
강력 히</w>
강 심장</w>
감 지덕지</w>
감 제</w>
감 염</w>
갈아 입</w>
갈 켜</w>
갈 린다</w>
갈 래</w>
갈 겨</w>
각 국</w>
가족 사</w>
가져 요</w>
가루 지기</w>
가 와</w>
가 영</w>
가 분</w>
가 로
가 령</w>
가 디언</w>
가 둬</w>
가 공</w>
ㅡㅡ ㅡㅡ</w>
ㅡ ㅡㅡ</w>
ㅡ ㅅ
ㅡㅅ ㅡ</w>
ㅠㅠㅠㅠㅠㅠㅠㅠ ㅠㅠㅠㅠㅠㅠㅠㅠㅠㅠㅠㅠ
ㅜㅜㅜㅜ ㅜㅜㅜㅜㅜ</w>
ㅜ ㅠㅠ</w>
ㅗㅗ ㅗ</w>
ㅊ ㄹ
ㄲ ㅈ</w>
ㄲ ㅈ
♥♡♥♡ ♥♡♥♡
♥♡♥♡♥♡♥♡ ♥♡♥</w>
♥ ?</w>
~~ `</w>
~ )</w>
~ """</w>
z ing</w>
z ero</w>
w s</w>
w ant</w>
us b</w>
uc h</w>
u s</w>
tv n</w>
ta l</w>
ta in</w>
t or</w>
t m</w>
so so</w>
sa d</w>
s pi
s or
rou nd</w>
o l
o h</w>
ni ght</w>
ne t</w>
ma zing</w>
m ar
l ov
k er</w>
jy j</w>
jt bc</w>
j j
ir l</w>
i g
h im</w>
h an
g u
g onna</w>
g irl</w>
fil m</w>
f ree</w>
ea p</w>
e y</w>
e w</w>
e p
e k</w>
e ce</w>
di d</w>
d ra
d ie</w>
ch ing</w>
c d</w>
c ar
bbbb bbbb
ba by</w>
an k</w>
_ ~</w>
^^ :</w>
^^ !!</w>
^ ~^</w>
X X
Wh o</w>
W H
V ER</w>
U N</w>
T V
S i
S f</w>
S S</w>
R ed</w>
P S</w>
O f</w>
O cn</w>
O R
M ovie</w>
M i
L a</w>
L a
I n
I N</w>
I A</w>
G P</w>
E R
D o</w>
D i
CC TV</w>
C IA</w>
B r
A R
@ @
? ;;</w>
9 8
6 9</w>
6 5
198 8</w>
198 6</w>
10 7</w>
10 2</w>
10 10</w>
1 800</w>
1 60</w>
1 12</w>
1 12
0 7</w>
// /</w>
................ .......</w>
... ;</w>
... -_-</w>
... ,</w>
... "</w>
.. ^^
.. -_-;;</w>
-_- ....</w>
,,,,,,,, ,</w>
**** ****
) /</w>
( >_</w>
' ?</w>
' ..</w>
' !</w>
!! ♥</w>
!! .</w>
！ ！</w>
힘 차</w>
힘 껏</w>
힘 겨운</w>
힐 미</w>
히스 테리</w>
히로 키</w>
히 피</w>
흰 머리</w>
흥 신소</w>
흡 족</w>
흘러 넘치</w>
흘러 나올</w>
흘러 갔</w>
흔들 려서</w>
흐 려</w>
흉 터</w>
휴 스턴</w>
휙 휙</w>
휘 몰아치</w>
휘 동</w>
후 장</w>
후 아유</w>
후 세인</w>
후 루룩</w>
후 드</w>
후 군</w>
횽 아</w>
효 정</w>
획 득</w>
회 한</w>
회 사원</w>
회 분</w>
회 귀</w>
황 새</w>
황 산벌</w>
황 보라</w>
황 량</w>
홥 니까</w>
확 연</w>
화 력</w>
화 냈</w>
화 국</w>
홍 진</w>
홍 주</w>
홍 보물</w>
홈 런</w>
혼 타스</w>
혹 독</w>
호아 킨</w>
호 회</w>
호 프</w>
호 테</w>
호 제</w>
호 정</w>
호 와</w>
호 영</w>
호 스텔</w>
호 스</w>
호 성</w>
호 박</w>
혜 림</w>
혓 바닥</w>
협 녀</w>
혈 병</w>
현실 주의</w>
현 시점</w>
헬 싱</w>
헬 리
헬 로우</w>
헬 렌
헨 티나</w>
헤 집</w>
헤 엄
헤 븐
헤븐 스</w>
헤 더</w>
헠 헠
헐 헐</w>
허구 헌</w>
허 스키</w>
허 물</w>
허 덕
허 당</w>
행 진
행진 곡</w>
해 효</w>
해 하</w>
해 진다는</w>
해 상</w>
해 두</w>
해 간다</w>
핳 핳
핰 핰</w>
합 회</w>
합 니다요</w>
함 대</w>
할 애</w>
할 걸</w>
한다 며</w>
한겨 레</w>
한 흠</w>
한 화</w>
한 탕</w>
한 지혜</w>
한 술</w>
한 바탕</w>
한 데
한 고은</w>
한 걸까</w>
학 여행</w>
학 벌</w>
학 도
학도 병</w>
학 기</w>
학 과</w>
하하 하하
하이 바라</w>
하다 못해</w>
하 우어</w>
하 얗</w>
하 버드</w>
하 몽</w>
하 류
하류 인생</w>
하 드라마</w>
하 대</w>
하 기</w>
필요 악</w>
필 립스</w>
픽 픽</w>
피해 망상</w>
피 한</w>
피 카
피 범벅</w>
피 도</w>
피 구</w>
플래 시</w>
프린 세스</w>
프리미 엄</w>
프리 다</w>
프로 즌</w>
프로 이트</w>
프 랜
퓨 처
퓨처 라마</w>
풍 족</w>
풍 만</w>
표 적</w>
폴 란드</w>
폭 주</w>
포 화</w>
포 항</w>
포 크</w>
포 카
포카 혼타스</w>
포 이</w>
포 옹</w>
포 머</w>
폐 지안</w>
펼쳐 진</w>
편 들</w>
페 인트</w>
페 로</w>
펄 프</w>
펄 롱</w>
퍼 졌</w>
퍼 져</w>
팽 배</w>
팰 트로우</w>
팬 클럽</w>
팬 덤</w>
패스 벤더</w>
패 킷</w>
패 착</w>
패 망</w>
패 딩
패딩 턴</w>
팔 트</w>
팔 씨름</w>
판 자</w>
판 박이</w>
판 단력</w>
팍 스</w>
파랑 새</w>
파 조</w>
파 스텔</w>
파 스</w>
파 렴
팀 장</w>
팀 원</w>
틸 리</w>
티 파니</w>
특 출
특 전</w>
특 수부대</w>
트레이 시</w>
트랜스포 터</w>
트 베닝</w>
트 림</w>
트 레스</w>
트 럼</w>
트 랜드</w>
트 랜</w>
튀어 나와서</w>
투 사부일체</w>
퇴 치</w>
통 키</w>
통 치</w>
톨 스토
톨스토 이</w>
톡 히</w>
톡 톡히</w>
토미 리
토미리 존스</w>
토 피아</w>
토 스</w>
토 네이
토네이 도</w>
텐 가</w>
테 크
테 디</w>
테 나</w>
털 보</w>
터 져요</w>
태 환</w>
태 주</w>
태 원</w>
탈 출
탈 자</w>
탈 영</w>
탈 모</w>
탈 레
탈레 반</w>
탄 틴</w>
타이 탄</w>
타 파</w>
타 타</w>
타 존스</w>
타 의</w>
타 시</w>
타 블로</w>
킴 베이싱어</w>
키 호테</w>
키 보드</w>
클 로버
클로버 필드</w>
클 락</w>
크리스토 프</w>
크리스 티나</w>
크루 거</w>
크로 우즈</w>
크로 무</w>
크라 운</w>
크 ㅋ
퀴 엠</w>
퀘 이드</w>
퀄 이</w>
쿵 쿵</w>
쿠 센</w>
쿠 르
쾌 걸</w>
콧 방귀</w>
콜 롬
콘 스
콘스 탄틴</w>
콘 돔</w>
코 인</w>
코 엑스</w>
코 렐라</w>
켄 로치</w>
케이 츠</w>
케이 노</w>
케르 디오</w>
케 케
케케 묵</w>
케 서린</w>
컴 퍼니</w>
커 스틴</w>
커 밍
커밍 아웃</w>
커 뮤
캐서린 제
캐서린제 타존스</w>
캐 치
캐 시</w>
캐 쉬</w>
카 포
카 트</w>
카 자
카 밀라</w>
카 밀라
카밀라 벨</w>
카 를
침 울</w>
침 뱉</w>
칠 갑</w>
친 영</w>
친 다고</w>
치 켜</w>
치 즈
치즈 루</w>
측 정</w>
츠 키</w>
츠 코</w>
취 해서</w>
충 청
충청 도</w>
충 남</w>
출 가</w>
춘 희</w>
추 한</w>
추 접</w>
추 전</w>
추 임</w>
쵝오 다</w>
최강 창민</w>
최 하급</w>
최 정원</w>
최 윤
최 여진</w>
최 신작</w>
최 송
최송 현</w>
촬 영장</w>
총 점</w>
총 련</w>
촌 철
촌철 살인</w>
촉 촉</w>
초콜 렛</w>
초록 물고기</w>
초 록</w>
쳐 블</w>
쳐 다</w>
쳐 다
첼 로</w>
체 크</w>
체 육
청 승</w>
청 산
청산 가리</w>
청 리</w>
철 딱
철딱 서니</w>
철 거
철거 민</w>
천 진</w>
천 장</w>
천 옌
천옌 시</w>
천 락</w>
천 공</w>
척 척</w>
척 도</w>
척 노리스</w>
처 연</w>
처 블</w>
챙겨 봅니다</w>
채 워야</w>
채 색</w>
채 림</w>
창 업</w>
창 시자</w>
참 맛</w>
찬 히</w>
찬 찬히</w>
착 착</w>
차 츰</w>
차 수연</w>
차 리리</w>
찢 어진</w>
찔 려</w>
찍 찍</w>
쫙 쫙</w>
쫒 아</w>
쪽팔 려서</w>
쪽 쪽</w>
쪼 매</w>
쩝 쩝</w>
짤 리</w>
짝 짝짝</w>
짜 잔</w>
짜 여</w>
짜 라</w>
짜 깁
짜깁 기</w>
징 역</w>
집합 체</w>
집 행</w>
짊 어지</w>
질풍 노도</w>
진행 자</w>
진시 황</w>
진 혜림</w>
진 과</w>
직 무</w>
지켜 본</w>
지우 지</w>
지루 해</w>
지난 번</w>
지나 칠</w>
지나 감</w>
지나 간다</w>
지 직</w>
지 자</w>
지 움</w>
지 아이</w>
지 산</w>
지 물</w>
지 명</w>
지 름
지름 길</w>
지 디</w>
지 니아</w>
지 극</w>
증 지위</w>
증 이</w>
즐거 워요</w>
쥐 약</w>
줘 야해</w>
중 지</w>
중 심
중 권</w>
중 공군</w>
중 고생</w>
줄 타기</w>
줄 일</w>
준 석</w>
죽 대</w>
주무 세요</w>
주 차</w>
주 지사</w>
주 정</w>
주 워</w>
주 무시</w>
주 름
주 루룩</w>
주 국</w>
좌 지우지</w>
좋아 한</w>
종 혁</w>
종 착
종 신</w>
종 상</w>
종 사건</w>
족 족</w>
족 속</w>
조 총련</w>
조 총</w>
조 직원</w>
조 은숙</w>
조 울
조울 증</w>
조 양
조양 은</w>
조 민수</w>
조 로</w>
조 라</w>
조 두
조두 순</w>
조 권</w>
조 각
졌 으나</w>
져 간다</w>
젯 밤</w>
젤 로</w>
제임스 카메론</w>
제레 미
제네 시스</w>
제 크로무</w>
제 치</w>
제 천</w>
제 인
제 발
제 론</w>
제 로인</w>
제 기
정치 색</w>
정치 가</w>
정은 우</w>
정말 루</w>
정 호연</w>
정 해져</w>
정 인</w>
정 독</w>
정 기용</w>
접 해서</w>
절 름
절 루</w>
전용 관</w>
전 해져</w>
전 차</w>
전 주영</w>
전 전</w>
전 염병</w>
전 국
전 격</w>
적 혀</w>
적 정선</w>
적 재
적 소</w>
저질러 도</w>
저 해</w>
저 쩌
저 울
저울 질</w>
저 서</w>
저 릿
저릿 저릿</w>
저 리도</w>
저 럴
저럴 까</w>
쟁 신</w>
재밌 어요</w>
재밋 다</w>
재 정</w>
재 용</w>
재 량</w>
장례 식장</w>
장 훈</w>
장 철</w>
장 전</w>
장 재인</w>
장 민</w>
장 국</w>
장 갑</w>
잡 치</w>
잡 것</w>
잠 드</w>
잘 것
잘것 없</w>
잔 디</w>
작 선</w>
작 만</w>
자지 러지</w>
자유 의지</w>
자유 분방</w>
자유 민주주의</w>
자무 쉬</w>
자 크</w>
자 처</w>
자 채</w>
자 증</w>
자 음</w>
자 위
자 들</w>
자 격
잊혀 졌</w>
잉글 리쉬</w>
잉 그리드</w>
입 혀</w>
입 구</w>
임주 환</w>
임 채무</w>
임 진
임 재범</w>
일기 토</w>
일 러
일 라이
일 동</w>
인조 인간</w>
인과 관계</w>
인간 사</w>
인 시대</w>
인 맥</w>
인 데
익 스펜
익스펜 더블</w>
이지 은</w>
이준 영</w>
이주 노</w>
이종 인</w>
이장 호</w>
이자 벨
이자벨 아자니</w>
이웃 집</w>
이어 트</w>
이승 연</w>
이승 만</w>
이상 민</w>
이름 표</w>
이루어 져</w>
이라 든지</w>
이라 든가</w>
이라 던지</w>
이등 병</w>
이기 주</w>
이 희준</w>
이 특</w>
이 토</w>
이 탈</w>
이 츠</w>
이 조</w>
이 윤</w>
이 북</w>
이 보
이 민</w>
이 목</w>
이 력</w>
이 딴
이 디
이 달</w>
이 다지</w>
이 계인</w>
이 강
의무 감</w>
의 인</w>
의 대</w>
음 원</w>
음 료</w>
을 려는</w>
을 때</w>
을 께</w>
은행 털이</w>
은 총</w>
은 색</w>
으 잉</w>
으 아아</w>
으 셔</w>
으 로
으 네</w>
윤 종신</w>
윤 정희</w>
육 질</w>
유감 없이</w>
유 토피아</w>
유 키
유 출</w>
유 유</w>
유 위
유위 강</w>
유 아
유 분</w>
유 무</w>
유 란</w>
위 쇼</w>
웬 수</w>
웬 디</w>
웨 스
웨 버</w>
웠 다</w>
월 켄</w>
월 스트리트</w>
원 폭</w>
원 치</w>
원 점</w>
원 전</w>
원 자</w>
원 숙</w>
원 상</w>
원 랜</w>
워 치</w>
워 메</w>
움직 였</w>
운 다는</w>
우우 우</w>
우 회</w>
우 체
우 선
욬 ㅋㅋ</w>
욬 ㅋ</w>
용 형</w>
용 돈</w>
욕 질</w>
욕 쟁이</w>
욕 실</w>
요 하</w>
요 지</w>
요 스케</w>
요 술</w>
요 깃
요 건</w>
외 출</w>
외 로웠</w>
외 딴</w>
왜 구</w>
왕 비</w>
왔 어요</w>
와 타
와 사비</w>
올려 놓</w>
올라 와서</w>
올라 온다</w>
올라 온</w>
올 꺼</w>
올 가</w>
옥 한흠</w>
오사 카</w>
오라 버니</w>
오 오미</w>
오 역</w>
오 언
오언 조</w>
오 아
오 슬로</w>
오 스트레
오스트레 일리아</w>
오 맨</w>
오 만
오 롯</w>
오 랬</w>
옛 사랑</w>
예 성</w>
영화 당</w>
영화 는
영 허</w>
영 업</w>
영 미</w>
였 어요</w>
엿 보</w>
열 기</w>
연습 생</w>
연 주가</w>
연 성</w>
연 봉</w>
연 방</w>
연 륜</w>
연 대</w>
연 금</w>
여름 밤</w>
여 호와</w>
여 주인</w>
여 선생</w>
여 과</w>
엠마 톰슨</w>
엠 버
엠버 허드</w>
엘 비스</w>
엘 르</w>
엑소 더스</w>
에이 프
에로 스</w>
에드 리언</w>
에 픽</w>
에 프론</w>
에 프
에 에</w>
에 드리안</w>
에 는</w>
엉 켜</w>
었 음</w>
엇 박자</w>
없 어</w>
업 보</w>
엄 두</w>
엄 기준</w>
얼룩 진</w>
얼 빠진</w>
언터 쳐블</w>
언터 처블</w>
언 어
억 눌린</w>
억 누르</w>
어이 구</w>
어울 프</w>
어울 러</w>
어버 버</w>
어루 만지</w>
어려 우</w>
어떻 든</w>
어두 웠</w>
어두 움</w>
어 중</w>
어 줍</w>
어 젯밤</w>
어 율</w>
어 웨이</w>
어 영</w>
어 여
어 슬프</w>
어 서라도</w>
어 서
어 비스</w>
어 부</w>
어 법</w>
어 번</w>
어 머</w>
어 뢰</w>
양 원</w>
양 연</w>
양 양</w>
양 심
양 복</w>
얄 미운</w>
약 상</w>
야 인시대</w>
야 외</w>
야 식당</w>
야 박</w>
야 만인</w>
야 곱</w>
앨 리</w>
앤 해서웨이</w>
앤 디
액 스</w>
애 지</w>
애 쓴다</w>
애 꿎</w>
앞 세워</w>
앜 ㅋㅋㅋ</w>
암 흑</w>
알프레 도</w>
알리 샤</w>
알 바라</w>
알 렸</w>
알 레
앉 혀</w>
안쓰러 움</w>
안드 레이</w>
안 무</w>
안 네</w>
안 길</w>
악 취</w>
악 악</w>
악 물</w>
악 과</w>
아카데미 상</w>
아울 러</w>
아스 팔트</w>
아름다움 도</w>
아름다 운지</w>
아른 거리</w>
아르 헨티나</w>
아닌 게</w>
아니 하</w>
아네 트베닝</w>
아기 공룡</w>
아 호</w>
아 하하하</w>
아 포</w>
아 퍼</w>
아 톤</w>
아 테나</w>
아 킬
아 진</w>
아 지매</w>
아 즈미</w>
아 여</w>
아 스테
아스테 릭스</w>
아 사노</w>
아 바</w>
아 린</w>
아 군</w>
씨 씨</w>
쓸 모</w>
쓸 려고</w>
쓰 일</w>
쓰 여
쓰 라
쏟아 졌</w>
쏟아 부</w>
쏘 리</w>
써 로
써로 게이트</w>
쌍 칼</w>
쌉 싸
싼 다</w>
싸 한</w>
싸 하</w>
싸 워야</w>
싱그러 운</w>
심 지호</w>
심 원</w>
심 연</w>
심 야식당</w>
심 신</w>
심 성</w>
실타 래</w>
실베 스터</w>
실 종사건</w>
실 제론</w>
실 없</w>
실 력
신비 감</w>
신 호</w>
신 호
신 해
신 참</w>
신 중히</w>
신 우</w>
신 상</w>
신 뢰
신뢰 도</w>
신 남</w>
신 구</w>
식 욕</w>
시청 료</w>
시나 리</w>
시 후</w>
시 킨다는</w>
시 켰
시 카</w>
시 집
시 원히</w>
시 여</w>
시 얼
시 댄</w>
시 가
시가 전</w>
승 현</w>
승 지</w>
승 부
슴 돠</w>
슴 니다</w>
슬퍼 해야</w>
슬럼 프</w>
슬 라이
스피 커</w>
스펙 트럼</w>
스토 랑</w>
스탈 링</w>
스타일 리시</w>
스타 크</w>
스크 립
스코 트</w>
스케이트 보드</w>
스카이 라인</w>
스모 킹</w>
스 펙</w>
스 즈</w>
스 윙
스 산</w>
스 모</w>
스 내치</w>
스 나</w>
쉬 울</w>
숨 에</w>
숨 넘어가</w>
순 도</w>
순 대</w>
숙 청</w>
숙 자</w>
숙 사</w>
수 학여행</w>
수 팬</w>
수 요</w>
수 색
수색 대</w>
수 배</w>
수 민</w>
수 경</w>
숀 코네리</w>
쇼 핑
쇼 파</w>
쇄 기</w>
송 재
송 선미</w>
송 두리</w>
속 죄</w>
속 임수</w>
속 여서</w>
속 세</w>
속 사정</w>
속 내</w>
소용 없</w>
소 카</w>
소 세지</w>
소 린
소린 가</w>
소 꿉</w>
소 꿉
셰 프</w>
셔 쇼
셀 린
센 티
세르 지오</w>
세르 게이</w>
세련 되</w>
세 페</w>
세 차</w>
세 익</w>
세 우스</w>
세 요
세 쌍둥이</w>
성 자</w>
성 열</w>
성 어</w>
성 심</w>
성 상</w>
성 문화</w>
섭 리</w>
설레 발</w>
설 탕</w>
설 움</w>
설 물</w>
설 명
선 아</w>
선 보인</w>
선 방</w>
선 동
선 도</w>
석 현</w>
서바이 버</w>
서 핑</w>
서 퍼</w>
서 윤</w>
서 너</w>
샷 건</w>
샤 우</w>
샤 룩
샤룩 칸</w>
생겼 었</w>
생 태</w>
생 수</w>
생 방송</w>
생 리</w>
생 로랑</w>
샘 솟</w>
새 엄마</w>
새 미</w>
새 겨</w>
상 혁</w>
상 옥</w>
상 스</w>
상 사부일체</w>
상 부</w>
상 맞</w>
상 당수</w>
상 공</w>
삼 둥이</w>
살릴 려고</w>
살려 줘</w>
살 찐</w>
살 자</w>
살 색</w>
살 살</w>
사채 업자</w>
사이 더</w>
사무 치</w>
사무 라</w>
사로 잡힌</w>
사랑 놀음</w>
사 파리</w>
사 토</w>
사 일
사 양</w>
사 사
사 또</w>
사 다리</w>
사 내</w>
뽑아 낼</w>
뼈 대</w>
뻐 야</w>
뻐 기</w>
빙 글</w>
빗 속</w>
빗 나가</w>
빌 머레이</w>
빈틈 없이</w>
빈틈 없</w>
빈 스</w>
비행 선</w>
비 켜
비 츠</w>
비 지</w>
비 즈
비 벼</w>
비 법</w>
비 노</w>
비 글
비글 로우</w>
블랑 쉐</w>
블 스</w>
블 라
블라 인드</w>
브렌 든</w>
브 룩</w>
브 레인</w>
브 람
붙 히</w>
붙 혀</w>
붙 일</w>
붕 붕</w>
붕 대</w>
불러 온</w>
불 현
불 태워</w>
불 변</w>
분 쇄기</w>
분 배</w>
북 경</w>
부셔 버릴</w>
부릅 뜨</w>
부르 짖</w>
부담 감</w>
부 적응</w>
부 위</w>
부 도</w>
봣을 때</w>
봣 지</w>
봣 어</w>
봐 야죠</w>
봉 원</w>
봉 년</w>
볼 케이노</w>
볼 드
볼 까봐</w>
본 부</w>
복수 심</w>
복 종</w>
복 제품</w>
복 사기</w>
복 도</w>
복 기</w>
보호 자</w>
보 충</w>
보 안</w>
보 냄</w>
보 낼
보 나마나</w>
보 강</w>
병 폐</w>
병 실</w>
변 형</w>
변 장</w>
벼 랑</w>
벤 틀리</w>
벤 츠</w>
벤 지</w>
베이 브</w>
베로니 카</w>
베 틀</w>
베 베</w>
베 라</w>
베 니
벚 꽃</w>
벗 어났</w>
법 한</w>
범 접</w>
벌거 벗</w>
벌 판</w>
버금 갈</w>
버 지니아</w>
버 전트</w>
버 린다는</w>
버 렸으면</w>
버 럭</w>
버 거운</w>
뱅 뱅</w>
백 혈병</w>
백 마</w>
배틀 쉽</w>
배고 픈</w>
배 상</w>
배 배</w>
배 고파</w>
배 가</w>
방울 방울</w>
방 주</w>
방 어율</w>
방 심</w>
방 망이</w>
방 구석</w>
방 관</w>
밥 통</w>
밤 하늘</w>
밤 바</w>
밝혀 진</w>
밝 힐</w>
발 목</w>
발 군</w>
발 걸음</w>
발 가
받아 들여</w>
받 치</w>
받 이</w>
반짝 이</w>
반 항
반 죽</w>
반 절</w>
반 신
반 격</w>
반 가</w>
박하 사탕</w>
박준 규</w>
박정 철</w>
박영 진</w>
박 힐</w>
박 미선</w>
박 멸</w>
바이 크</w>
바이 오맨</w>
바이 스</w>
바로 잡</w>
바 우어</w>
바 랫</w>
바 닥
바 꿈</w>
바 꾼
밀 크</w>
밀 렸</w>
민 효린</w>
민 기</w>
미야자키 하야오</w>
미스 김</w>
미 필</w>
미 제</w>
미 이케</w>
미 유</w>
미 웠</w>
미 워도</w>
미 워</w>
미 련
미 닉</w>
므 흣</w>
므 니다</w>
뭐 야</w>
물 가</w>
묻 어난다</w>
문 화재</w>
문 서</w>
문 명
문 도</w>
묶 여</w>
묵 념</w>
무지 한</w>
무 신경</w>
무 마</w>
못 추</w>
못 써</w>
못 생기</w>
못 나</w>
몸 짱</w>
몸 서
몰 랑</w>
모자 랐</w>
모 히
모 텐슨</w>
모 잘라</w>
몇 일</w>
명 호</w>
명 민</w>
멧 돼지</w>
멜로 라</w>
멘 데스</w>
메탈 리카</w>
메 워야</w>
메 우</w>
메 스
메 말랐</w>
멋 있
멋 드러진</w>
멀 더</w>
먼 로</w>
먹 혔</w>
먹 인</w>
맺 히</w>
맹 승지</w>
맹 맹</w>
맥 티
맥 가이
맥가이 버</w>
매운 맛</w>
매니 악</w>
매그 놀리</w>
매 트</w>
매 개</w>
맞춤 법</w>
망가 져</w>
망 해서</w>
말 포이</w>
말 이</w>
말 음</w>
말 없이</w>
말 아톤</w>
말 살</w>
말 렸</w>
말 랑
말 길</w>
만 지
만 두</w>
만 년</w>
막 되</w>
막 돼먹</w>
막 강</w>
마틴 스콜세지</w>
마츠 야마</w>
마주 치</w>
마일 리지</w>
마음 이</w>
마운 틴</w>
마사 키</w>
마르 코</w>
마나 피</w>
마 티</w>
마 신</w>
마 쇼</w>
마 빡</w>
마 부</w>
마 릴린</w>
마 땅
마땅 히</w>
립 스틱</w>
리 퍼</w>
리 임</w>
리 우스</w>
리 온</w>
리 엘</w>
리 야</w>
리 버
리 만치</w>
리 는</w>
릅답 고</w>
름 다
르네 상스</w>
르 미</w>
르 노
르 나
르 고</w>
류 수영</w>
룬 다는</w>
로빈 스</w>
로 코
로 켓</w>
로 저</w>
로 섬</w>
로 베르토</w>
로 렌
로렌 조</w>
로 더</w>
련 사</w>
레이 로</w>
레오 나르
레오나르 도</w>
레 퀴엠</w>
레 져</w>
레 스토랑</w>
레 몬</w>
레 닌</w>
레 너
레너 드</w>
럭 시</w>
러브 스토리</w>
러 치</w>
랬 다</w>
랜 다</w>
래 퍼</w>
래 스</w>
랑 드롱</w>
랑 가</w>
랐 으면</w>
라이 오
라니 요</w>
라 틴</w>
라 인업</w>
라 민</w>
라 미란</w>
라 면서요</w>
라 던</w>
라 느니</w>
뜨 려</w>
뛰어 가</w>
뚱 맞
뚫 린</w>
뚫 리</w>
똘 기</w>
똑똑 히</w>
떨어뜨 림</w>
떨어뜨 려</w>
떨어 져요</w>
떨어 져도</w>
떨 쳐</w>
떨 렸</w>
떠오 른</w>
떄 는</w>
땡 큐</w>
때려 쳤</w>
때려 도</w>
때 린</w>
딸 려서</w>
딴 지</w>
따라 온다</w>
딘 데</w>
디아 블로</w>
디 아</w>
디 방</w>
디 렉</w>
등 극</w>
들 판</w>
들 통</w>
들 었
득 템</w>
드 반담</w>
드 문
드 랑</w>
드 기</w>
드 가</w>
뒹 굴</w>
뒷 내</w>
뒤 흔드</w>
뒤 치
뒈 지</w>
두루 두루</w>
두 드러
두 더
두더 지</w>
두 꺼운</w>
되 짚</w>
되 살리</w>
돼 지
동사 서독</w>
동 호회</w>
동 혁</w>
동 창</w>
동 족</w>
동 안
동 맹</w>
돌아 와서</w>
돌아 온다</w>
돌려 봐도</w>
돌려 내</w>
돌 핀</w>
돌 아서</w>
돌 아</w>
독 하</w>
독 점</w>
도 청</w>
도 제</w>
도 용</w>
도 요</w>
도 약</w>
도 미닉</w>
도 면</w>
도 르</w>
도 기</w>
델 라</w>
데이 비드</w>
데이 루이스</w>
데려 와</w>
데 일</w>
데 없</w>
데 미안</w>
데 군데</w>
덤 벼
던 진다</w>
더스틴 호프만</w>
더럽 혀</w>
더 운데</w>
대장 정</w>
대 하드라마</w>
대 종상</w>
대 열</w>
대 소동</w>
대 반</w>
대 미</w>
대 물</w>
대 모</w>
대 망</w>
대 루</w>
대 령</w>
대 려</w>
대 나무</w>
당 일</w>
당 선</w>
답답 이</w>
달아 보</w>
달라 짐</w>
달라 져</w>
달 림</w>
달 려야</w>
달 나라</w>
단 추</w>
단 숨에</w>
단 성사</w>
단 번에</w>
단 골</w>
다크 라이</w>
다이 어리</w>
다이 버전트</w>
다뤄 서</w>
다니엘 데이루이스</w>
다 함</w>
다 친</w>
다 미</w>
다 마</w>
다 능</w>
다 는지</w>
니 랑</w>
능글 맞</w>
늘어 져</w>
늘어 났</w>
는 커녕</w>
는 다니</w>
는 구먼</w>
는 개</w>
늑 시</w>
느낀 다면</w>
느 니라</w>
뉴 먼</w>
뉘 우
눈 요깃
눈 사태</w>
누 비</w>
누 가누</w>
놔 라</w>
높 였</w>
농 간</w>
논 픽션</w>
녹 차</w>
녹 음
녹 슬</w>
녹 색</w>
노팅 힐</w>
노 후</w>
넼 ㅋㅋㅋ</w>
넼 ㅋ</w>
네 이</w>
넘어 간다</w>
너 흰</w>
냠 냠</w>
냐 구요</w>
낸 다고</w>
내려 보</w>
내려 갈</w>
내게 도</w>
내 뿜</w>
내 보</w>
내 버려</w>
내 다보</w>
내 놔도</w>
내 걸</w>
낮 술</w>
낭 만
남 규리</w>
날 린다</w>
날 레</w>
난 후</w>
난 이도</w>
난 봉</w>
낙 이</w>
나타 날</w>
나타 난다</w>
나올 지</w>
나올 까봐</w>
나오미 왓츠</w>
나아 갈</w>
나 인데</w>
나 을지도</w>
나 은</w>
나 영</w>
나 시</w>
나 바</w>
나 드</w>
낄낄 대</w>
낄낄 거리</w>
낀 다</w>
끼 침</w>
끼 쳐서</w>
끓 이</w>
끌려 갔</w>
끌 린</w>
끈질 긴</w>
끈적 끈적</w>
끄 덕</w>
꿋 이</w>
꿋 꿋이</w>
꿈 틀
꼴 려서</w>
꼭 대기</w>
꼬 일</w>
꼬 였</w>
깨 져</w>
깨 우</w>
깝 다
깜 작</w>
깔깔 대</w>
까 발리</w>
까 맣</w>
깊 숙</w>
깃 발</w>
김진 표</w>
김수 환</w>
김무 열</w>
김두 영</w>
김기 범</w>
김광 석</w>
김 조
김 응
김 은숙</w>
김 부
길 레</w>
긴 가</w>
긴 가
긴가 민가</w>
기타노 다케시</w>
기어 나오</w>
기뻐 하</w>
기동 전</w>
기다려 졌</w>
기다려 져</w>
기 특</w>
기 찬</w>
기 욤</w>
기 요</w>
기 아</w>
기 숙사</w>
기 때</w>
기 동</w>
기 댄</w>
기 달</w>
기 갈기</w>
기 가</w>
급 격</w>
금 이</w>
금 옥</w>
글 렌</w>
근 육질</w>
근 데
극 악무도</w>
그리스 도인</w>
그리스 도</w>
그리 워서</w>
그레이 엄</w>
그레 고리</w>
그럴 만한</w>
그런 진</w>
그런 대</w>
그러 게</w>
그라 운드</w>
그 중</w>
그 려서</w>
그 기</w>
규 환</w>
귀 척</w>
귀 중</w>
귀 감</w>
권 해효</w>
궁 상맞</w>
군 자</w>
군 사
군 바리</w>
군 데군데</w>
국수 주의</w>
국방 부</w>
국민 학생</w>
국 회</w>
국 장</w>
국 수</w>
국 밥</w>
국 극</w>
구 조
구 우</w>
구 암</w>
구 실</w>
구 성원</w>
구 르</w>
구 더기</w>
구 나
구 관</w>
구 겨</w>
교 류</w>
괴 팍</w>
괴 력</w>
괭 이</w>
광 해군</w>
광 식</w>
광 속</w>
광 산</w>
관 음</w>
관 여</w>
관 리자</w>
곽 도원</w>
과 일</w>
과 외</w>
과 오</w>
공 화국</w>
공 화</w>
공 해</w>
공 학</w>
공 지</w>
공 연장</w>
공 세</w>
공 모자</w>
공 들여</w>
골 수팬</w>
골 룸</w>
골 드</w>
곤 욕</w>
고지 전</w>
고사 하고</w>
고무 줄</w>
고독 감</w>
고 화질</w>
고 혹</w>
고 함</w>
고 프</w>
고 쿠센</w>
고 충</w>
고 천락</w>
고 의
고 여</w>
고 심</w>
고 민
고 래
고 달
고 감</w>
계 신데</w>
계 셨</w>
계 란</w>
경비 원</w>
경 쟁
경 영</w>
경 례</w>
경 감</w>
결 전</w>
결 실</w>
견 자</w>
겨 나</w>
게 시리</w>
검 도</w>
검 거</w>
걸 작선</w>
건방 진</w>
건 져</w>
건 모</w>
거듭 나</w>
거 치</w>
거 쳐</w>
거 들
걍 쓰레기</w>
갱 신</w>
갱 단</w>
갤 럭시</w>
개 호</w>
개 한</w>
개 편</w>
개 수작</w>
개 상</w>
개 도
갖 춰진</w>
갖 은</w>
강 타</w>
강 유</w>
강 사</w>
강 마</w>
강 동</w>
강 남
갑 부</w>
갑 다</w>
갑 과</w>
감상 주의</w>
감 소</w>
갈 기갈기</w>
간 신</w>
간 략</w>
간 데없</w>
간 달프</w>
각 선미</w>
각 목</w>
가져 와서</w>
가져 라</w>
가이 피어스</w>
가을 동화</w>
가벼 워</w>
가 짐</w>
가 중</w>
가 임</w>
가 여
가 선</w>
가 브리
가 부장</w>
가 뭄</w>
가 린다</w>
가 려서</w>
가 랑</w>
가 감</w>
ㅡㅡ 진짜</w>
ㅠㅠㅠㅠㅠㅠㅠㅠ ㅠㅠㅠㅠㅠㅠㅠㅠ
ㅠㅠㅠㅠ ㅠㅠㅠㅠ</w>
ㅠㅠ 배우
ㅠ 진짜</w>
ㅠ ㅡㅜ</w>
ㅜㅜ ㅠ</w>
ㅔ ㅔ
ㅋㅋㅋㅋㅋㅋㅋㅋ ㅋ
ㅊㄹ ㅊㄹ
ㅇㄴ ㅁ
ㅇ ㅏ</w>
ㅇ ㅎ
ㅇ ㄷ
ㅆㄹ ㄱ
ㅆ ㅅ
。 。</w>
♥♥♥♥ ♥♥</w>
♥ *
☆ ☆
★★★★ ★★★★
★ ★</w>
· ·
~~~~~~~~~~~~~~~~ ~~~~~~~~~</w>
~~~~~~~~ ~~~~~</w>
~~~~ ^^</w>
~~~~ !!!!</w>
~! ~</w>
~! ~!</w>
~ ♬</w>
~ ♥♥♥</w>
~ _~</w>
~ ..</w>
~ !!!
zzzz zzzz</w>
wo al
we some</w>
v or
v en
unn y</w>
u t
tr u
st ar</w>
sor ry</w>
s a</w>
rea d</w>
po p</w>
or d</w>
op le</w>
oooooooo oooo
on ly</w>
on g
o p</w>
o o</w>
n ing</w>
n hn</w>
mu sic</w>
mo ther</w>
m on
m i</w>
le t</w>
la st</w>
l oo
k or
k ed</w>
j k
in e
ill ing</w>
i ght</w>
h er</w>
gen d</w>
g ta</w>
fu n</w>
f unny</w>
f uc
f r
f ee
fee l</w>
every thing</w>
er s</w>
er ic
el l
ee t</w>
ear s</w>
e o</w>
e e</w>
da m
d s</w>
d rea
ch eap</w>
c t</w>
c si</w>
c ou
c on
c a
ba l</w>
ba ck</w>
an s</w>
a v
a te</w>
a gain</w>
a d
_ !</w>
^_ ^
^. ^
^ ~</w>
Wh y</w>
W a
W T
T hat</w>
T M</w>
T I
S T
S E
R ock</w>
Q u
P G</w>
P C</w>
O T</w>
O K</w>
M r</w>
M e</w>
M an</w>
LO LO
L I
K bs</w>
J SA</w>
I Q</w>
I E</w>
G o</w>
F O
F F</w>
E bs</w>
D D
C trl</w>
C J</w>
C E</w>
B ra
B l
A nd</w>
A l
A R</w>
@ #
?) ...</w>
?! ?!
? ....</w>
>> ></w>
> ,</w>
=_ =;</w>
== ==
= =</w>
< -</w>
;;;;;;;; ;;;;;;;;;;;;;;;;;</w>
;;;; ;;;;;</w>
;; ...</w>
: -)</w>
9 2
5 3</w>
4 45
3 50</w>
2 50</w>
2 500</w>
2 20</w>
198 4</w>
197 8</w>
19 9</w>
1010 1010</w>
1010 101010</w>
10 9</w>
1 8
1 00
00000000 0000
................ ........</w>
... !!!!</w>
.. ;;;;</w>
.. """</w>
.. !!!!</w>
.,, ..</w>
-_- ...</w>
-.- ;;</w>
- *</w>
- '</w>
- !</w>
- !!</w>
,, ..</w>
, ?</w>
( ^</w>
% ...</w>
"" '
"" ""
" '</w>
!!♥ !!♥
!!!!!!!!!!!!!!!! !!!!!!!!</w>
! ♥♥</w>
! @</w>
￣ )</w>
힐러 리더
힐러리더 프</w>
힐 즈</w>
히히 히히</w>
히스 레져</w>
히 메</w>
히 들
희 정</w>
희 재</w>
희 석</w>
흩 어지</w>
흡 혈</w>
흠 칫</w>
흔들 림</w>
흔들 거리</w>
흐 스탄</w>
흐 린</w>
흐 느
흉 측</w>
휩 싸
휠 체
휠체 어</w>
훌륭 히</w>
훈 계</w>
후 작</w>
후 임</w>
후 원</w>
후 네</w>
효 연</w>
회 고</w>
황 인식</w>
황 야</w>
황 소</w>
활 활</w>
활 전</w>
활 발</w>
확 산</w>
화 팅</w>
화 인</w>
화 이</w>
화 염병</w>
화 물</w>
화 만</w>
화 꽃</w>
홍경 민</w>
홈 페이지</w>
홀리 랜드</w>
홀 린</w>
혼 미</w>
혹 여</w>
호 튼</w>
호 킹</w>
호 칭</w>
호 스트</w>
형 언</w>
형 부</w>
협 력</w>
혐 의</w>
혈 투</w>
현대 극</w>
현 희</w>
현 태</w>
현 세</w>
현 석</w>
혀 요</w>
헬리 콥
헬리콥 터</w>
헤이 엑</w>
헤이 든</w>
헤 피</w>
헤 픈</w>
헤 어나</w>
헝 그리</w>
헛 되</w>
허 하</w>
허 큘
허큘 리스</w>
허 우</w>
허 벅
허벅 지</w>
허 둥
허 다</w>
허 가</w>
행복 감</w>
행 동
했 었
했 다간</w>
핵 무기</w>
해 피
해 줍니다</w>
해 졌으면</w>
해 져야</w>
해 제</w>
해 원</w>
해 온</w>
해 양
해양 경찰</w>
해 야겠다</w>
해 법</w>
해 물</w>
해 령</w>
해 논</w>
해 괴
해괴 망측</w>
항 복</w>
항 변</w>
항 문</w>
항 마</w>
항 공</w>
항 거</w>
합 작품</w>
함 익
함익 병</w>
함 의</w>
함 몰</w>
할 듯</w>
할 꼬</w>
한예 린</w>
한다 던데</w>
한다 더니</w>
한국 사</w>
한 탄</w>
한 정
한 적</w>
한 디</w>
한 곡</w>
한 겨</w>
하이 모어</w>
하루 빨리</w>
하 휘동</w>
하 장</w>
하 임</w>
하 의</w>
하 윤</w>
하 시</w>
하 멜</w>
하 네
하네 케</w>
하 게
필 적</w>
필 살
필살 기</w>
피어 스
피어스 브로스넌</w>
피어 난다</w>
피 해야</w>
피 파</w>
피 치</w>
피 의자</w>
피 렌
피렌 체</w>
피 똥</w>
피 날레</w>
플레이 보이</w>
플래 시
플 리즈</w>
프레 드</w>
프랭 코</w>
프랑 소
프라 다</w>
프 먼</w>
프 강</w>
풍 산부인과</w>
풍 경화</w>
품 위</w>
풀어 놨</w>
풀 하우스</w>
푸른 거탑</w>
푸 핫</w>
푸 욱</w>
표 상</w>
폭 주
폭 발력</w>
폭 로</w>
폭 군</w>
포장 지</w>
포 츠</w>
포 주</w>
포 유</w>
포 악</w>
포 시</w>
포 동</w>
폐쇄 공</w>
폐 륜</w>
평 평</w>
펼 칠</w>
펼 쳤</w>
편집 자</w>
편 함</w>
편 할</w>
편 치</w>
편 중</w>
편 애</w>
펠 트로</w>
펜 던스</w>
펜 대</w>
페이 션
페이션 트</w>
페 임</w>
펏 음</w>
펀 트</w>
퍼 트리</w>
퍼 시</w>
팬 지</w>
팩 토리</w>
패 왕
패왕 별
패왕별 희</w>
팔 머</w>
판 과</w>
파트 라</w>
파이 프</w>
파 탈
파 키
파 운드</w>
파 스타</w>
파 생</w>
파 멜
팀 워크</w>
티 지</w>
티 저</w>
티 에리</w>
티 네</w>
티 끌</w>
틀 어
트니 머피</w>
트 윈</w>
트 너</w>
투 덜
통 합</w>
통 신</w>
톱 니
톱니 바퀴</w>
토 화</w>
토 지</w>
토 미리</w>
토 미노</w>
토 막내</w>
토 리코</w>
토 르나
토르나 토레</w>
텔 러</w>
텐 션</w>
테크 노</w>
테이 션</w>
터트 려</w>
택 배</w>
태 아</w>
태 수</w>
태 산</w>
태 반</w>
탑 블레이드</w>
탈출 기</w>
탈 출구</w>
탈 선</w>
탈 바꿈</w>
탈 리</w>
탄 다</w>
탄 광</w>
탁 탁탁</w>
타케 우치</w>
타카 유키</w>
타 켓</w>
타 올</w>
타 불</w>
타 마</w>
타 게</w>
킹 슬리</w>
킹 덤</w>
킥 킥
키 치</w>
키 워야</w>
키 울</w>
키 리
키 나와</w>
킁 킁</w>
클로 이
클로이 모레츠</w>
클 림
클림 트</w>
클 로드</w>
클 라이브</w>
큰 딸</w>
크리스틴 스튜어트</w>
크리 트</w>
크래 쉬</w>
크라 임</w>
크 푸드</w>
크 루</w>
쿨 러닝</w>
쿠 미</w>
쿠 릴
쿠 로
콩 트</w>
콧 대</w>
콤 플렉스</w>
콜라 보
콜라보 레이션</w>
콜 로</w>
코 카</w>
코 앞</w>
코 알라</w>
코 베인</w>
코 딱지</w>
코 다</w>
케 익</w>
컴 버
컴버 배치</w>
컨 트리</w>
커트 러셀</w>
커 피
커 튼</w>
커 져서</w>
커 져</w>
커 밍</w>
커 리</w>
캡 쳐</w>
캠 퍼스</w>
캠 벨</w>
캐치 온</w>
카자 흐스탄</w>
카이 저</w>
카운 트</w>
카를 로</w>
카 툰</w>
카 즈
카 와</w>
카 비
카비 젤</w>
카 벨루치</w>
카 모토</w>
칭 호</w>
침 해</w>
침 팬지</w>
침 투</w>
침 략
침 대위</w>
칠 흑</w>
칠 까</w>
친 분</w>
친 밀</w>
치 주의</w>
치 이</w>
치 우치</w>
치 식</w>
치 바</w>
치 민</w>
치 뤄
치뤄 야</w>
치 루</w>
치 료
치 달</w>
취 할</w>
취 직</w>
충무 공</w>
충 수</w>
충 성심</w>
춥 니다</w>
춤 사위</w>
출 역</w>
춘 스타</w>
춘 다고</w>
축 약</w>
추 정</w>
추 위</w>
추 앙</w>
쵝오 의</w>
최종 회</w>
최 첨단</w>
최 적</w>
최 우선</w>
최 악
총 성</w>
촌 극</w>
초 토화</w>
초 고</w>
쳤 었</w>
쳐 줄</w>
쳐 져</w>
쳐 요</w>
쳐 바르</w>
쳐 들</w>
쳇 바퀴</w>
체 포</w>
체 코</w>
체 스터</w>
체 력</w>
청소 부</w>
청 춘스타</w>
청 전</w>
청 와
청와 대</w>
청 승
청승 맞</w>
청 부
청부 업자</w>
첫 사랑</w>
천 진
천진 난만</w>
천 불</w>
천 년
처 치</w>
처 사</w>
처 박</w>
처 들</w>
챙 겨서</w>
챕 터</w>
채 운다</w>
채 권</w>
찾아 와</w>
찾아 올</w>
창 조
창 백</w>
창 공</w>
참 치</w>
참 을
참을 성</w>
참 석</w>
참 말</w>
찰리 쉰</w>
찰 떡
찰떡 궁합</w>
찮 았
착 했</w>
착 함</w>
착 한데</w>
착 용</w>
착 란</w>
차이 코프스키</w>
차이 나타
차이나타 운</w>
차 장</w>
차 순영</w>
차 비</w>
차 린</w>
차 려서</w>
찢어 질</w>
찢 겨</w>
찡 찡</w>
찜 질
찜질 방</w>
찔 린</w>
찐 하</w>
쯔 쯔쯔</w>
쮸 쮸
쫓 겨나</w>
쫒 아
쩡 쩡</w>
쩃 든</w>
짤 려</w>
짝 패</w>
짜 식</w>
짜 낸</w>
짜 개</w>
집어 치워라</w>
집어 던지</w>
집 편</w>
집 약</w>
집 권</w>
질 랜드</w>
질 간질</w>
진 중권</w>
진 주
진 실로</w>
진 술</w>
진 무구</w>
진 목
진목 승</w>
진 면목</w>
진 단</w>
진 기</w>
진 관
진관 희</w>
진 가신</w>
직 키드</w>
직 선</w>
직 감</w>
지켜 볼</w>
지우 개</w>
지난 날</w>
지긋 하</w>
지긋 지긋하</w>
지 환</w>
지 표</w>
지 킨다</w>
지 쳐서</w>
지 질</w>
지 조</w>
지 젤</w>
지 정</w>
지 워졌</w>
지 왕</w>
지 엽</w>
지 양</w>
지 비</w>
지 면</w>
지 령</w>
지 라치</w>
지 단</w>
지 다</w>
지 날</w>
지 구
지 가</w>
증 세</w>
증 권</w>
증 가</w>
즐거 우</w>
즐 비</w>
즐 겨서</w>
즈 미켈슨</w>
쥐 똥</w>
줫 다</w>
중 하</w>
중 천</w>
중 재</w>
줄리 엣
줄리 안
줄 인</w>
줄 려</w>
준 형</w>
죽 여요</w>
죽 는다</w>
죽 거리</w>
주먹 질</w>
주름 살</w>
주 정
주정 뱅
주정뱅 이</w>
주 잔</w>
주 워
주 역</w>
주 시</w>
주 사위</w>
주 마
주마 등</w>
주 력</w>
주 둥이</w>
죄 부</w>
좋 았
종착 역</w>
종 형</w>
종 철</w>
졸 음
졸음 운전</w>
졸 고</w>
족 치</w>
족 구</w>
조윤 숙</w>
조성 모</w>
조디 악</w>
조 혜련</w>
조 페시</w>
조 정
조 인</w>
조 은지</w>
조 웅</w>
조 연출</w>
조 여
조여 드</w>
조 엘
조 수정</w>
조 반
조반 니</w>
조 립</w>
조 련사</w>
조 동혁</w>
조 도로
조도로 프스키</w>
조 난</w>
조 그마</w>
조 교</w>
조 개</w>
제라 르</w>
제 휴</w>
제 제</w>
제 물</w>
제 동</w>
제 갈
제 각각</w>
정신 력</w>
정 하
정 크푸드</w>
정 철민</w>
정 진영</w>
정 지영</w>
정 운
정운 택</w>
정 용</w>
정 예</w>
정 성호</w>
정 성
정 복
정복 자</w>
정 밀</w>
정 민</w>
정 물</w>
정 대</w>
정 규
접 해본</w>
점 심</w>
절 제미</w>
전광 판</w>
전 혜진</w>
전 해졌</w>
전 야</w>
전 북</w>
전 봇
전봇 대</w>
전 말</w>
적재 적소</w>
적 셔</w>
적 반
적반 하장</w>
적 격</w>
저널 리스트</w>
저 쪽</w>
저 마다</w>
저 린</w>
저 러
저러 쿵</w>
저 께</w>
저 기요</w>
저 글
저글 링</w>
잭 에프론</w>
재 팬</w>
재 키</w>
재 충전</w>
재 완</w>
재 끼</w>
장난 쳐</w>
장 하</w>
장 첸</w>
장 인
장 옥정</w>
장 영</w>
장 어</w>
장 수원</w>
장 성</w>
장 생</w>
장 부</w>
장 마</w>
장 량</w>
장 끌로드</w>
장 끌로
장끌로 드반담</w>
잡혀 가</w>
잡 친</w>
잡 쳐</w>
잡 소리</w>
잡 니다</w>
잠 잤</w>
잘 생기</w>
잔혹 성</w>
잔혹 사</w>
잔 머리</w>
잔 득</w>
작 태</w>
작 점</w>
자주 자주</w>
자유 주의</w>
자위 질</w>
자본 가</w>
자 행</w>
자 태</w>
자 장면</w>
자 의</w>
자 위대</w>
자 업
자업 자
자업자 득</w>
자 야</w>
자 빠져</w>
자 뷰</w>
자 베르</w>
자 리
자 른</w>
자 긴</w>
자 구</w>
잉글 랜드</w>
잇 감</w>
입 꼬리</w>
임진 강</w>
임 시완</w>
일가 견</w>
일 화</w>
일 주일</w>
일 점</w>
일 시</w>
일 생일
일생일 대</w>
일 삼</w>
일 산</w>
일 맥
일맥 상통</w>
일 란</w>
일 딴</w>
인생 길</w>
인생 극장</w>
인베이 젼</w>
인디 펜던스</w>
인도 네
인도네 시아</w>
인기 몰이</w>
인 턴</w>
인 색</w>
인 문학</w>
인 문</w>
인 류
인 건</w>
익 히</w>
익 스</w>
이하 일</w>
이태 석</w>
이태 백</w>
이태 란</w>
이지 혜</w>
이중 성</w>
이재 희</w>
이완 용</w>
이영 훈</w>
이영 은</w>
이어 져서</w>
이야 긴데</w>
이승 희</w>
이수 만</w>
이성 애자</w>
이성 계</w>
이상 주</w>
이만 저만</w>
이뤄 진</w>
이랬 었</w>
이동 건</w>
이다 희</w>
이니 드</w>
이기 용</w>
이기 선</w>
이규 형</w>
이 혜
이 하나</w>
이 펙트</w>
이 채영</w>
이 즘</w>
이 종</w>
이 적</w>
이 의</w>
이 왕</w>
이 와이
이와이 슌지</w>
이 싱</w>
이 소</w>
이 사장</w>
이 쁠</w>
이 쁘
이 발
이 반</w>
이 무기</w>
이 모
이 라는</w>
이 도
이 끌리</w>
이 끌려</w>
이 까</w>
이 군</w>
이 광
이 곳
이곳 저곳</w>
의 성</w>
의 뢰
의뢰 인</w>
의 논</w>
읍 시다</w>
음 탕</w>
음 음</w>
음 반</w>
음 란
음란 물</w>
을 려</w>
을 런지</w>
을 래야</w>
을 듯</w>
을 게요</w>
은 현</w>
은 하
은 성</w>
으면 좋
으 흠</w>
으 웩</w>
으 셔야</w>
윤 후</w>
윤 소이</w>
윤 설희</w>
육 체
육 사</w>
육 강
육강 식</w>
유키 에</w>
유 혜리</w>
유 형</w>
유 혈</w>
유 종</w>
유 실</w>
유 스케</w>
유 성</w>
유 빈</w>
유 구
유구 무언</w>
유 건</w>
유 가족</w>
유 가령</w>
윈 도우</w>
위 보</w>
웜 홀</w>
월 리스</w>
월 등</w>
월 등
월등 히</w>
원 해요</w>
원 해</w>
원 리</w>
원 더</w>
원 년</w>
원 가</w>
워 프</w>
워 스</w>
워 렌</w>
움직 여</w>
울 화</w>
울 엄마</w>
울 먹</w>
울 랄라</w>
울 궈</w>
운 수</w>
우월 감</w>
우려 내</w>
우 즈
우 욱</w>
우 영</w>
우 사</w>
우 민</w>
우 미</w>
우 면</w>
우 루루</w>
우 라
우 둔</w>
우 도</w>
우 다</w>
우 닝</w>
우 나</w>
우 그</w>
우 가</w>
욯 ㅎㅎㅎ</w>
용 실</w>
용 문</w>
용 녀</w>
요 코</w>
요 짐</w>
요 요</w>
요 시노</w>
요 래</w>
요 동
요동 치</w>
요 다</w>
외 인
외 운</w>
외 숙모</w>
외 로워서</w>
외 감</w>
왤 캐
왕 초</w>
완 전체</w>
왁 스</w>
와 아</w>
와 르르</w>
옹 지마</w>
옵 션</w>
옳 바른</w>
올려 다보</w>
올라 왔</w>
올 지</w>
올 바르</w>
올 려서</w>
올 란도</w>
올 가미</w>
온 전</w>
온 난</w>
옥 토</w>
옥 소리</w>
오지 명</w>
오연 수</w>
오아 시스</w>
오시 엔</w>
오바 마</w>
오 형제</w>
오 판</w>
오 키나와</w>
오 키</w>
오 유인</w>
오 싱</w>
오 스트
오 사</w>
오 비
오 딘</w>
오 디</w>
오 디
오 도</w>
오 니</w>
오 뉴
오뉴 월</w>
오 그</w>
옛 정</w>
예수 쟁이</w>
예 이츠</w>
영웅 재중</w>
영 심</w>
영 동</w>
영 계</w>
엿 본</w>
엿 보인다</w>
염 치</w>
염 원</w>
염 색</w>
염 력</w>
열 불</w>
열 릴</w>
열 렬</w>
열 나</w>
연 줄</w>
연 세</w>
연 변</w>
연 령
연령 층</w>
연 급</w>
역 차별</w>
역 사물</w>
역 린</w>
여름 날</w>
여 파</w>
여 직</w>
여 중생</w>
여 제</w>
여 아</w>
여 심</w>
여 덕</w>
여 담</w>
여 곡</w>
여 경</w>
엠마 스톤</w>
엠 씨</w>
엠 비</w>
엘리 엇</w>
엘리 어트</w>
엔니 오</w>
에릭 로버츠</w>
에 에에</w>
에 어울프</w>
에 볼라</w>
에 너</w>
었 잖</w>
없 다</w>
업 주의</w>
업 소</w>
엄 연</w>
얼토당 토</w>
얼굴 마담</w>
얼 떨
얼떨 결</w>
얼 거렸</w>
얻어 터지</w>
언젠 데</w>
언 행</w>
언 론
언 능</w>
억 측</w>
억 만</w>
어지러 움</w>
어여 쁜</w>
어어 어
어어어 어</w>
어린 이날</w>
어린 놈</w>
어려 워요</w>
어두 침침</w>
어 티</w>
어 투</w>
어 처</w>
어 즈</w>
어 죽</w>
어 언</w>
어 빵</w>
어 브</w>
어 만</w>
어 림
어 뜩</w>
어 디
어 두</w>
어 는</w>
어 김
양 호</w>
양 파</w>
양 자</w>
양 민</w>
양 말</w>
양 놈</w>
양 가휘</w>
약 탈자</w>
약 탈</w>
약 육강식</w>
야 행</w>
야 해서</w>
야 유</w>
야 왕</w>
야 시</w>
야 스
야 무지</w>
야 릇</w>
앵 앵</w>
앤 드류
액 트</w>
애쉬튼 커쳐</w>
애국 주의</w>
애 타</w>
애 청</w>
애 애</w>
애 시
애시 당초</w>
애 송이</w>
애 바</w>
애 드리
앞 세운</w>
앞 섰</w>
앙 꼬</w>
압 승</w>
압 박감</w>
압 력</w>
알프레 드</w>
알아 볼</w>
알리 야</w>
알 탄</w>
알 츠
알 지</w>
알 제리</w>
알 아내</w>
알 바로</w>
알 량</w>
알 랑드롱</w>
안 시</w>
안 성
안 락
안락 사</w>
안 되
악 귀</w>
아픈 데</w>
아파 지</w>
아킬 레스</w>
아일 라</w>
아이 씨</w>
아이 스
아이 러브</w>
아웅 산</w>
아웅 산
아웅산 수치</w>
아웃 사이더</w>
아야 세
아야세 하루카</w>
아아 악</w>
아미 타불</w>
아르 세우스</w>
아나키 스트</w>
아 후</w>
아 틀
아 쿠
아 츠</w>
아 집</w>
아 장
아 작</w>
아 우디</w>
아 야죠</w>
아 암</w>
아 세이두</w>
아 린다</w>
아 렸</w>
아 련
아 동학</w>
아 다</w>
아 는</w>
아 늑</w>
아 낙</w>
아 낀</w>
아 껴
씨 앗</w>
씨 알</w>
쓸 라고</w>
쓰레기 장</w>
쓰러 졌</w>
쓰러 져</w>
쓰 여</w>
쓰 르
쓰르 라미</w>
쓰 다듬</w>
쏴 서</w>
쏴 도</w>
쏩 니다</w>
쏟아 진다</w>
쏜 다</w>
썼 었</w>
썩 히</w>
쌩 뚱맞
쌩뚱맞 고</w>
쌩 까</w>
쌓 여</w>
쌉싸 름</w>
쌈 빡</w>
싹 트</w>
싸 해</w>
싸 움
싸 안</w>
싸 늘</w>
싱 거워</w>
심 화</w>
심 형</w>
심 판자</w>
심 청전</w>
심 지</w>
심 의</w>
심 감</w>
싫어 합니다</w>
실력 파</w>
실 습</w>
실 생활</w>
실 명</w>
실 리
실 루
실루 엣</w>
실 검</w>
신 혼</w>
신 주아</w>
신 조</w>
신 저</w>
신 이치</w>
신 용
신 야</w>
신 시</w>
신 상옥</w>
신 보라</w>
신 병</w>
신 기원</w>
신 공</w>
신 곡</w>
식 물</w>
식 견</w>
시켰 으면</w>
시끌벅 적</w>
시끄러 움</w>
시 험
시 해</w>
시 커
시 작점</w>
시 에라</w>
시 아버지</w>
시 실리</w>
시 속</w>
시 봉</w>
시 무스</w>
시 름</w>
시 들
시들 시들</w>
시 구</w>
시 가</w>
승 무원</w>
습 디다</w>
습 니다
슬 플까</w>
스포 츠카</w>
스페 인어</w>
스파이 더</w>
스파르 타</w>
스티 스</w>
스트레 칭</w>
스트라이 커</w>
스트 라
스토 피아</w>
스토 어</w>
스테 이트</w>
스탠 드</w>
스탈 린</w>
스탈 린
스탈린 그라드</w>
스타 스텔론</w>
스타 게이트</w>
스크립 트</w>
스위 스</w>
스마 일리</w>
스러 웠
스러 워진</w>
스러 운데</w>
스 탠</w>
스 탁</w>
스 킨
스 무스</w>
스 몰
스몰 빌</w>
스 며</w>
스 마</w>
스 란</w>
스 라치</w>
스 나이더</w>
슈왈 제네거</w>
쉽 사리</w>
숱 한</w>
숨 죽여</w>
숨 겨
순간 이동</w>
순 희</w>
순 풍산부인과</w>
순 진무구</w>
순 종</w>
수호 천사</w>
수십 만</w>
수사 대</w>
수목 장</w>
수리 검</w>
수 행
수 중</w>
수 용</w>
수 순</w>
수 만</w>
수 령</w>
숀 빈</w>
쇼 팽</w>
쇼 타임</w>
송 하윤</w>
송 종국</w>
손 태영</w>
손 익</w>
손 쉽</w>
손 수</w>
손 들</w>
속상 했</w>
속 한다</w>
속 상</w>
속 담</w>
소년 원</w>
소꿉 장난</w>
소 행</w>
소 프트</w>
소 프
소 탕</w>
소 질</w>
소 어</w>
소 아</w>
소 스라치</w>
소 룡</w>
소 득</w>
소 니
소 노</w>
소 개
셰 퍼드</w>
셔쇼 셔쇼
셀린 느</w>
섹 시해</w>
세탁 소</w>
세이 메이</w>
세 현</w>
세 태</w>
세 인트</w>
세 이건</w>
세 부</w>
세 레
성대 모사</w>
성 희</w>
성 황후</w>
성 품</w>
성 작</w>
성 서</w>
성 범죄자</w>
성 민</w>
성 미</w>
성 립</w>
성 대</w>
성 냥</w>
섬 찟</w>
설 킨</w>
설 렐</w>
설 렁</w>
설 렁
선우 일란</w>
선동 렬</w>
선 화</w>
선 동이</w>
선 다는</w>
선 글라스</w>
석 유</w>
석 원</w>
석 궁</w>
서울 대</w>
서 클</w>
서 장</w>
서 의</w>
서 연</w>
서 류</w>
서 둘
서둘 러</w>
샤이 아</w>
샤 오시엔</w>
생활 상</w>
생겼 어요</w>
생 화학</w>
생 긴다면</w>
생 겨야</w>
생 가</w>
색 다를</w>
색 계</w>
새 옹지마</w>
새 발</w>
새 로워</w>
새 낀</w>
상 환</w>
상 현실</w>
상 팔자</w>
상 진</w>
상 업주의</w>
상 세</w>
상 감</w>
살아 라</w>
살 포시</w>
살 펴</w>
살 상</w>
살 린다</w>
살 리
산산 조각</w>
산 호</w>
산 중</w>
산 자</w>
산 삼</w>
산 사람</w>
산 다면</w>
삭 발</w>
사형 제도</w>
사이 즈</w>
사이 사이</w>
사로 잡혀</w>
사랑 싸움</w>
사라 져라</w>
사기 죄</w>
사고 뭉치</w>
사 카모토</w>
사 제</w>
사 점</w>
사 인</w>
사 슬</w>
사 스케</w>
사 설</w>
사 사키</w>
사 방</w>
사 모님</w>
사 려</w>
사 계절</w>
사 각
삐 삐</w>
뿌리 깊</w>
뽑 힐</w>
뽐 내</w>
뺴 면</w>
뺴 곤</w>
빼 어나</w>
빼 내</w>
빨려 들</w>
빨 아
빨 갛</w>
빠져 본</w>
빠 를</w>
빠 라</w>
빠 뜨리</w>
빛 깔</w>
빙 하</w>
빙 글
빙글 빙글</w>
빗 겨</w>
빔 밥</w>
빌 붙</w>
빌 미</w>
빌 렸</w>
빈 치</w>
빈 민가</w>
빈 껍데기</w>
빅 터</w>
비지 엠</w>
비 쥬</w>
비 우스</w>
비 안리</w>
비 상식</w>
비 상</w>
비 빔밥</w>
비 비안리</w>
비 비안</w>
비 만</w>
비 랑</w>
비 뚤</w>
블루 아</w>
블랙 잭</w>
블 라</w>
브리 트니머피</w>
브라 우닝</w>
브 릿지</w>
붙 여서</w>
붙 여
붙 들</w>
붕 어빵</w>
불현 듯</w>
불러 일으킨다</w>
불러 다</w>
불 효자</w>
불 화</w>
불 쌍
불 명확</w>
불 로</w>
불 끈</w>
불 견</w>
분 해</w>
분 하</w>
분 쟁</w>
분 신
분 수</w>
분 단
분단 국가</w>
북 두</w>
북 극
부풀 린</w>
부탁 드려요</w>
부지 런</w>
부자 지간</w>
부자 간</w>
부러 지</w>
부 흥</w>
부 풀리</w>
부 제목</w>
부 정
부 적절</w>
부 적</w>
부 양</w>
부 릴</w>
부 러운</w>
부 락</w>
부 그</w>
부 귀
부귀 영화</w>
봣 었는데</w>
봣 네요
봣 고</w>
봐 준다</w>
봉 투</w>
봉 선</w>
볼 프강</w>
본 판</w>
본 기</w>
복 희</w>
복 사
보지마 셈</w>
보여 야</w>
보라 색</w>
보는 내내</w>
보 조</w>
보 잘것없</w>
보 자</w>
보 잉</w>
보 일까</w>
보 이트</w>
보 면</w>
보 리
보 르
보 는</w>
보 나</w>
보 건</w>
병 력</w>
병 들</w>
별 하</w>
별 표</w>
별 일</w>
변 해도</w>
변 수</w>
벽 돌</w>
베이 츠</w>
베 풀</w>
베 컴</w>
베 낄</w>
베 개</w>
베 가</w>
벗 고</w>
범 하</w>
벌 집</w>
벌 목</w>
벌 린</w>
벌 떡</w>
벅 찼</w>
버무 렸</w>
버 틴</w>
버 텨
버 터</w>
버 즈</w>
버 섯</w>
버 려진</w>
버 려
버 그만</w>
뱁 새</w>
백 현</w>
백 치미</w>
백 치</w>
백 야행</w>
백 신</w>
백 도
백도 빈</w>
배고 프</w>
배 후</w>
배 터리</w>
배 추</w>
배 심원</w>
배 수빈</w>
배 송</w>
배 설물</w>
배 럴</w>
배 낭</w>
방 언</w>
방 기</w>
밝혀 질</w>
발 해</w>
발 전
발 벗고</w>
발 려</w>
반항 아</w>
반신 반
반신반 의</w>
반 환</w>
반 역자</w>
반 박</w>
반 딧
반딧 불</w>
반 디</w>
반 납</w>
박지 빈</w>
박영 선</w>
박근 형</w>
박 혁
박 해
박 탈</w>
박 초롱</w>
박 순희</w>
박 산</w>
바꿔 치기</w>
바 토리</w>
바 텀</w>
바 쳤</w>
바 짝</w>
바 위보</w>
바 빴</w>
바 빠</w>
바 바</w>
바 랜</w>
바 란
바란 다면</w>
바 그</w>
바 그
밑 바탕</w>
밍 턴</w>
밀 회</w>
밀 어내</w>
밀 실</w>
밀 린다</w>
밀 린</w>
민주 당</w>
민 석</w>
미카 엘</w>
미사 여구</w>
미련 없이</w>
미라 클</w>
미 후네</w>
미 티</w>
미 천</w>
미 지왕</w>
미 주의</w>
미 음</w>
미 유키</w>
미 용실</w>
미 역</w>
미 얀</w>
미 쉘
미 도리</w>
미 그</w>
므 파탈
뭔 진</w>
뭉 쳤</w>
물어 뜯</w>
물러 가</w>
물 린</w>
묻 혀진</w>
묻 혀서</w>
묻 어난</w>
문화 유산</w>
문 예</w>
문 신</w>
문 방구</w>
무뎌 진</w>
무너 짐</w>
무 전기</w>
무 수히</w>
무 소유</w>
무 뚝뚝</w>
무 뎌</w>
무 단</w>
무 너</w>
무 궁
무 가</w>
뫼 비우스</w>
몽 둥이</w>
몽 고</w>
못 자</w>
못 사</w>
못 돼</w>
몸부림 치</w>
몸뚱 이</w>
몰려 왔</w>
몰려 온다</w>
목 수</w>
목 소</w>
목 마</w>
목 격자</w>
모히 칸</w>
모니 터링</w>
모니 카벨루치</w>
모 토
모 정</w>
모 씨</w>
모 셔</w>
모 도</w>
모 는</w>
모 나
명 칭</w>
명 우</w>
명 예
명 성황후</w>
명 박</w>
명 령</w>
명 단</w>
면 죄부</w>
면 라이더</w>
멩 이</w>
멜 리사</w>
메리 트</w>
메 여</w>
메 뚜기</w>
메 뉴</w>
메 꾸</w>
메 간
메간 폭스</w>
멍 해</w>
멍 한</w>
멋 질</w>
멉 니까</w>
멈 춤</w>
먹 잇감</w>
머 무</w>
맹 기</w>
맹 글</w>
맹 구</w>
맨 홀</w>
맨 발</w>
맨 데이트</w>
맨 더</w>
맥티 어난</w>
맥 커너히</w>
맥 시</w>
맥 베스</w>
매끄 러
매 칭</w>
매 직키드</w>
매 즈미켈슨</w>
매 머드</w>
매 력
매 디</w>
맡 긴</w>
맡 겼</w>
맞 선</w>
망가 짐</w>
망가 뜨리</w>
망 쳐도</w>
망 조</w>
망 설</w>
망 고</w>
망 가질</w>
맘 때</w>
말랑 말랑</w>
말 릴</w>
만 화
만 호</w>
만 추</w>
만 장
만 이</w>
만 수</w>
만 사</w>
만 물</w>
만 류</w>
만 델라</w>
막 죽</w>
막 연히</w>
막 시무스</w>
막 둥이</w>
마크 월버그</w>
마이클 무어</w>
마이 티</w>
마이 트</w>
마리 솔</w>
마리 사</w>
마 파도</w>
마 테오</w>
마 취</w>
마 에</w>
마 야</w>
마 실</w>
마 들</w>
마 누</w>
링 턴</w>
림 길</w>
린 저</w>
리버 피닉스</w>
리 오타</w>
리 썰</w>
리 브리</w>
리 본</w>
리 베</w>
리 머</w>
리 듬
리듬 감</w>
리 끼리</w>
르 만</w>
류 현진</w>
류 담</w>
루 키</w>
루 크
루 미</w>
루 니
롱 런</w>
롤 링
롤 랜드</w>
록 물</w>
로이 킴</w>
로맨 티스트</w>
로 프</w>
로 워요</w>
로 만</w>
로 드맨</w>
로 넌</w>
로 군요</w>
렸 으나</w>
렷 이</w>
려 보</w>
려 니까</w>
레이첼 맥아담스</w>
레이 지</w>
레이 디</w>
레이 디
레드 윙</w>
레니 할린</w>
레 퍼
레 인지</w>
레 아세이두</w>
럭 비</w>
러 팔로</w>
러 면</w>
량 제</w>
랬 죠</w>
랬 는</w>
랩 퍼</w>
랜 디</w>
랜 덤</w>
랄 라
라이오 넬</w>
라이언 필립</w>
라이 라마</w>
라 희</w>
라 피카</w>
라 프</w>
라 임</w>
라 울</w>
라 야</w>
라 메</w>
라 따
라따 뚜
라따뚜 이</w>
라 냐</w>
라 고는</w>
띈 다</w>
뜩 이나</w>
뜨 레기</w>
뛰쳐 나온</w>
뛰어 들</w>
뛰어 납니다</w>
뚱 보</w>
뚝 딱</w>
똥 구멍</w>
똘 마니</w>
똘 똘
떼 거지</w>
떨어뜨 렸</w>
떨 기</w>
떡 실신</w>
떠 도</w>
떠 나가</w>
땡 길</w>
땡 겼</w>
땐 데</w>
때려 부시</w>
때 렸</w>
때 때로</w>
딸 림</w>
딸 린다</w>
딸 려</w>
딸 랑</w>
딴 짓</w>
따 오</w>
따 사</w>
따 땃</w>
따 나</w>
딜 런</w>
디 엠비</w>
디 에고</w>
디 스토피아</w>
디 만</w>
디 디</w>
디 도</w>
등 산</w>
등 록
듭 시다</w>
듭 니까</w>
들썩 이</w>
들썩 들썩</w>
들 키</w>
들 으러</w>
들 먹이</w>
들 림</w>
들 릴</w>
들 리
든 다면</w>
득 실</w>
드류 베리모어</w>
드라 만지</w>
드 인</w>
드 웨인</w>
드 셈</w>
드 릭</w>
드 레드</w>
듀 얼</w>
뒷 전</w>
뒷 얘기</w>
뒷 수습</w>
뒷 목</w>
뒷 담
뒷담 화</w>
뒤집어 쓰</w>
뒤 태</w>
뒤 졌</w>
뒤 섞인</w>
둘러 싸</w>
둔 다</w>
두근 거렸</w>
두 어</w>
두 만</w>
두 르</w>
두 드리</w>
두 기</w>
될 런지</w>
될 까봐</w>
되 돌려</w>
되 도록</w>
돼지 고기</w>
돼 버린</w>
동안 미녀</w>
동 주</w>
동 유럽</w>
동 식</w>
동 반자</w>
동 료
동 내</w>
동 구</w>
동 거
돌아 간다는</w>
돌려 보</w>
돌려 받</w>
돋 보일</w>
돋 구</w>
돈 아</w>
독일 인</w>
독 선</w>
독 서</w>
독 살</w>
독 사</w>
독 미</w>
도화 선</w>
도둑 맞</w>
도 최고
도 체</w>
도 진</w>
도 윤</w>
도 울</w>
도 스</w>
도 서</w>
도 사</w>
도 련</w>
도 랏</w>
도 넛</w>
도 감</w>
데인 드한</w>
데이 브</w>
데려 와서</w>
데니 스
데 포</w>
데 자뷰</w>
데 쓰</w>
데 스
데 넘</w>
덤 벼</w>
던져 준다</w>
던 짐</w>
덕 목</w>
더러 워진</w>
더라 구</w>
더 하멜</w>
더 티</w>
더 리</w>
더 나</w>
더 글
더글 러스</w>
대니 보일</w>
대 훈</w>
대 조영</w>
대 임</w>
대 사관</w>
대 뷔</w>
대 론데</w>
대 로
대 대로</w>
대 거</w>
당 해야</w>
당 체</w>
담 장</w>
담 그</w>
달라 진다</w>
달라 붙</w>
달 마</w>
달 라이라마</w>
달 갑</w>
단 죄</w>
단 시간</w>
단 상</w>
단 기</w>
단 결</w>
단 가</w>
다크 니스</w>
다이 아나</w>
다이 노</w>
다이 너
다이너 마이트</w>
다른 지</w>
다녀 야</w>
다 카시</w>
다 쳐서</w>
다 워서</w>
다 욕</w>
다 솜</w>
다 빈치</w>
다 방</w>
다 발</w>
다 면서요</w>
다 룬다는</w>
다 니깐</w>
다 고
닉 슨</w>
니시 지마</w>
니 퍼</w>
니 코
니 엘</w>
니 가</w>
능 청
는데 두</w>
는 지라</w>
는 거
느껴 볼</w>
느 냐는</w>
느 냐고</w>
느 꼈
뉴 질랜드</w>
뉴 문</w>
뉘 우치</w>
눈요깃 거리</w>
누 아르</w>
누 를</w>
높 일</w>
농 익</w>
농 사</w>
농 민</w>
농 구공</w>
논 문</w>
노 하우</w>
노 을</w>
노 어</w>
노 보
노 병</w>
노 땅</w>
노 가다</w>
녀 랑</w>
넼 ㅋㅋㅋㅋ
네이 키드</w>
네덜 란드</w>
네 즈</w>
넘쳐 난다</w>
널 린</w>
넌 센스</w>
너 비</w>
냈 었</w>
냅 다</w>
내용 도</w>
내려 앉</w>
내려 간</w>
내 평</w>
내 참</w>
내 제</w>
내 수</w>
내 손</w>
내 막</w>
내 려다</w>
내 다
내 가
낮 춰서</w>
났 으니</w>
남 다르</w>
날아 갈</w>
날 으</w>
날 아오</w>
날 아라</w>
난 지도</w>
난 중</w>
난 대</w>
난 단</w>
난 관</w>
낙 천</w>
낙 오자</w>
낙 엽</w>
나올 까요</w>
나불 거리</w>
나가 사와</w>
나 태</w>
나 지</w>
나 전</w>
나 요
나 뿐</w>
나 빠진</w>
나 만</w>
나 루</w>
나 두</w>
나 도</w>
나 노</w>
나 긴</w>
나 귀</w>
끼 어드</w>
끼 리끼리</w>
끝 냄</w>
끝 낼</w>
끝 난지</w>
끝 나
끓어 오르</w>
끌어 올린</w>
끌어 안</w>
끊 긴다</w>
끊 긴</w>
끄집어 내</w>
끄 적
끄 러</w>
뀰 잼
꿈 꿨</w>
꽂 힌</w>
꽂 혀</w>
꼽 힌다</w>
꼴 불견</w>
꼬 투리</w>
꼬 장</w>
꼬 임</w>
께 선</w>
껏 해야</w>
꺾 이</w>
꺼 야</w>
깽 깽이</w>
깨우 쳐</w>
깨 진</w>
깨 워</w>
깨 어났</w>
깨 부수</w>
깨 뜨리</w>
깝 다</w>
깜 빡
깜 둥이</w>
깔깔 깔</w>
깔깔 거리</w>
깔 린</w>
깎 아
까 내리</w>
깃 털</w>
김혜 리</w>
김지 미</w>
김준 현</w>
김조 광수</w>
김원 희</w>
김용 건</w>
김성 은</w>
김성 오</w>
김성 근</w>
김부 선</w>
김봉 두</w>
김보 연</w>
김 풍</w>
김 준</w>
김 민</w>
김 국
길들여 져</w>
긴장 도</w>
긴 한</w>
긴 커녕</w>
긴 급</w>
기울 여</w>
기억 났</w>
기억 날</w>
기시 감</w>
기다 린다</w>
기다 려서</w>
기 피</w>
기 침</w>
기 집</w>
기 지배</w>
기 즈</w>
기 종
기 장</w>
기 왕</w>
기 역</w>
기 범</w>
기 무라</w>
기 모노</w>
기 름
기 록물</w>
기 달려</w>
기 니</w>
기 나긴</w>
기 껏해야</w>
기 기</w>
급 적</w>
급 격히</w>
금 자씨</w>
금 액</w>
금 세기</w>
글로 버</w>
글로 리</w>
글 썽</w>
근 로
극 장가</w>
극 사실주의</w>
그만 둔</w>
그리 트</w>
그리 웠</w>
그리 곤</w>
그레이 트</w>
그럴 까</w>
그런 다고</w>
그래 프</w>
그 른
그 년</w>
규 현</w>
귀여 운지</w>
귀 천</w>
귀 염
궤 변</w>
권 한다</w>
굿 맨</w>
굴러 온</w>
굴러 가</w>
군 수</w>
군 기</w>
국 화꽃</w>
국 영화</w>
국 방</w>
구조 대</w>
구 차</w>
구 점</w>
구 작</w>
구 워</w>
구 선</w>
구 색</w>
구 래</w>
교 정</w>
교 시</w>
교 리</w>
괴 뢰</w>
괜춘 함</w>
괜 츈
괜 차
광개 토</w>
광 적</w>
관 절</w>
관 심사</w>
관 망</w>
곽 재용</w>
과 했</w>
과 악</w>
과 도기</w>
공 통</w>
공 업</w>
공 수</w>
공 산</w>
공 공
곰곰 히</w>
골 격</w>
곡 괭이</w>
고래 고래</w>
고고 씽</w>
고 쳐라</w>
고 종</w>
고 장난</w>
고 장</w>
고 위</w>
고 원원</w>
고 우</w>
고 였</w>
고 문
고 달프</w>
고 공</w>
고 결</w>
고 가</w>
계 열</w>
계 십니다</w>
계 선</w>
곀 ㅋ</w>
경찰 관</w>
경 첨</w>
경 준</w>
경 성</w>
경 멸</w>
경 로</w>
겹 쳐지</w>
결 점</w>
결 승</w>
결 단력</w>
견 인</w>
격 조</w>
격 려</w>
겨 워</w>
겐 가</w>
게이 버</w>
게으 름</w>
게으 른</w>
게 바라</w>
게 르만</w>
겉 잡</w>
겁 쟁이</w>
겁 먹</w>
검 정</w>
검 심</w>
걸어 다니</w>
걸 려
걷어 차</w>
건 지요</w>
건 방지</w>
거 제</w>
거 스트</w>
거 긴</w>
거 금</w>
거 같
걍 최고
갸 륵</w>
갱 생</w>
개 황</w>
개 혁</w>
개 탄스럽</w>
개 최</w>
개 작</w>
개 인사</w>
개 인기</w>
개 욕</w>
개 요</w>
개 삼</w>
개 박</w>
개 명</w>
개 꿈</w>
개 기</w>
갖 가지</w>
강력 반</w>
강남 스타일</w>
강 해졌</w>
강 태
강 약</w>
강 압</w>
강 산</w>
강 문</w>
강 렬히</w>
강 도영</w>
값 지</w>
감동 이</w>
감 이</w>
감 싸안</w>
감 사히</w>
감 겨</w>
갈 림길</w>
갈 게요</w>
갇 히</w>
간 호</w>
간 질간질</w>
각 거리</w>
가져 도</w>
가정 폭력</w>
가위 손</w>
가위 바위보</w>
가브리 엘</w>
가벼 우</w>
가득 히</w>
가까 웠</w>
가 타카</w>
가 지마</w>
가 죽</w>
가 엽</w>
가 세</w>
가 상현실</w>
가 비</w>
가 본</w>
가 면라이더</w>
가 린</w>
가 름</w>
가 를</w>
가 려
가 렐</w>
가 뜩이나</w>
가 도</w>
가 당</w>
가 기</w>
가 급적</w>
ㆍ ㆍ
ㅡㅡ 주
ㅡㅡ 장난
ㅡㅡ ㅋㅋ</w>
ㅠㅠㅠㅠㅠㅠㅠㅠ ㅠㅠㅠ</w>
ㅠㅠ 하</w>
ㅠ 근데</w>
ㅠ ㅡ
ㅠ ㅜㅠ</w>
ㅔ 요</w>
ㅏ ㅇ</w>
ㅎㅎ ㅎㅎ
ㅋㅋㅋㅋㅋㅋㅋㅋㅋㅋㅋㅋ ㅋㅋㅋ</w>
ㅋㅋㅋㅋㅋㅋㅋㅋ ㅋㅋㅋㅋ</w>
ㅊ ㅋ</w>
ㅊ ㅊ
ㅇㄴㅁ ㄹ
ㅇ ㅣ
ㅇ ㅋㅋ</w>
ㄴ 다</w>
た い
♥♥♥♥ ♥♥♥</w>
♥♥ ♥
♥* ♥*
♥ ♡</w>
♥ _
♥_ ♥</w>
★★★★ ★</w>
★★ ★</w>
~~~~~~~~ ~~~~</w>
~~~ !!!!</w>
~@ .@</w>
~!~! ~!</w>
~ ♪</w>
~ ☆</w>
~ ^
~ .~</w>
~ ...</w>
~ !!^^</w>
y g</w>
y b</w>
x x
wh o
w on
w an
v o</w>
v o
u p
u f
tt e</w>
th in
thin k</w>
su n</w>
sti c</w>
st u
spi der</w>
ser ies</w>
se en</w>
sd fa
s sa
s r
s ha
s f
s er</w>
s en
s d</w>
rea l</w>
ra z
q h
pla y</w>
pi g</w>
pi ece</w>
pi d</w>
pe ople</w>
p ri
ou ching</w>
op e</w>
oo n</w>
oo l</w>
o ld</w>
no body</w>
ni ce</w>
ne ws</w>
mov ies</w>
man ce</w>
m ost</w>
le gend</w>
k t</w>
k a</w>
in t</w>
in d</w>
in c
illi ant</w>
il y</w>
i me</w>
i c</w>
ho o</w>
hhhh hhhh
ha pp
h ot</w>
h f
good good</w>
goo od</w>
gh j
g ra
g h</w>
g et</w>
g e
fil e</w>
fi gh
ffff ffff
fa il</w>
f e
ey es</w>
en t
en e</w>
ea n</w>
e st
e m</w>
e m
dra ma</w>
do wn</w>
dddd dddd
dam n</w>
d uc
d p</w>
d n</w>
d m
d ead</w>
com p
co de</w>
c u
bu ster</w>
bb c</w>
b ye</w>
b r
b it
ar ti
ap tain</w>
ap p
ac k</w>
a way</w>
a k</w>
^^ ♥♥</w>
^^ *
^^ )</w>
^^ "</w>
^-^ *</w>
^) /</w>
^ )</w>
WT F</w>
W e</w>
U n
TV A</w>
T o</w>
T ime</w>
T T</w>
T O</w>
S H
P i
P ark</w>
P I
OM G</w>
O W</w>
O BS</w>
N o
N D</w>
M er
M S
M OR
M E
L E</w>
L A
JY P</w>
J e
I f</w>
I G</w>
H B
HB O</w>
G reat</w>
G T</w>
F il
E very
D on</w>
D o
D S</w>
D J</w>
D E
Co m</w>
Ch ri
C aptain</w>
B el
@ _
? "</w>
>> >></w>
> ?</w>
;; ?</w>
99999999 99999999
99 9</w>
9 7
9 0
70 80</w>
7 9
7 65
7 31</w>
7 2</w>
6 000</w>
4 4
3 8
23 3
2 7
2 10</w>
198 9</w>
198 1</w>
197 6</w>
19 59</w>
19 50</w>
19 48</w>
19 39</w>
17 00</w>
12345 67</w>
10 6</w>
/ ..</w>
........ ....
... !!!</w>
.. ♡</w>
.. ^^;</w>
.. ^^*</w>
.. .,
.. ,,</w>
.,.,.,., .</w>
.,.,.,., .,.,
. ^^;;</w>
. """</w>
-_- ^</w>
-, -</w>
- ^</w>
- ;;;</w>
- ;;;;</w>
,.,., .</w>
,,,,,,,,,,,,,,,, ,,,,,,,,,</w>
, ./
, .,.,</w>
, '</w>
' ,'</w>
% .</w>
!!!!!!!!!!!!!!!! !!!</w>
!!!!!!!!!!!!!!!! !!!!!!</w>
!!! ♥</w>
!! "</w>
! ?</w>
! .</w>
! ...</w>
! '</w>
￣ ∇
힘 쓰</w>
힐 러</w>
힐 듯</w>
히들 스턴</w>
히데 요시</w>
히 즘</w>
히 이</w>
히 사이
히 드라</w>
히 고</w>
희망 찬</w>
흥 얼거렸</w>
흣 한</w>
흡 연</w>
흘 린다</w>
흔 해서</w>
흔 들린</w>
흐트 러지</w>
흐느 적</w>
흐 흑</w>
흐 아</w>
흐 마
흐마 니노
흐마니노 프</w>
흐 리
흐리 멍
흐 릅니다</w>
흉 악
휴 머</w>
휴 대</w>
휘 발</w>
훔 친</w>
훔 쳐서</w>
훔 쳐
후 폭풍</w>
후 카다</w>
후 지
후지 와라</w>
후 죽순</w>
후 시</w>
후 벼
후 반기</w>
후 라이
후 대</w>
후 궁</w>
효 약</w>
회 화</w>
회 전
회전 목마</w>
회 로</w>
회 관</w>
회 감</w>
황금 시간대</w>
황금 박쥐</w>
황 태자</w>
황 찬성</w>
황 인영</w>
황 인
황인 뢰</w>
황 은정</w>
황 실</w>
황 신</w>
황 시</w>
황 순
황순 원</w>
활 약상</w>
활 개</w>
환 지</w>
환 선</w>
확 정</w>
화 풀이</w>
화 자</w>
화 염</w>
화 양</w>
화 씨</w>
화 술</w>
화 물
화 류
화류 계</w>
화 기
화기 애애</w>
홍 홍</w>
홍 종현</w>
홍 승희</w>
홍 반장</w>
홍 만</w>
홀리 데이</w>
홀 로코
홀로코 스트</w>
홀 려서</w>
혼 잡</w>
혼 난다</w>
혹 하</w>
혹 자</w>
호 히</w>
호 환</w>
호 호호</w>
호 장
호장 룡</w>
호 원</w>
호 야</w>
호 범</w>
호 박
호박 씨</w>
호 로</w>
호 라
호라 시오</w>
혜 주</w>
혜 원</w>
혜 성</w>
혜 빈</w>
협 객</w>
혐 임</w>
혈 질</w>
현실 주의자</w>
현실 성</w>
현 충
현충 일</w>
현 직</w>
현 시대</w>
현 숙</w>
현 성</w>
현 도</w>
헷갈 린다</w>
헬 스</w>
헬 멧</w>
헬 레나</w>
헤어 져</w>
헤드 셋</w>
헤 프</w>
헤 쳐</w>
헤 서</w>
헤 리슨</w>
헝 가리</w>
헛 짓</w>
험 한</w>
험 악</w>
헐 벗</w>
헐 떡
헐 겁</w>
헌 제</w>
헌 정</w>
헌 사</w>
허영 만</w>
허무 주의</w>
허 프</w>
허 파</w>
허 진
허진 스</w>
허 섭</w>
허 벌
허벌 나</w>
허 벅</w>
허 구성</w>
허 겁
허겁 지
허겁지 겁</w>
허 걱</w>
향 취</w>
향 세</w>
햏 햏</w>
행 여
행여 나</w>
했 잖아</w>
햇 님</w>
해피 엔드</w>
해야 겠
해서 일까</w>
해결 사</w>
해 파리</w>
해 커</w>
해 지지</w>
해 줄께</w>
해 줄
해 준다면</w>
해 져라</w>
해 저</w>
해 와</w>
해 악</w>
해 설
해 부
해 봐야</w>
해 버려서</w>
해 롭</w>
해 럴
해럴 슨</w>
해 드려야</w>
해 괴</w>
항 해</w>
항 준</w>
항 쟁</w>
항 일</w>
항 의</w>
합 쳐진</w>
합 지
합지 졸</w>
함 인</w>
할 튼</w>
할 만</w>
할 려다</w>
할 러
할러 데이</w>
할 래야</w>
할 게</w>
한데 다가</w>
한다 구요</w>
한겨 례</w>
한 진</w>
한 지섭</w>
한 재석</w>
한 인</w>
한 우</w>
한 성</w>
한 목</w>
한 다지만</w>
한 낮</w>
한 경</w>
학 급</w>
학 구
하이 힐</w>
하이 퍼</w>
하루 히</w>
하 향세</w>
하 쿠나</w>
하 층
하층 민</w>
하 지
하 주희</w>
하 오</w>
하 연수</w>
하 여</w>
하 얀
하 스</w>
하 숙
하 소연</w>
하 세</w>
하 당</w>
하 극
하극 상</w>
하 강</w>
핑 구</w>
필 승</w>
픽 쳐
픽쳐 스</w>
피비 케이츠</w>
피비 린내</w>
피 타</w>
피 츠
피 워</w>
피 온</w>
피 아프</w>
피 바디</w>
피 리</w>
피 구
피구 왕</w>
플래 터</w>
플 링</w>
플 로</w>
플 렛</w>
플 레인</w>
플 레</w>
프리 드
프리드 킨</w>
프로 도</w>
프레 스티
프레스티 지</w>
프레 소</w>
프 스</w>
프 사이</w>
프 맨</w>
프 리티</w>
프 롬</w>
프 롤
프롤 로그</w>
프 란</w>
풍 속</w>
풍 소
풍소 봉</w>
풍 비
풍비 박산</w>
풍 덩</w>
풍 년</w>
풍 겨</w>
풋 내</w>
풀 린다</w>
풀 린</w>
푸 티</w>
푸 시</w>
푸 념</w>
표 류</w>
표 류
표류 기</w>
퐁 당</w>
폴 포츠</w>
폴 락</w>
폭력 성</w>
포 청</w>
포 질</w>
포 지
포지 션</w>
포 식자</w>
포 니</w>
폐 허</w>
폐 막</w>
평점 이
평 한</w>
평 택</w>
평 탄</w>
평 가
펼 친</w>
편집 증</w>
편 했</w>
편 린</w>
편 곡</w>
펠 릭스</w>
펠 라</w>
펜 더</w>
페이스 풀</w>
페이스 오프</w>
페르 시아</w>
페 리</w>
페 르</w>
페 로스</w>
페 그</w>
퍽 퍽</w>
퍼 붓</w>
퍼 링</w>
팩 스</w>
패러 독
패러독 스</w>
패 인</w>
패 스트
패스트 푸드</w>
패 러</w>
패 거리</w>
팜 플렛</w>
팔 릴</w>
팔 려</w>
판 도라</w>
판 국</w>
판 가름</w>
파헤 친</w>
파키 스탄</w>
파멜 라</w>
파렴 치</w>
파란 색</w>
파 파
파파 야</w>
파 충
파충 류</w>
파 인
파인 애플</w>
파 식</w>
파 사</w>
파 마</w>
파 랗</w>
파 도치</w>
파 구</w>
팅 팅</w>
팀 버
팀버 레이크</w>
틴 틴</w>
틴 탑</w>
티 셔츠</w>
티 드</w>
티 니</w>
틀어 막</w>
틀림 없이</w>
틀 려서</w>
틀 랜드</w>
튼 실</w>
특 효약</w>
특 강</w>
트위 스트</w>
트로 피</w>
트레 버</w>
트랜 스
트 인</w>
트 이</w>
트 윈
트윈 스</w>
트 였</w>
트 레인</w>
트 럴</w>
트 라이</w>
튈 지</w>
튀어 나왔</w>
튀어 나올</w>
퉤 퉤퉤</w>
투 하</w>
투 지</w>
투 심</w>
투 성인</w>
투 덜</w>
퇴 행</w>
통 째</w>
통 죄</w>
톰 과</w>
톡 스</w>
토 종</w>
토 익</w>
토 양</w>
토 악</w>
토 속</w>
토 모야</w>
토 모
토 드</w>
토 글</w>
텔 레</w>
텐 트</w>
테 츠야</w>
테 리어</w>
테 리
테리 길리엄</w>
테 니</w>
테 넌
테넌 트</w>
텅 이</w>
털 털</w>
털 끝</w>
턴 데</w>
턱 시도</w>
터트 렸</w>
터미 널</w>
터뜨 릴</w>
터 운</w>
탱 탱</w>
탤 런트</w>
태어 날</w>
태 작</w>
탐 닉</w>
탐 나</w>
탈 리스트</w>
탈 락
탈락 자</w>
탄 탄
탄 절</w>
탄 불</w>
탄 복</w>
탁 연</w>
타이 완</w>
타이 어</w>
타 주</w>
타 작</w>
타 인
타인 데이</w>
타 르</w>
타 나</w>
타 계</w>
킹 한</w>
킹 온</w>
킬링 필드</w>
킬 라</w>
킨 지</w>
킨 세일</w>
키타 노</w>
키리 시마</w>
키득 거리</w>
키 포인트</w>
키 친</w>
키 에
키 리</w>
키 득</w>
클로 징</w>
클라 크</w>
클 루
클 랜
클랜 시</w>
큭 큭</w>
크로 바
크로바 틱</w>
크레이 머</w>
크래 커</w>
크라 운
크라운 제이</w>
크ㅋ 크ㅋ
크 백</w>
크 메르</w>
퀼 트</w>
퀘 어</w>
퀀 텀</w>
쿵 쾅
쿨 럭</w>
쿠릴 렌
쿠릴렌 코</w>
쿠르 즈</w>
쿠로 사와</w>
쿠 파</w>
쿠 시</w>
쿠 소</w>
쿠 로</w>
쾌 히</w>
콰 이어트</w>
콩 콩콩</w>
콩 가</w>
콤 달콤</w>
콜롬 비</w>
콜 드</w>
콘 티</w>
콘 크리트</w>
코 브
코 메</w>
코 리</w>
코 르</w>
코 러스</w>
코 네</w>
코 너리</w>
켈 리
켄 지</w>
켄 드릭</w>
케이트 윈슬렛</w>
케이 틀</w>
케이 드</w>
케빈 스페이시</w>
케 네스</w>
컴 컴</w>
컥 울컥</w>
커트 코베인</w>
커 야</w>
커 넥
캥 거
캥거 루</w>
캐 논</w>
카프 리</w>
카운 터</w>
카메 룬</w>
카르 페</w>
카르 텔</w>
카르 멘</w>
카 펠라</w>
카 탈
카 즈</w>
카 제</w>
카 일</w>
카 인</w>
카 와이</w>
카 야</w>
카 아</w>
카 시
카 스미</w>
카 셀</w>
카 반</w>
카 리</w>
칩 스</w>
칠 려고</w>
칙 스</w>
치켜 세우</w>
치켜 뜨</w>
치 프</w>
치 오</w>
치 약</w>
치 범</w>
치 를</w>
치 과</w>
취 리</w>
충 무</w>
출 판사</w>
출 진</w>
출 세</w>
출 발
출 간</w>
춘 수</w>
추 장</w>
추 세</w>
쵝 도최고
최루 탄</w>
최고 조</w>
최 홍만</w>
최 지연</w>
최 우수</w>
최 야
최야 성</w>
최 명
최명 길</w>
최 루</w>
최 대
최 곤</w>
총 제</w>
총 장</w>
초 현실주의</w>
초 토</w>
초 지
초 식</w>
초 석</w>
초 롱
쳣 다</w>
쳐 질</w>
쳐 죽일</w>
쳐 죽이</w>
쳐 야지</w>
쳐 버린</w>
쳐 놨</w>
체육 관</w>
체 질</w>
체 벌</w>
체 념</w>
청 해</w>
청 산</w>
청 바지</w>
청 룡</w>
청 구</w>
첩 첩
첩첩 산중</w>
첩 보전</w>
철 면
철면 피</w>
철 들</w>
천연 덕</w>
천 주교</w>
천 제</w>
천 은경</w>
천 우희</w>
천 억</w>
천 수</w>
천 성</w>
천 리</w>
천 도</w>
척 결</w>
처 진</w>
처 증</w>
처 자식</w>
처 자</w>
처 음
처 서</w>
처 러</w>
처 남</w>
챙 이</w>
챈 들러</w>
책임 져</w>
책 정</w>
채 탁연</w>
채 워서</w>
찾아 와서</w>
찾아 나서</w>
창작 물</w>
창 희</w>
창 자</w>
창 수</w>
찬 송가</w>
찬 송</w>
착 해서</w>
착 찹</w>
착 증</w>
착 잡</w>
착 상</w>
차 차</w>
차 우</w>
차 세대</w>
차 분히</w>
차 근</w>
차 근
차근 차근</w>
찔 끔
찌그러 져</w>
찌 이</w>
쫓 겨</w>
쪽 발이</w>
째 지</w>
짱 짱
짬 밥</w>
짤 라</w>
짝 살짝</w>
짜증 나
짜 릿
짜릿 짜릿</w>
짜 리
짜리 몽땅</w>
징글 맞</w>
징 하</w>
징 자</w>
집 필</w>
집 사람</w>
짊 어진</w>
질러 서</w>
질 환</w>
질 투심</w>
질 려서</w>
질 려고</w>
질 까봐</w>
진행 형</w>
진주 만</w>
진 해</w>
진 핑</w>
진 품</w>
진 저리</w>
진 작
진작 에</w>
진 못했</w>
직 진</w>
직 결</w>
지켜 낸</w>
지지 자</w>
지배 인</w>
지도 않
지나 침</w>
지 팡이</w>
지 중
지중 해</w>
지 주</w>
지 워
지워 버림</w>
지 용</w>
지 어야</w>
지 아장
지아장 커</w>
지 심</w>
지 수원</w>
지 성인</w>
지 부</w>
지 림</w>
지 른다고</w>
지 력</w>
지 렁이</w>
지 동원</w>
지 남</w>
지 나왔</w>
지 끈</w>
지 감</w>
증 상</w>
증 맞</w>
즐거 워서</w>
즌 들</w>
즉 흥</w>
즈 키</w>
쥴 리아</w>
쥬 세페</w>
줫 으면</w>
줘 패</w>
중 앙
중 무장</w>
중 국
중 공업</w>
줍 니까</w>
줄리엣 비노쉬</w>
줄리안 무어</w>
줄 여서</w>
줄 어드</w>
줄 서</w>
준 환</w>
준 하</w>
죽여 버려</w>
죽 일
죽 인다는</w>
죽 기</w>
주절 주절</w>
주저 앉</w>
주저 리
주저리 주저리</w>
주 홍</w>
주 접</w>
주 절대</w>
주 작</w>
주 입
주입 식</w>
주 어지</w>
주 술</w>
주 사</w>
주 병</w>
주 방
주방 장</w>
주 말
죠 죠</w>
죗 값</w>
죄 이</w>
좌 표</w>
좌 편</w>
종 용</w>
종 속</w>
종 량제</w>
종 대</w>
종 교
존레 넌</w>
존 시</w>
존 말코비치</w>
존 나
족 히</w>
족 쇄</w>
족 발</w>
조선 소</w>
조 혼</w>
조 짐</w>
조 증</w>
조 종
조 양</w>
조 약</w>
조 신</w>
조 수</w>
조 셉
조셉 고
조셉고 든
조 민아</w>
조 르</w>
조 델</w>
졌 으니</w>
졋 으면</w>
져 야
져야 한다</w>
져 리</w>
젠 가</w>
제임스 본드</w>
제이슨 리</w>
제이미 벨</w>
제기 랄</w>
제게 는</w>
제갈 량</w>
제 현</w>
제 출</w>
제 역</w>
제 시간</w>
제 스</w>
제 복</w>
제 멋</w>
제 마</w>
제 럴
제 독</w>
제 구</w>
제 갈</w>
정규 직</w>
정 품</w>
정 통
정 태우</w>
정 제</w>
정 재</w>
정 일</w>
정 인
정 완</w>
정 애리</w>
정 소영</w>
정 소민</w>
정 세운</w>
정 성일</w>
정 설</w>
정 석원</w>
정 부
정 령</w>
정 떨어지</w>
정 경</w>
정 갈</w>
정 가</w>
젓 가락</w>
접 시</w>
점 후</w>
점 장</w>
절름 발이</w>
절 차</w>
절 도</w>
절 권
절권 도</w>
전 해져
전 할</w>
전 탑</w>
전 철</w>
전 집</w>
전 증</w>
전 주국</w>
전 전
전전 긍
전전긍 긍</w>
전 일</w>
전 위</w>
전 원
전 반전</w>
전 망</w>
전 래</w>
전 등</w>
전 규환</w>
전 구</w>
전 교조</w>
적 힌</w>
적 성</w>
저쩌 구</w>
저격 범</w>
저 편</w>
저 택</w>
저 의</w>
저 울</w>
저 우
저우 쉰</w>
저 열</w>
저 스티스</w>
저 메
저메 키스</w>
저 러스</w>
저 년</w>
잭 바우어</w>
재밌 었
재미 난다</w>
재 혼</w>
재 판
재 무</w>
재 고</w>
장인 어른</w>
장미 꽃</w>
장 희진</w>
장 후</w>
장 항준</w>
장 한</w>
장 하나</w>
장 착</w>
장 준환</w>
장 작</w>
장 자
장 임</w>
장 영화</w>
장 영
장 애물</w>
장 말</w>
장 로</w>
장 년</w>
장 광</w>
잡아 끄</w>
잡 힐듯</w>
잡 한</w>
잡 쳤</w>
잡 아내</w>
잡 스럽</w>
잡 수
잡 동사
잡동사 니</w>
잠재 워</w>
잠 수</w>
잠 겨</w>
잘 만
잔혹 극</w>
잔 지</w>
잔 인
작 아지</w>
작 별</w>
작 명</w>
작 교</w>
자이언 츠</w>
자유 인</w>
자연 산</w>
자리 매
자리매 김</w>
자 학</w>
자 하</w>
자 켓</w>
자 칼</w>
자 적</w>
자 작</w>
자 웅</w>
자 선</w>
자 석</w>
자 빠진</w>
자 발</w>
자 라니</w>
자 드</w>
자 기
자 고로</w>
자 건</w>
자 가
잇 신</w>
입 체감</w>
입 금</w>
임 효성</w>
임 하</w>
임 지연</w>
임 의</w>
임 영동</w>
임 명</w>
임 꺽
임꺽 정</w>
읽 히</w>
읽 혀</w>
일으 킴</w>
일어 남</w>
일어 난다는</w>
일어 난다</w>
일본 원숭이</w>
일라이 저</w>
일 회
일 터</w>
일 장기</w>
일 인</w>
일 영</w>
일 상
일 면</w>
일 률</w>
일 루</w>
일 련</w>
일 레인</w>
일 라이</w>
일 드</w>
일 녀</w>
일 나</w>
일 급</w>
일 극</w>
일 견</w>
일 간</w>
일 가</w>
인정 사정</w>
인생 무상</w>
인류 애</w>
인 현</w>
인 프라</w>
인 치</w>
인 전</w>
인 장</w>
인 숙</w>
인 륜</w>
인 극</w>
인 고</w>
인 격
인 갑다</w>
익 산</w>
익 명</w>
이태 원</w>
이종 현</w>
이종 원</w>
이자 웅</w>
이은 우</w>
이윤 기</w>
이어 받</w>
이어 가기</w>
이야 긴지</w>
이수 아</w>
이상 해</w>
이상 하</w>
이상 인</w>
이보 희</w>
이민 영</w>
이미 아담스</w>
이도 경</w>
이니 셜</w>
이겨 낼</w>
이 혼녀</w>
이 포</w>
이 타</w>
이 퀄</w>
이 즈
이 주</w>
이 율</w>
이 유라</w>
이 외
이외 수</w>
이 왕
이 영</w>
이 업</w>
이 양</w>
이 아</w>
이 세
이 쁨
이 뻐야</w>
이 발사</w>
이 맘때</w>
이 말년</w>
이 만화</w>
이 리스</w>
이 륙</w>
이 룸</w>
이 디</w>
이 누
이 너무
이 글
이 겼
이 견</w>
이 겨라</w>
이 건데</w>
이 가</w>
의 향</w>
의 처증</w>
의 별</w>
의 기
응 큼</w>
응 징자</w>
응 시</w>
응 가</w>
음식 점</w>
음 파</w>
음 지</w>
음 주</w>
음 료
음료 수</w>
을까 란</w>
을 라</w>
을 께요</w>
을 꺼
은하 철도</w>
은 혁</w>
은 폐</w>
은 영</w>
은 설</w>
윽 박
윽박 지르</w>
으 헤헤</w>
으 하하하</w>
으 십니다</w>
으 신가</w>
으 렴</w>
으 려다가</w>
으 래</w>
으 디</w>
율 동</w>
윤 진이</w>
윤 정수</w>
윤 승아</w>
윤 복</w>
윤 다
윤다 훈</w>
육체 미</w>
육 회</w>
육 지</w>
육 중</w>
육 신</w>
육 상효</w>
육 덕</w>
유인 영</w>
유아 틱</w>
유니 폼</w>
유니 세
유니세 프</w>
유 해
유 한</w>
유 탄</w>
유 채영</w>
유 즈</w>
유 족</w>
유 저</w>
유 의</w>
유 에프
유에프 오</w>
유 언</w>
유 실물</w>
유 세</w>
유 서</w>
유 병
유 망</w>
유 려</w>
유 교</w>
윙 거</w>
윌 비</w>
윈 드</w>
위노 나
위노나 라이더</w>
위 자</w>
위 요</w>
위 신</w>
위 스키</w>
위 배</w>
위 기
웬 걸</w>
웨 이즈</w>
웨 스트</w>
웟 습니다</w>
웟 고</w>
월 령</w>
원 형</w>
원 내</w>
원 갑</w>
워 너비</w>
워 너</w>
웅 얼거리</w>
웅 대
웅대 림</w>
웃 기
움직 인</w>
움 켜
움 찔
울렁 증</w>
울 컥울컥</w>
울 보</w>
울 먹이</w>
울 립니다</w>
울 려고</w>
운 전대</w>
욱 일기</w>
우체 통</w>
우선 시</w>
우 희진</w>
우 후죽순</w>
우 하하하</w>
우 트</w>
우 창</w>
우 절</w>
우 열</w>
우 역</w>
우 병</w>
우 뚱</w>
우 니</w>
우 기
우 겨</w>
욯 ㅎㅎ</w>
용 팔이</w>
용 우</w>
용 역</w>
용 쓰</w>
용 굿</w>
욕심 내</w>
요 호</w>
요 절</w>
요 망</w>
요 들</w>
요 나</w>
요 금</w>
왼 발</w>
외 할아버지</w>
외 할머니</w>
외 편</w>
외 쳤</w>
외 제</w>
외 워</w>
외 심</w>
외 세</w>
외 상</w>
외 박</w>
외 로
외 국어</w>
외 교
외교 부</w>
외 곡</w>
왕 세자</w>
왕 리
왕리 홍</w>
왔 으면</w>
완 슨</w>
완 선</w>
완 급</w>
와타 나베</w>
와이 즈</w>
와 호장룡</w>
와 전</w>
와 이트</w>
와 서야</w>
옹 기종
옹기종 기</w>
옳 소</w>
올리 비아
올리비아 핫세</w>
올려 도</w>
올려 놨</w>
올라 간다</w>
올 마이티</w>
올 릴
올 려요</w>
올 랜
올 래</w>
온 화</w>
온 스타일</w>
온 데
온데 간데없</w>
온 기</w>
옥 희</w>
옥 이</w>
옥 담</w>
오토 봇</w>
오지 마</w>
오지 랍</w>
오스트 리아</w>
오스 먼트</w>
오비 완</w>
오만 석</w>
오드리 헵번</w>
오도 넬</w>
오 합지졸</w>
오 하라</w>
오 취리</w>
오 진우</w>
오 작교</w>
오 의</w>
오 요
오 야</w>
오 승
오 세
오 빠
오 마이</w>
오 루</w>
오 뚜기</w>
오 뎅</w>
오 나전</w>
옜 다</w>
옜 날
옛 적</w>
예술 인</w>
예 지</w>
예 인</w>
예 우</w>
예 시</w>
예 쁜지</w>
예 매
예매 권</w>
예 린</w>
영화 가</w>
영감 탱이</w>
영 정</w>
영 작</w>
영 삼</w>
영 부
영부 영</w>
영 등
영등 포</w>
영 도</w>
영 규</w>
였 을까</w>
엽 신</w>
염 치
염 려</w>
열 파</w>
열 통</w>
열 자
열 대야</w>
열 거</w>
연애 담</w>
연기 력
연 타</w>
연 지</w>
연 적</w>
연 옥</w>
연 분</w>
연 모</w>
연 녀</w>
엮 인</w>
역겨 운데</w>
역 진</w>
역 변</w>
역 도</w>
여행 가</w>
여주 만
여 호</w>
여 진다</w>
여 일견</w>
여 울</w>
여 운
여 우비</w>
여 여</w>
여 어</w>
여 야만</w>
여 성향</w>
여 서인지</w>
여 미</w>
여 류</w>
여 려</w>
여 겨야</w>
여 걸</w>
엠 파이어</w>
엘 자</w>
엘 료</w>
엔 지</w>
엔 리오</w>
엔 딩
에이프 릴</w>
에이 전트</w>
에스 프레소</w>
에스 퍼</w>
에스 엠</w>
에 헴</w>
에 헤</w>
에 펠</w>
에 트</w>
에 타이</w>
에 잉</w>
에 이트</w>
에 이미아담스</w>
에 염</w>
에 서
에 비</w>
에 버
에 밀리
에 나</w>
엉 키</w>
었 인지</w>
엇 비슷</w>
엇 나가</w>
없 네</w>
업 로드</w>
업 계</w>
업 가</w>
엄청 남</w>
엄 지
엄 습</w>
엄 다
엄다 혜</w>
얼 치기</w>
얼 만큼</w>
얼 개</w>
언 저리</w>
언 스</w>
억 지루</w>
어처구 니없이</w>
어찌 하</w>
어쨌 다는</w>
어지러 워</w>
어울 립니다</w>
어울 릴까</w>
어울 린다는</w>
어우러 져서</w>
어림 없</w>
어리 광</w>
어렴 풋</w>
어려 웠어요</w>
어려 운지</w>
어려 운데</w>
어려 운가</w>
어떤 지는</w>
어김 없이</w>
어 캣</w>
어 쩡쩡</w>
어 져서</w>
어 으</w>
어 영부영</w>
어 서야</w>
어 불
어불 성
어불성 설</w>
어 랏</w>
어 때
어 딜
어 다가</w>
어 구</w>
어 거</w>
어 가</w>
얕 보</w>
얔 ㅋㅋ</w>
양 현석</w>
양 치기</w>
양 철</w>
양 육</w>
양 손</w>
양 성애자</w>
양 보</w>
얄 개</w>
약 해진</w>
약 올리</w>
약 소
약소 국</w>
약 사</w>
야야 야야야</w>
야구 장</w>
야 훼</w>
야 할지</w>
야 코</w>
야 제</w>
야 아</w>
야 닌</w>
야 금</w>
앵 그리</w>
앳 킨스</w>
앤드류 스</w>
액 자</w>
애처 로운</w>
애니메이 터</w>
애 완</w>
애 석</w>
애 마</w>
애 드리안</w>
애 덤스</w>
애 꾸</w>
애 간장</w>
앞 잡이</w>
앞 세
앙 투
앙 증맞</w>
앗 싸</w>
알츠 하이머</w>
알아 채</w>
알아 차릴</w>
알아 본다는</w>
알렉산 드
알렉 산드라</w>
알레 고리</w>
알 프</w>
알 파
알 싸</w>
알 버트</w>
알 바니</w>
알 록
알록 달
알록달 록</w>
알 랑</w>
안젤 라</w>
안성 맞춤</w>
안드 로이드</w>
안드 레아</w>
안 타</w>
안 코</w>
안 지</w>
안 소니
안 본</w>
안 병기</w>
안 방</w>
안 마</w>
안 느</w>
안 노</w>
안 긴</w>
안 간
안간 힘</w>
악 화</w>
악 장</w>
악 영향</w>
악 연</w>
악 습</w>
아프 간</w>
아프 가
아프가 니
아프가니 스탄</w>
아카 네</w>
아이 피</w>
아이 비</w>
아이 보리</w>
아이 노</w>
아오 이소라</w>
아쉬 우</w>
아만다 바인즈</w>
아마 데우스</w>
아른 거린다</w>
아르 바
아르바 이트</w>
아련 히</w>
아랫 사람</w>
아랫 놈</w>
아닐 런지</w>
아니 할</w>
아까 워
아가 페</w>
아 햏햏</w>
아 편</w>
아 트
아 크로바틱</w>
아 참</w>
아 지
아 재밌
아 쉽
아 쇠</w>
아 서요</w>
아 사</w>
아 릿</w>
아 릴</w>
아 론
아 려서</w>
아 랍
아랍 인</w>
아 란</w>
아 디</w>
아 득</w>
아 녜
아 네</w>
아 낄</w>
아 ㅏ
씩 씩</w>
씨 익</w>
쓴 다고</w>
쓰라 린</w>
쓰 였</w>
쓰 릴</w>
쓰 디
쓰디 쓴</w>
쓰 기</w>
쏙 쏙</w>
썻 다</w>
썻 나</w>
썬 더
썬더 일레븐</w>
써 져</w>
써 야할지</w>
쌍 코피</w>
쌈 질</w>
쌀 밥</w>
싹 둑</w>
싸 이트</w>
싸 울
싸 운다</w>
싸 매</w>
싸 리</w>
싱 숭
싱숭 생
싱숭생 숭</w>
싱 글
싱글 즈</w>
싱 거</w>
싱 거
십 오야</w>
심 혈</w>
심 해도</w>
심 청</w>
심 이</w>
심 술</w>
심 바</w>
심 난</w>
심 기</w>
실베 스타스텔론</w>
실리 콘</w>
실 크</w>
실 장</w>
실 연</w>
실 어</w>
실 미</w>
실 려</w>
실 대</w>
신호 탄</w>
신해 혁명</w>
신성 모독</w>
신기 태</w>
신 희</w>
신 탕</w>
신 촌</w>
신 전</w>
신 일</w>
신 윤복</w>
신 연식</w>
신 속</w>
신 설</w>
신 선도</w>
신 문
신 명</w>
신 다고</w>
신 규</w>
식 축구</w>
식 성</w>
시험 관</w>
시집 가</w>
시끄러 웠</w>
시 트</w>
시 크</w>
시 착</w>
시 진핑</w>
시 즈
시 정지</w>
시 양</w>
시 스터</w>
시 선생</w>
시 분</w>
시 바
시 멈</w>
시 리우스</w>
시 리얼</w>
시 럽</w>
시 라
시라 소니</w>
시 드니</w>
시 당</w>
승 객</w>
습 네다</w>
습 기</w>
슬 푸</w>
슬 림</w>
스프 레이</w>
스페 라도</w>
스파 르</w>
스트리 퍼</w>
스트 릿</w>
스토리 도</w>
스테 프</w>
스테 로이드</w>
스킨 헤드</w>
스키 장</w>
스코 틀랜드</w>
스코 스</w>
스커 버리</w>
스마 우그</w>
스러 웠을</w>
스러 기</w>
스 플래터</w>
스 팍</w>
스 튜</w>
스 퀘어</w>
스 케이트</w>
스 커</w>
스 완슨</w>
스 본</w>
스 반
스반 산트</w>
스 랑</w>
스 가</w>
슝 다이
슝다이 린</w>
슈퍼 밴드</w>
쉬 원</w>
쉣 뜨
쉐 일
쉐 이</w>
쉐 리</w>
술 주정</w>
순 환선</w>
순 천</w>
순 순히</w>
순 리</w>
순 둥이</w>
순 덕</w>
숙 취</w>
숙 성</w>
수호 신</w>
수수 께
수수께 끼</w>
수무 강</w>
수도 승</w>
수 혁</w>
수 탈</w>
수 집</w>
수 줍</w>
수 전증</w>
수 잔
수 역</w>
수 여</w>
수 갑</w>
수 가</w>
쇼 헤이</w>
쇼 트</w>
쇼 킹한</w>
송일 곤</w>
송 창의</w>
송 전탑</w>
송 어</w>
송 능
송능 한</w>
솟구 친다</w>
솟 아
솜 사탕</w>
솔직 이</w>
솔 비</w>
솔 라
솔라 리스</w>
손 짓</w>
손 잡이</w>
손 양원</w>
손 모가지</w>
손 담
손담 비</w>
손 녀
손녀 딸</w>
손 꼽힐</w>
속삭 임</w>
속 일</w>
속 어</w>
속 시원히</w>
속 버스</w>
소개 팅</w>
소 환</w>
소 홀</w>
소 풍</w>
소 치</w>
소 천</w>
소 자</w>
소 외감</w>
소 아암</w>
소 셜</w>
소 생</w>
소 변</w>
소 모
소 말
소말 리아</w>
소 르
소르 비노</w>
소 대장</w>
소 대</w>
소 담</w>
소 나
소나 티네</w>
소 극</w>
소 규모</w>
셨 으니</w>
셋 째</w>
셀 룰
셀룰 러</w>
셀 로나</w>
센 치</w>
세상 에</w>
세레 나
세레나 데</w>
세 코</w>
세 일러</w>
세 움</w>
세 욧</w>
세 수</w>
세 속</w>
세 세히</w>
세 록</w>
세 관</w>
세 간</w>
성인 영화</w>
성대 현</w>
성 편</w>
성 탄절</w>
성 주의</w>
성 정</w>
성 인용</w>
성 악
성 시</w>
성 불</w>
성 병</w>
성 배</w>
성 규</w>
성 건성</w>
섯 다</w>
섬 칫</w>
섬 나라</w>
설명 서</w>
설레 인다</w>
설렁 설렁</w>
설 키</w>
설 설</w>
설 산</w>
설 기</w>
섣 불리</w>
선구 자</w>
선 환</w>
선 혈</w>
선 평</w>
선 전물</w>
선 인</w>
선 의</w>
선 유</w>
선 역</w>
선 문</w>
선 명히</w>
선 두</w>
석 화</w>
석 진</w>
석 연찮</w>
석 대</w>
서 포트</w>
서 티</w>
서 적</w>
서 임</w>
서 언</w>
서 신애</w>
서 스</w>
서 랍</w>
서 강
샴 발라</w>
샤를 로
샤 시</w>
생활 비</w>
생겼 으니</w>
생겨 도</w>
생 판</w>
생 크림</w>
생 일날</w>
생 성</w>
생 떼</w>
생 동</w>
생 기
생기 발랄</w>
생 고생</w>
샛 별</w>
샐러 리
샐러리 맨</w>
색 정
색 시</w>
색 무취</w>
새 하얀</w>
새 콤달콤</w>
새 우</w>
새 싹</w>
상 하이</w>
상 종</w>
상 열</w>
상 암</w>
상 시</w>
상 봉</w>
상 박</w>
상 대역</w>
상 냥</w>
상 극</w>
상 국</w>
샀 었</w>
삼각 김밥</w>
삼 합회</w>
삼 풍</w>
삼 천포</w>
살아 감</w>
살 찌</w>
살 짝살짝</w>
살 아요</w>
산 지</w>
산 점</w>
산 소</w>
산 느</w>
사이 클</w>
사이 먼
사우 루스</w>
사우 나</w>
사라 져
사 쿠라</w>
사 카이</w>
사 카</w>
사 절</w>
사 안</w>
사 셨</w>
사 법</w>
사 바나</w>
사 무</w>
사 령
사령 관</w>
사 디
사 대</w>
사 니</w>
사 남</w>
사 그러
삐 뚤</w>
뿐 히</w>
뽑아 낸</w>
뽑 힌</w>
뽑 히</w>
뽑 혔</w>
뼈 져리</w>
뻘 쭘</w>
뻔 해요</w>
뺏 어가</w>
뺀 다면</w>
빽 빽</w>
빵 셔틀</w>
빰 빠</w>
빨아 들이</w>
빨간 색</w>
빨 래</w>
빠져 나가</w>
빠 샤</w>
빛 바랜</w>
빛 내</w>
빗 나간</w>
빌 빌
빌 리
빈 스본</w>
빈 센
빅 리그</w>
비행 사</w>
비틀 어진</w>
비켜 라</w>
비즈 니스</w>
비아 탄</w>
비상 사태</w>
비 현실성</w>
비 통</w>
비 타</w>
비 켜</w>
비 춰진</w>
비 정규직</w>
비 욘</w>
비 시</w>
비 속어</w>
비 번</w>
비 방</w>
비 기</w>
비 굴</w>
비 구니</w>
비 관</w>
비 결</w>
블 리
블 러</w>
블 랑</w>
브루 노</w>
브로 크백</w>
브로 커</w>
브래 들리</w>
브래 들리
브래들리 쿠퍼</w>
브람 스</w>
브 레</w>
브 랫</w>
브 라이</w>
붙 임</w>
붓 다</w>
불어 넣</w>
불러 일으킨</w>
불러 라</w>
불량 품</w>
불가 사리</w>
불 혹</w>
불 장난</w>
불 여일견</w>
불 시착</w>
불 순</w>
불 붙</w>
불 분명</w>
불 만
불만 제로</w>
불 르</w>
불 결</w>
불 가지</w>
분신 술</w>
분 한</w>
분 전</w>
북극 곰</w>
북 쪽</w>
북 조선</w>
북 받쳐</w>
부정 부패</w>
부딪 히</w>
부 친</w>
부 쳤</w>
부 채</w>
부 적합</w>
부 스러기</w>
부 숴
부 순</w>
부 린다</w>
부 루스</w>
부 랴</w>
부 동산</w>
부 당
부당 거래</w>
부 다</w>
부 글</w>
봤 는데</w>
봣던 영화
봣 으면
봣 어용</w>
봣 어
봣 다면</w>
봣 는지</w>
봐야 겠어요</w>
봉 황</w>
봄 비</w>
볼드 윈</w>
볼 만
볼 려구요</w>
볼 라면</w>
볼 때
본 작</w>
본 심</w>
본 승</w>
본 론</w>
본 디</w>
본 대</w>
본 다니</w>
본 가</w>
복 용</w>
복 받쳐</w>
복 면</w>
복 권</w>
보여 질</w>
보물 섬</w>
보드 카</w>
보낼 까</w>
보 험
보 프</w>
보 있</w>
보 일지</w>
보 였으나</w>
보 신탕</w>
보 세요</w>
보 살피</w>
보 보</w>
보 병</w>
보 배</w>
보 름
보름 달</w>
보 령</w>
보 답</w>
보 는데</w>
보 낸다는</w>
보 기
병 태</w>
별 주</w>
별 의별</w>
별 별</w>
별 말</w>
별 도</w>
별 난</w>
변 희봉</w>
변 해서</w>
변 죽</w>
변 영주</w>
변 두리</w>
변 가</w>
벽 장</w>
벼 락</w>
벨 소리</w>
벨 바그</w>
벨 로</w>
베이 커리</w>
베이 다</w>
베니 그
베니그 노</w>
베 킨세일</w>
베 어스</w>
베 버리</w>
베 껴
베껴 온</w>
벙 벙</w>
벗 겨진</w>
벗 겨
법 치주의</w>
법 체</w>
법 원</w>
법 석</w>
법 대</w>
범 행</w>
벌어 졌</w>
벌 점</w>
벌 렁</w>
벌 금</w>
번 쩍
번 갈</w>
버 퍼링</w>
버 터
버 엔딩</w>
버 스커</w>
버 릴라</w>
버 로우</w>
버 렸
버 려도</w>
버 럭
버 라이
버라이 어티</w>
버 거워</w>
밴 더</w>
백 이</w>
백 옥담</w>
백 업</w>
백 서</w>
백 문</w>
백 날</w>
배 웠으면</w>
배 워
배 분</w>
배 부르</w>
배 반</w>
[...]
